#version: 0.2
i n
Ġ t
Ġ a
h e
r e
o n
t i
Ġ o
t e
Ġt he
e n
Ġ s
Ġ c
Ġo f
Ġ p
Ġ in
a l
Ġ w
Ġa n
r o
r a
e s
a s
e d
Ġ b
i s
Ġ d
ti on
Ġ m
i t
i c
Ġ f
o r
e r
Ġan d
a n
a r
l e
Ġ re
en t
l y
in g
Ġt o
Ġ e
a t
u l
a te
e c
o s
u s
Ġ h
i d
v e
Ġ n
Ġ T
Ġt h
o l
o m
a tion
it h
Ġw ith
Ġ l
c e
i m
l l
te r
Ġ g
u n
e re
u r
ĠT he
Ġw as
Ġc on
t a
u m
Ġb e
p h
Ġ (
u c
t h
a c
Ġ is
Ġp ro
Ġa c
i f
in e
Ġd e
i g
Ġb y
t s
te d
d i
Ġ v
o c
Ġf or
re s
Ġw ere
ro m
ti c
it y
as e
s e
o w
ate d
Ġ 1
a m
Ġ on
t ra
i b
o g
i l
č Ċ
o d
e ll
u t
Ġ A
Ġa s
o t
a ti
Ġe x
Ġre s
Ġth at
Ġ I
Ġ ra
Ġo r
ent s
t u
Ġm e
Ġc h
o p
i r
Ġs u
Ġc om
Ġf rom
Ġc ell
f f
ti v
t r
i on
he r
y s
Ġa l
y l
ti ve
q u
ic al
ra n
v er
g e
Ġa t
Ġcom p
re d
Ġ C
i a
Ġa re
Ġd is
Ġ en
d uc
Ġs e
y p
Ġ 2
ra tion
Ġw h
un d
Ġin c
n t
a d
an t
o us
p p
m ent
Ġs p
Ġp ati
Ġan ti
or m
if ic
Ġac tiv
b s
Ġa d
Ġp er
Ġ S
g en
u p
ff ec
y m
i z
m in
Ġ le
ig h
es s
Ġs h
a y
l o
Ġcell s
l u
Ġpati ents
Ġ im
Ġn ot
Ġp re
g es
ic h
le c
ta in
Ġ 3
ul ar
c h
b le
Ġ he
s t
r i
t ro
en ce
Ġ P
os e
re as
id e
o re
l as
Ġn e
Ġe ffec
Ġ M
Ġp res
0 0
if f
c tion
Ġ D
ve l
Ġs tu
Ġwh ich
Ġ H
d ing
a in
Ġactiv ity
te s
ĠI n
u g
i p
Ġ us
o und
e l
ar y
t her
v ed
u re
Ġres p
Ġ B
Ġ N
Ġd iff
Ġth an
he n
on s
Ġcon c
d e
t or
Ġp h
te n
on e
f ter
h ib
ig n
e m
Ġ 5
s i
Ġg ro
Ġa pp
z ym
Ġh a
al ly
Ġth is
p er
y d
t o
te in
Ġp o
ol og
Ġin f
Ġ 4
b o
Ġc o
Ġres ul
Ġsp ec
Ġ it
Ġsh ow
Ġac id
ro s
ation s
Ġp os
tion s
p a
Ġa fter
o th
Ġdiff ere
Ġin hib
duc ed
i v
Ġen zym
ti m
m un
e ra
Ġm ic
Ġb ut
igh t
Ġthe se
k e
Ġ E
l ow
Ġt ran
s is
re e
i al
Ġ un
Ġbe en
u e
m a
Ġt re
Ġs ign
Ġc ar
p or
p l
w o
c t
a b
Ġ F
Ġp H
yd ro
Ġ R
T he
orm al
w e
Ġc a
re n
Ġconc ent
Ġstu di
i ti
Ġa g
Ġha ve
t ing
Ġc or
os ph
Ġbe t
Ġf ound
Ġpro tein
c y
om e
i ed
Ġa ll
Ġtran s
Ġconcent ration
ĠT h
reas ed
) .
Ġre l
i es
t al
Ġre ac
Ġsign ific
Ġgro up
we en
Ġn o
Ġs er
Ġsu b
Ġw e
as es
og en
Ġ 6
ur ing
Ġ r
Ġh yp
o ur
ph a
Ġbet ween
oc y
Ġas s
Ġs y
Ġh as
t an
en d
er s
i um
Ġc an
Ġfor m
a ra
Ġim mun
s o
al l
Ġp ar
Ġme th
Ġ L
Ġt wo
ate r
Ġ 0
Ġ k
Ġo bs
on g
Ġle vel
e p
Ġt es
N A
Ġa m
tain ed
o x
Ġsignific ant
Ġresul ts
am in
j ec
s ion
Ġd ec
ly m
tu re
m b
Ġc y
Ġh ad
Ġenzym e
Ġch an
re ase
Ġin d
Ġeffec t
Ġb oth
Ġc l
ati ve
) ,
Ġo ther
Ġre c
iz ed
Ġanti gen
e ar
i ll
v es
u b
in ding
Ġobs er
os t
Ġe v
ec h
Ġal so
Ġ O
at ment
te m
i e
Ġn ormal
ul ation
Ġl ow
Ġ G
ul d
Ġcomp le
Ġsu g
on d
Ġm on
Ġde ter
g n
Ġm ay
Ġs t
Ġ1 0
Ġm o
al s
Ġv ar
Ġs ur
olog ical
a ce
Ġd uring
Ġsug ges
Ġ 7
t in
is m
lo od
ce p
Ġa r
i ous
ta b
an d
Ġm ore
Ġm a
Ġs im
Ġ W
Ġ y
il ity
Ġon ly
at h
Ġin ter
Ġs ec
Ġh igh
ĠTh is
Ġl i
uc le
s ed
Ġe lec
c c
m e
c es
Ġb lood
c in
Ġp l
Ġind ic
in s
os is
Ġon e
Ġde p
Ġv al
Ġtre atment
Ġd es
he m
Ġmeth od
Ġcon tro
Ġc ol
Ġre g
Ġthe ir
i tion
Ġf ol
Ġg en
d ed
ug h
Ġm ed
Ġo b
og ra
Ġs ys
a p
Ġo cc
Ġinc reased
Ġser um
u es
Ġt yp
Ġs tr
is t
oc i
T P
lym ph
Ġt im
a red
Ġobser ved
Ġme mb
or s
Ġs am
Ġg l
n e
Ġstudi ed
f orm
Ġ es
ra ction
p ec
ĠI t
at ing
Ġde g
c ed
i x
ro p
te nt
Ġd i
um an
nt he
is s
Ġdis e
ĠThe se
Ġph osph
l ic
Ġme as
Ġdeter min
Ġp las
Ġsys tem
Ġmemb ran
i le
ib le
a ys
Ġdiffere n
Ġc ases
er y
Ġ lymph
Ġ 8
Ġs tim
Ġac c
Ġw hen
Ġ und
Ġspec ific
Ġra te
ate s
Ġdis c
d y
Ġa b
Ġcontro l
er g
o un
Ġus ed
Ġfol low
duc tion
vel op
Ġdiffere nt
en si
Ġv ir
Ġshow ed
i ted
Ġlevel s
un ction
r on
v en
Ġcon s
ph y
Ġan al
Ġs uc
Ġh uman
Ġinc rease
Ġin to
on se
ol u
Ġd r
Ġm od
Ġo p
od y
he d
a g
Ġinhib it
a v
Ġsu bs
ent r
iti es
lo b
m on
il ar
ac h
Ġ ro
as t
Ġ K
Ġm us
o res
Ġ up
Ġde velop
i te
- -
ly c
a k
h ydro
a ge
x im
Ġm in
m o
di tion
ti al
Ġl ess
Ġt iss
Ġf e
Ġf ac
ta m
Ġpres ence
Ġde m
l es
Ġd ia
Ġit s
Ġstu dy
Ġsy nthe
Ġin tra
ion s
Ġpos s
Ġs tra
t y
k ed
om y
iz ation
ra p
Ġchan ges
i od
or y
Ġt um
Ġocc ur
Ġm y
Ġn on
ti s
Ġresp onse
c le
Ġeffec ts
Ġal pha
om a
Ġex per
if ied
Ġdr ug
p os
Ġob tained
Ġdise ase
Ġ qu
th yl
Ġh ydro
d er
Ġo x
Ġis ol
ons tra
an ts
Ġf ib
Ġm an
Ġdem onstra
e ver
c ess
ti g
por t
Ġm g
it ro
Ġth ose
Ġpres ent
an ce
Ġc ul
Ġs o
ocy tes
Ġw he
tain ing
Ġbe ta
Ġthe re
i ve
ce ll
en s
g l
r ib
r im
Ġra ts
Ġsim ilar
Ġg re
a ble
ear s
ic i
Ġca us
Ġcl in
re l
Ġn ucle
Ġm ar
ul in
n i
Ġplas ma
Ġf lu
tiv ity
Ġund er
Ġco uld
Ġd o
te ro
Ġsu pp
Ġpre pa
Ġa bo
tive ly
Ġd id
Ġb as
Ġw ell
Ġch rom
Ġth ree
Ġf unction
p t
Ġ 9
n al
Ġmo lec
Ġconcentration s
Ġex tra
m ents
ra m
um b
in al
tr ic
Ġs ome
Ġs ta
Ġo ut
Ġde te
' s
Ġra di
Ġa bs
ves tig
Ġcy t
Ġan im
Ġde f
Ġmembran e
Ġen d
us ion
Ġli ver
an ism
Ġtim e
re nt
Ġp ur
Ġb i
Ġpo ly
Ġcomp ared
Ġin s
it her
end ent
p ro
ar ge
Ġdes c
Ġin vestig
Ġclin ical
tra tion
si ve
p le
ow ever
Ġass oci
Ġexper im
es t
min is
it s
Ġsam e
Ġf raction
Ġh ig
tab ol
at ter
Ġt ech
ar d
l oc
id en
Ġvir us
u al
Ġe p
Ġhyp er
Ġsignificant ly
Ġm ost
Ġreac tion
Ġanti b
ti d
ti l
c ter
00 0
Ġm al
di es
or p
Ġb inding
at a
n s
m ed
e ous
Ġus e
hem ical
ĠD NA
c op
c ted
Ġinf ec
Ġc al
Ġex amin
Ġstudi es
tic al
am ine
v id
Ġ +
Ġin te
Ġme tabol
ara cter
Ġdisc us
Ġl oc
Ġd ays
er m
Ġelec tro
b in
tor s
Ġus ing
ra te
ĠA TP
Ġper iod
ad e
Ġre le
Ġo ver
ul ated
Ġad minis
Ġcomple x
Ġsy n
tor y
Ġgro w
il d
f ore
an ti
Ġcon tra
Ġpre v
Ġmic ro
Ġch aracter
Ġdesc rib
t re
Ġgroup s
tu res
Ġtiss ue
Ġt r
p res
en cy
Ġisol ated
Ġn umb
ph osph
Ġad dition
o ut
ni qu
an s
o id
Ġresp ec
ar t
o ly
tr ib
rom e
rap y
u red
Ġ U
Ġtech niqu
Ġs olu
a il
Ġs ensi
ĠI g
Ġtyp e
Ġresp ons
Ġmic e
Ġra t
Ġtes t
re es
Ġin v
Ġin jec
Ġdiscus sed
oc h
Ġf ir
Ġ iden
tic s
u te
di tions
ys is
Ġ "
re qu
ra in
o b
Ġs m
Ġs c
Ġb ac
Ġ V
Ġpar tic
o le
r al
ration s
Ġdeg rees
Ġanim als
Ġcon ditions
Ġhig her
ar di
Ġval ues
k s
Ġd ata
Ġ1 2
Ġm ech
Ġ1 9
Ġstr uc
Ġp a
/ -
Ġc at
Ġag ain
Ġdia gn
l i
Ġinhib ition
id ence
k in
re ct
Ġra n
Ġabo ut
as s
Ġshow n
tan ce
ol d
Ġe ither
u res
Ġfir st
Ġpro duced
i or
ul f
de p
Ġg ra
Ġgl uc
o ugh
Ġe qu
ogra phy
Ġf inding
Ġwe ight
trib u
Ġdescrib ed
Ġa min
Ġp rim
m ic
Ġpo ten
Ġsm all
o uld
tam ine
is e
Ġf requ
ra c
ti f
ti es
Ġh is
t ur
Ġre m
Ġsuc h
Ġcor rel
Ġd ose
b e
e ro
i tive
Ġt em
Ġpati ent
ac t
or ph
Ġmic ros
Ġnumb er
Ġm uc
Ġor g
Ġdetermin ed
ter s
Ġp ara
Ġagain st
1 0
Ġd ue
Ġto tal
a z
in d
Ġar ter
Ġg iv
Ġsynthe sis
Ġinv ol
i o
en ted
Ġsub jec
Ġinhib ited
Ġfollow ing
Ġcal c
al ine
dep endent
Ġex c
Ġmus cle
Ġvar ious
Ġdemonstra ted
Ġgre ater
Ġassoci ated
ical ly
Ġv itro
Ġre duced
f t
Ġm ain
Ġin duced
Ġtre ated
Ġ2 0
ar ly
Ġmech anism
Ġp hen
Ġp ath
Ġne w
y ro
is hed
id ase
ri al
i tes
Ġg lyc
Ġpro duc
Ġdec reased
it u
c ular
Ġa ge
Ġmeas ured
entr ic
Ġ ur
Ġe ach
ra ted
k ing
Ġam oun
Ġ+ /-
Ġposs ible
k g
s y
Ġwith in
f ul
Ġsugges t
Ġ u
Ġsec ond
Ġantib ody
ent al
op ro
bo dies
qu i
Ġpres s
ur ther
or t
Ġ1 5
Ġ [
o ph
Ġwith out
Ġwh ile
Ġl ip
ro ugh
i ly
I I
te red
Ġb loc
Ġantigen s
r in
Ġinf lu
o v
Ġre por
Ġsur f
f er
ul es
Ġac tive
lob ulin
op las
D P
Ġprotein s
ot he
Ġapp ro
Ġd os
s in
Ġgrow th
Ġstra ins
b b
Ġpur ified
ing le
Ġinc reas
Ġcomp on
Ġpro l
Ġper form
Ġ X
Ġdec rease
Ġb ec
di um
en z
Ġa ffec
Ġlow er
os om
it al
Ġne u
r y
Ġpos t
ow n
Ġl ong
ĠThe re
Ġelec tr
Ġfinding s
e ration
re tion
erg ic
c o
Ġpro per
Ġpre c
ĠA n
ere d
Ġy ears
id ine
Ġ ir
Ġch ild
Ġwe e
Ġprev ious
en e
Ġtem p
Ġpro ced
Ġ j
Ġamin o
Ġra bb
Ġcom bin
g ed
Ġs ingle
Ġmolec ular
Ġpro cess
Ġm it
Ġc ase
u k
Ġadminis tration
Ġ3 0
ate ly
Ġg as
Ġre qui
I n
iz e
Ġf our
med i
Ġgiv en
Ġp atter
Ġg el
Ġform ation
Ġrele ase
Ġsubs tra
c ent
Ġre ve
Ġinc lu
Ġanti bodies
j or
Ġac tion
Ġn er
Ġtum or
z ed
t on
Ġthe rapy
Ġin di
Ġcar di
Ġbac ter
Ġh ist
Ġrespec tively
Ġchrom at
ĠC a
th s
Ġpro te
Ġlymph ocytes
Ġma jor
Ġmed ium
ran ce
om p
Ġcy c
i ved
Ġph ys
Ġl arge
Ġexamin ed
Ġth rough
p id
oc c
Ġh om
ff ici
al u
Ġca p
om en
Ġse ver
Ġactiv ities
Ġl ab
Ġcon sis
Ġa ce
pec ific
Ġpress ure
Ġre cep
Ġthe y
Ġsurf ace
Ġwhe reas
am ma
Ġhe p
Ġinvestig ated
Ġtechniqu e
oc hemical
Ġstim ulation
Ġrel ative
u d
Ġanal ysis
Ġtemp era
Ġcomple te
Ġrem ain
Ġin iti
Ġdevelop ment
ĠH owever
cell ular
Ġb rain
id s
Ġapp e
ent ly
Ġspec ies
Ġ1 4
Ġv ery
ta ke
th ough
i an
Ġwh o
Ġstim ul
x yl
Ġe m
Ġreve al
g ram
am ide
Ġrel ated
) -
ĠN a
ros s
ti tu
ro l
Ġle uk
Ġ5 0
Ġrepor ted
Ġ ly
Ġenzym es
Ġra pid
5 0
y r
Ġa ut
Ġbe fore
Ġre f
Ġev alu
ti de
tr uc
our s
i el
ocy te
Ġmar ked
olog y
Ġs ym
Ġan y
Ġcon st
Ġm ade
us e
ra g
a tic
Ġc ir
Ġcaus ed
las s
id es
ĠN A
Ġ ion
Ġv ol
Ġv entric
Ġdifferen ces
Ġe le
Ġc le
res p
Ġm ut
M P
Ġhe art
Ġhe m
Ġproper ties
h y
on ic
Ġindic ate
he s
at ure
Ġchan ge
u ration
o od
Ġch ron
Ġdrug s
Ġdete cted
em ia
Ġl es
Ġcon f
Ġma xim
Ġgluc ose
Ġso dium
in duced
ific ation
Ġelectro ph
Ġiden tif
Ġd er
res s
ĠR NA
Ġpos itive
in es
Ġsur g
er al
t yl
Ġg u
x y
e thyl
Ġad en
Ġsugges ted
Ġloc al
u ce
Ġf ree
Ġch ain
ox y
at ory
Ġinc ub
Ġcon tent
Ġsh ould
Ġrespons es
n ormal
era tive
Ġtes ted
v al
Ġcomp ound
yp e
he l
Ġdis tribu
ĠN o
e t
Ġp ul
un g
Ġs ulf
tra ns
l or
a rent
o ver
opro tein
Ġt ub
er c
Ġac ute
m it
Ġ ery
u th
Ġass ay
Ġmon ths
Ġv es
an c
o f
ti ally
Ġne ur
ph ic
Ġsubjec ts
ch ol
ic k
Ġfac tor
m s
Ġ ul
l a
Ġdos es
Ġtrans port
Ġcar cin
ab ly
Ġm ix
Ġcar ri
ar b
ul t
Ġev idence
am m
Ġf il
Ġh orm
oc occ
Ġse lec
Ġdevelop ed
iv al
tic ally
Ġcul ture
Ġoccur red
Ġmethod s
im in
Ġchild ren
Ġde l
Ġn ec
or b
Ġre duction
Ġpro b
orp tion
( -
Ġqu anti
Ġcharacter is
omy cin
Ġsever al
Ġreveal ed
Ġle ad
ie w
ĠO n
Ġs us
Ġc ur
era se
Ġ2 4
Ġs l
Ġl ight
Ġme an
Ġf ail
Ġm M
v ing
res sion
tan eous
Ġse en
ter one
Ġse pa
Ġtempera ture
ra tory
Ġapp arent
u le
Ġ =
Ġf low
Ġp op
Ġcon taining
Ġex pos
iti s
is h
Ġra ti
ater al
Ġval ue
Ġdiagn osis
Ġmeas ure
Ġdi rect
ĠA l
Ġs te
oc ardi
Ġelectr on
ro w
Ġradi o
Ġo l
ta ble
Ġm orph
Ġt e
Ġg amma
Ġa ff
n ing
Ġt ra
Ġc er
Ġ1 1
ol ar
Ġmicros cop
phosph ate
Ġbe ing
Ġperform ed
Ġconc lu
Ġbe h
Ġchron ic
ores is
Ġal k
Ġp e
Ġpar t
ac tiv
v ation
Ġindi vid
th ro
ogen ic
Ġk n
Ġre ver
Ġse em
ĠA t
Ġtyp es
c ence
Ġgen e
g ative
Ġro le
c on
ra d
Ġm ul
Ġre d
Ġ1 3
b ility
Ġinjec tion
Ġprim ary
Ġ1 00
Ġreac tions
Ġs kin
h ip
Ġrel ations
Ġran ge
Ġwee ks
se qu
in ce
ere n
m l
Ġtim es
l in
c er
Ġmon ke
o e
Ġstra in
Ġd ay
Ġv as
os s
olog ic
Ġcom mon
Ġsyn d
Ġexperim ents
Ġab normal
Ġm ate
Ġl im
Ġc ere
Ġresul t
Ġdifferen ce
ot ox
Ġup take
Ġe arly
on al
ra ge
Ġop tim
Ġpres ented
h yd
Ġcontra st
Ġreg ion
am ic
Ġf urther
Ġox y
t ase
Ġh owever
1 2
Ġim pro
Ġacid s
% )
Ġa v
ous e
or d
Ġre ce
Ġp red
Ġp ig
Ġres id
Ġse ra
Ġpre gn
ec t
xim ately
Ġph ase
Ġen h
Ġvar i
re g
gen ase
Ġp ep
tre ated
Ġdo es
Ġhe al
Ġmod el
Ġse qu
ĠM g
Ġpro duction
Ġre nal
Ġeffec tive
tion al
Ġg ran
ol ol
port ant
e x
Ġtes ts
pl es
tin u
r ine
ĠW e
Ġc lass
on es
ch an
am e
a use
ar is
um in
Ġs al
os in
iel d
yro id
ol ic
Ġdep end
Ġto x
ĠATP ase
a e
Ġf at
Ġsu per
ĠI I
Ġs taining
Ġrelations hip
Ġflu ores
C l
' -
Ġinfec tion
e u
og lob
ve ment
Ġprevious ly
Ġim portant
Ġsubstra te
och ond
Ġf em
Ġh al
Ġ i
ic e
Ġ2 5
Ġh ours
Ġc ross
ten sive
Ġcon tain
Ġbeh av
ta ct
Ġfac tors
Ġor ig
A TP
Ġt er
Ġventric ular
Ġpo lym
Ġcalc ium
Ġt ri
Ġc entr
Ġimmun e
Ġ1 6
ĠW hen
Ġdistribu tion
Ġle ft
Ġfollow ed
Ġproced ure
Ġapp ears
Ġcontrol s
iv o
Ġl a
ip it
Ġcul tures
Ġprepa rations
ch ar
ot her
Ġc ent
te ra
1 4
Ġs ites
Ġsolu tion
Ġ -
al e
Ġcere b
Ġfrequ ency
Ġindic ated
Ġtr yp
me thyl
Ġ19 7
Ġm ac
tab l
Ġox id
Ġchromat ography
ĠA fter
ra di
ve re
Ġcir c
Ġpoten tial
Ġsynd rome
at ase
Ġv ivo
Ġinte raction
is ed
l ine
Ġery thro
Ġe l
Ġconst ant
Ġd ie
Ġre pres
Ġ1 8
an ol
Ġorg an
l ed
or ding
Ġexperim ental
in ity
os p
r ic
Ġstr ong
er um
p re
s pecific
Ġw ater
Ġles ions
Ġw or
Ġst ate
Ġhydro ly
n ess
ic ation
a ve
Ġappro ximately
Ġsym pt
Ġhis tamine
Ġdeg ree
ic ity
Ġd og
Ġcardi ac
Ġsur v
id ne
f old
se l
im mun
ip her
Ġa uth
Ġrabb it
Ġneu ro
mon ary
Ġpatter n
ol es
Ġde hydro
Ġ z
Ġmembran es
Ġes tabl
Ġpartic ular
Ġup on
Ġse vere
Ġ if
iz ing
Ġamoun t
Ġcor resp
Ġrati o
Ġl ine
a rance
Ġre mo
tid es
Ġs ite
Ġ1 7
Ġflu id
en sion
Ġag ents
Ġk idne
Ġle ast
Ġex hib
ro se
Ġm ouse
hen yl
Ġs low
Ġstruc ture
Ġoxy gen
i ological
Ġabs ence
ĠIg G
Ġcorrel ation
Ġb ody
Ġor der
Ġheal th
ab ility
ĠA ll
Ġsp le
u ra
Ġcons id
Ġv is
ia ble
Ġ4 0
Ġes tim
an ced
Ġconf ir
Ġs ol
in c
Ġgen eral
Ġmate rial
Ġc r
Ġper ipher
Ġcar b
Ġad ren
Ġcompon ents
Ġmit ochond
Ġner ve
a pp
Ġdis s
Ġactiv ation
Ġtiss ues
el ed
es is
Ġfraction s
Ġl ung
al y
Ġf ive
Ġposs ib
Ġsec retion
Ġresul ted
Ġne ut
Ġphosph ate
Ġb one
um e
Ġm en
os a
form ation
Ġsam ples
Ġra tes
Ġacc um
Ġinhibit or
Ġsensi tive
Ġform s
r yl
Ġprob ably
Ġa x
ĠA s
Ġb u
g th
li ke
ac tive
Ġerythro cy
Ġconclu ded
l ing
Ġf rag
d om
Ġappe ared
Ġme ans
and s
Ġth ym
ogra phic
Ġinflu ence
Ġre duc
Ġl oss
Ġkn own
en ic
Ġsympt om
Ġpe ak
n er
on ding
hydro xy
osom es
Ġelectroph oresis
Ġsl ight
Ġco un
al pha
ac char
Ġcomp os
Ġk ine
Ġb ound
Ġbas is
Ġex pl
Ġsple en
Ġinvol ved
Ġs ix
Ġco ur
gl ut
Ġper cent
Ġmul ti
Ġw omen
Ġincreas es
t le
Ġiniti al
Ġass ess
Ġo s
ven ous
Ġsubs tan
ta g
Ġl ac
Ġcon tinu
Ġ6 0
Ġpl ate
Ġad ult
Ġne gative
on ucle
u ally
os ine
Ġprepa ration
orp o
c ts
g lobulin
Ġcompound s
res sive
Ġdiagn os
s ta
tur al
sy ch
. ,
at or
Ġam ong
Ġs ize
an cy
Ġcons ide
Ġthe n
Ġev en
Ġinhibit ory
Ġmetabol ism
ero x
ĠS e
Ġh y
2 5
res sed
+ -
gl uc
ogen ous
Ġcar bo
Ġrequi red
it hel
1 5
Ġan a
ff er
Ġad v
Ġv en
Ġcarri ed
Ġperipher al
om as
w ard
y n
op ath
Ġab ility
Ġaff inity
Ġf ix
ĠC h
om er
um p
Ġidentif ied
v ated
Ġt ak
o tic
Ġbloc k
glut in
p lo
Ġa ve
Ġcap ac
Ġpul monary
Ġpara me
ine a
Ġe mb
b umin
Ġaffec ted
r h
Ġcon tained
D H
Ġcomp lic
is sion
ph al
Ġhorm one
Ġincub ation
Ġs tan
Ġc hemical
be ta
Ġprepa red
Ġsensi tivity
tr y
Ġul tra
Ġres is
Ġmuc h
ul ph
Ġincreas ing
1 9
ati tis
in t
Ġconsid ered
Ġha em
Ġcer tain
Ġmy ocardi
2 0
m ine
Ġf l
Ġinc orpo
ĠW ith
Ġmal e
m ia
aris on
Ġhe tero
R NA
p ep
Ġbec ause
Ġvol ume
Ġdef in
Ġcan cer
Ġprec ipit
Ġter min
zym e
Ġs ide
ter ior
g in
Ġpro vid
g er
Ġins ulin
Ġmicro gram
Ġare a
Ġcour se
Ġm at
lu tam
Ġur ine
Ġ J
C O
Ġre v
Ġcomple ment
t ate
Ġpl ace
Ġmaxim um
Ġl ate
Ġper f
ess en
g reg
Ġamoun ts
lor ide
Ġex pres
Ġd ig
Ġcl ose
i ally
Ġh and
L A
ĠB oth
Ġthe m
in ary
an e
ffici ent
as ed
e ti
Ġor al
Ġtum ors
ĠTh us
Ġapp lic
Ġe ff
Ġapp ear
Ġsub un
erg y
Ġorig in
Ġ x
ros is
Ġtechniqu es
Ġpop ulation
Ġal though
Ġw all
ur al
u ble
Ġspecific ity
ie ty
Ġstan d
Ġin activ
Ġhigh ly
Ġo u
Ġnec ess
om in
op erative
Ġcell ular
Ġauth ors
Ġtrans fer
Ġcapac ity
r ing
oly tic
Ġresp i
Ġantigen ic
Ġall ow
Ġfe tal
Ġwhe re
Ġm m
ed ing
pa tic
Ġcombin ation
Ġresis tance
ph yl
f erase
Ġcompon ent
Ġdehydro genase
tag on
oph il
Ġgu inea
f ac
1 00
S H
Ġdis tin
B A
ol ip
th anol
Ġcol i
Ġhom ogen
Ġdifferen ti
ta tive
Ġconsis tent
ro b
Ġl act
ir d
Ġpro g
if e
Ġr ib
Ġp or
Ġabo ve
Ġpro ble
Ġintra venous
Ġsugges ts
Ġt y
Ġform ed
Ġsymptom s
oglob in
Ġarter ial
Ġkidne y
or yl
ad ren
ar c
Ġinc idence
Ġinclu ding
v ir
Ġal one
Ġder iv
Ġdep endent
Ġrecep tors
Ġpro p
Ġim pl
rap eu
F P
Ġin ten
Ġdef ici
Ġr is
Ġhal f
ten sion
pos ed
Ġsystem s
Ġn od
Ġuse ful
% .
Ġabs orption
Ġex tent
Ġl o
Ġep ithel
Ġser ies
u v
Ġmed i
ATP ase
m ac
Ġindivid ual
se ra
om al
Ġpro por
Ġdo uble
Ġmeth yl
an ces
Ġth us
Ġd en
Ġst re
Ġre pl
Ġparame ters
on ate
te x
Ġv ac
ti ll
Ġc ri
ur s
v ations
Ġse ro
ist ant
Ġdia be
an ine
ta c
Ġiden tical
le t
medi ate
Ġpro v
se t
Ġsub sequ
Ġadminis tered
Ġli ke
Ġman y
Ġma gn
Ġrelative ly
Ġrecep tor
Ġd on
Ġcaus e
Ġn itro
ill in
Ġalk aline
Ġ ure
Ġsh ort
Ġcentr al
ro up
osom al
os terone
Ġsuc cess
Ġal ter
Ġstim ulated
Ġw ill
Ġmonke ys
Ġcharacter ized
T h
Ġly s
ne um
Ġ essen
in f
at al
Ġn m
Ġves ic
g i
ĠC on
Ġne ed
Ġmechanism s
Ġdie t
Ġo ur
Ġan tagon
rol og
ogen esis
ĠA d
Ġrev iew
Ġare as
T A
ens ity
Ġb o
Ġfluores cence
a x
Ġp anc
Ġl it
Ġdeter mine
Ġwh ole
Ġcyt otox
Ġcomplex es
Ġestabl ished
Ġmetabol ic
Ġsulf ate
ĠNA DP
Ġmac ro
og lyc
Ġneut ral
Ġave rage
is ts
ul ations
co h
r ia
Ġsim ple
Ġin tact
Ġtran si
cep tor
ac tivity
las t
Ġm l
Ġgas tric
las ts
Ġcyt oplas
Ġsecond ary
Ġs ince
Ġp sych
ot or
Ġu til
l ab
Ġfunction al
s es
Ġlymph ocyte
Ġsec re
Ġb il
Ġl ar
og n
Ġt erm
cep t
Ġac h
Ġt w
st inal
Ġd op
d uce
Ġl atter
Ġre p
Ġexc retion
Ġexpos ure
Ġm u
s acchar
Ġmal ign
Ġal te
Ġcarcin oma
+ ,
Ġcomp arison
Ġur inary
Ġdog s
tro ph
ro und
Ġl in
Ġpro sta
E A
iv ing
Ġcharacteris tics
Ġanal y
Ġe ar
b r
Ġw ould
Ġd a
Ġs to
l ied
Ġwor k
on taneous
Ġexamin ation
Ġo v
ie ved
Ġ2 1
Ġd ys
era te
itu de
Ġd uration
Ġele vated
Ġcomp ara
Ġproduc ts
Ġconside ra
d ay
en ces
or tic
Ġbas ed
Ġresp ond
rapeu tic
Ġr ise
othe rapy
hy th
A n
le x
Ġg ood
Ġsurg ery
Ġace tyl
Ġb ase
Ġrabb its
Ġsurv ival
Ġantib io
Ġdise ases
w ay
Ġcomplete ly
or n
ti zed
ay ed
Ġneur ons
Ġextra cts
Ġcorrel ated
ec tion
Ġhe l
Ġn or
ib ri
ot rop
ĠF or
Ġp ain
Ġra ther
m ost
t us
Ġc hem
om es
. )
Ġpro duce
Ġdistin ct
Ġl ay
Ġhyp othe
ov ine
Ġcorresp onding
Ġdetermin ants
Ġto le
Ġsta ge
ĠAl though
Ġg on
Ġal bumin
Ġs tab
on ary
Ġm amm
3 0
Ġf er
p o
Ġtrans pl
R H
tr al
Ġmy el
oe lec
Ġb l
Ġbehav ior
os ome
t ype
Ġseem s
Ġad ded
ĠF urther
Ġag ent
ological ly
Ġsurg ical
Ġrece ived
Ġd ensity
Ġmolec ules
och rome
Ġmus t
Ġ ve
Ġinhibit ors
trans ferase
Ġanti s
Ġlip id
Ġrec om
r it
ver s
osp ital
Ġd il
Ġgra di
Ġmus c
Ġme t
y e
ros ine
ac ryl
Ġorg anism
Ġre se
Ġav ail
Ġhealth y
ac ter
Ġal coh
Ġmin im
P A
l usion
Ġobser vations
Ġpoten ti
ep am
Ġevalu ated
ly ce
Ġmarked ly
ul ts
Ġen ergy
ocy t
ut ri
Ġpartic les
Ġshow s
era ted
Ġassoci ation
ĠB y
Ġpatter ns
l ase
ul ating
a di
ul l
ĠE x
Ġcon ver
Ġmicroscop y
Ġcereb ral
m an
al act
Ġsolu ble
he st
- (
Ġad j
Ġm ight
or ded
Ġoccur s
ar ing
Ġsp ontaneous
Ġmulti ple
Ġcol la
Ġcombin ed
Ġb le
Ġr ight
f ree
Ġarter y
Ġmix ed
ĠN e
it one
Ġhe patic
Ġinfec ted
Ġremain ed
Ġstand ard
Ġla bo
Ġ3 7
e ic
Ġcol um
Ġp neum
Ġin duction
at in
Ġrespons ible
n d
Ġhydroly sis
tero l
Ġexpl ain
Ġmyocardi al
lo ro
Ġper s
Ġrel ation
amin o
pec ially
o ro
Ġgre at
qu e
ter m
Ġenh anced
yl ate
Ġindic ating
Ġlit tle
as si
Ġphosph atase
N P
Ġapp lied
Ġfail ure
hy de
Ġbacter ia
Ġfe w
Ġintra cellular
Ġd am
ĠT wo
Ġstruc tures
ill us
C G
Ġ ions
Ġb ovine
Ġpregn ancy
ot yp
de hyde
Ġequ al
pec ted
Ġsupp ort
Ġproduc t
Ġrapid ly
Ġinf usion
a re
assi um
ul ate
ot assium
Ġse x
truc tion
Ġnucle us
ra z
Ġanti sera
Ġrec ogn
Ġd im
is ion
Ġcor tex
an eous
Ġdiss oci
Ġprol ong
Ġder ived
p las
ĠThe y
Ġaccum ulation
xyl ase
Ġcol on
Ġwhe ther
tr um
m al
Ġf am
Ġ ke
Ġs he
Ġconfir med
g ra
Ġantis erum
Ġs our
ul taneous
Ġanal og
Ġthere fore
Ġsta tis
4 0
Ġb re
Ġth rom
Ġc ys
Ġhep at
Ġfat ty
Ġp yr
Ġfib rin
d es
ren ce
i as
Ġp ri
% ,
Ġ2 2
Ġproced ures
Ġag greg
Ġprol if
Ġph ot
Ġcyc lic
Ġnecess ary
s c
ati ves
Ġpar tially
Ġoptim um
chan ge
Ġacc oun
Ġcor onary
Ġop eration
Ġda ily
y c
Ġpro f
im ens
b ly
Ġdec reas
Ġbi op
Ġinjec ted
enz o
Ġemb ry
ent ation
w ays
Ġca re
en ess
Ġp rac
am p
Ġsugges ting
l us
Ġsolu tions
Ġal most
Ġsp erm
ar k
se ud
Ġreg ions
ĠU n
Ġcon j
Ġapplic ation
Ġh r
Ġno ted
Ġin dependent
an th
Ġcon dition
est he
Ġresid ues
Ġy oun
Ġof ten
e f
Ġinf orm
Ġerythrocy tes
acryl amide
y ing
res h
Ġvas cular
Ġslight ly
Ġs ulph
to ph
Ġrespec t
ran olol
im e
Ġsec tions
Ġrec orded
Ġlead s
S A
p ine
cy c
at ures
Ġrespi ratory
eren ce
over y
s ing
Ġes pecially
Ġnucle o
Ġphosph oryl
tid ine
E C
olu tion
Ġacc ording
Ġthe rapeutic
Ġcat aly
Ġmacro pha
g an
ph rine
l an
Ġpre ven
Ġde ath
il ized
Ġ3 5
Ġhe at
Ġmain ly
Ġpro posed
ĠI II
Ġmolec ule
Ġanim al
Ġim por
us ed
t ation
ron ch
Ġfem ale
Ġfib ers
Ġbas al
Ġm or
Ġth yroid
ace tyl
Ġcompos ition
Ġl en
Ġir radi
Ġste p
ut aneous
Ġnucle ar
Ġmeasure ments
ĠO ne
l amm
Ġcon n
Ġpa per
Ġdis pl
ĠH LA
Ġsta ble
Ġvesic les
Ġre tic
lu ores
Ġnucle i
s tim
Ġg ave
Ġl ater
tur b
Ġincorpo ration
1 1
Ġmar row
Ġt ur
Ġs till
Ġcontro ll
end ed
Ġy ield
Ġsynthe s
ensi tive
Ġhep atitis
Ġte tra
Ġto ward
og lobulin
Ġ8 0
Ġse g
n ed
le ts
tro phy
c al
Ġchain s
c table
Ġhyp oth
Ġimpor tance
Ġfe atures
Ġbu ffer
ver se
Ġexhib ited
th al
p ut
en ing
tu red
it ary
ĠP ro
omp an
Ġris k
es tion
Ġn ature
Ġbi ochemical
u tes
ell ed
Ġ4 8
Ġpri or
ot ype
Ġem plo
Ġel imin
Ġpl ac
t he
Ġtak en
ĠC O
Ġpar tial
Ġf as
ĠR es
Ġestim ated
ac tin
omin ant
Ġp otassium
Ġcontinu ous
Ġn orm
Ġphys iological
Ġrec ip
Ġcy cle
in ase
Ġch ol
ad y
pa ir
Ġbas ic
Ġcomplic ations
y ed
ph as
Ġ '
Ġacc ompan
ĠD uring
it rate
Ġp erox
Ġl ig
ver y
ar bo
Ġc ate
Ġl ife
Ġphosph olip
ting u
ar ch
Ġequ il
Ġs ed
Ġmod ified
Ġhypothe sis
0 5
ta min
Ġpro ved
Ġ2 8
os ide
en c
as cular
uc h
Ġdiagnos tic
Ġmalign ant
y cin
Ġinf ants
Ġco up
Ġdiff er
Ġrequi re
ĠO f
Ġdi re
Ġprov ide
Ġach ieved
Ġaffec t
Ġf oc
Ġsim ultaneous
Ġappe arance
Ġsh if
Ġstrong ly
Ġa tr
Ġmy osin
Ġcharacteris tic
Ġsequ ence
Ġt it
uc t
Ġb ronch
Ġy ear
or der
ĠK m
o ass
Ġparticular ly
re c
Ġs tained
ve red
Ġtryp sin
Ġv ia
a emia
Ġquanti tative
a ges
Ġsubsequ ent
Ġ9 0
Ġinform ation
Ġcan n
Ġm id
an ta
ul ose
Ġde v
Ġdemonstra te
Ġavail able
Ġstruc tural
Ġphen omen
Ġreac tivity
n it
Ġth ird
Ġcolla gen
Ġinvestig ation
Ġdetermin ation
Ġmusc les
b ic
Ġmar k
Ġas c
Ġ7 0
ococc us
en ding
Ġch loride
E G
Ġpro gram
Ġsubstra tes
Ġpoly pep
0 1
Ġsubstan ces
Ġthe r
ten ce
Ġindic ates
Ġmed ia
Ġqu al
Ġprocess es
Ġfil tration
ĠA MP
Ġre port
Ġsta ges
Ġdop amine
ĠA m
Ġexpos ed
al le
Ġl ines
ant ation
Ġwe ak
Ġ2 3
Ġper sis
Ġposs ess
Ġactiv ated
Ġtum our
le ep
Ġsub c
Ġcaus es
Ġbacter ial
Ġoxid ation
pro duc
Ġinten s
Ġvir al
m ore
Ġrepres ent
Ġa p
tre atment
Ġf all
Ġanal ys
Ġleuk emia
ibri um
Ġs itu
Ġconc er
Ġdefici ency
Ġin duc
it ation
Ġmitochond ria
Ġultra s
Ġca pa
ren aline
Ġsus p
Ġmetabol ites
1 7
Ġh ospital
am b
ĠA FP
Ġexper i
Ġref lec
Ġaddition al
Ġpossib ility
ter nal
olog ous
c ip
gen ic
Ġam pl
Ġrec overy
Ġves sel
Ġhy br
lu e
i ol
6 0
g ing
ar in
ar mac
min al
Ġenzym atic
az ine
Ġdel ta
Ġdete ction
i red
Ġm es
il s
Ġn utri
y nthe
Ġwee k
de x
Ġsignific ance
Ġcon duc
Ġha ving
Ġam mon
ival ent
Ġgradi ent
Ġal tered
Ġse ven
Ġpa ren
Ġe ight
Ġevalu ation
en zyme
Ġprolong ed
Ġs mo
ro ph
ros cop
Ġtrans c
Ġpos ition
Ġt arge
ĠA c
Ġdeg rad
Ġfail ed
Ġdirect ly
it ing
Ġ4 5
cep ti
Ġdes ign
Ġcyt ochrome
a em
ri tis
Ġinter pre
Ġmin utes
Ġir on
Ġm ass
di ol
H T
Ġv iew
Ġex p
Ġcalc ulated
Ġep id
Ġbet ter
or rh
Ġsepa rated
Ġ 000
Ġhyper tension
Ġkine tics
te en
oma tic
oly sis
Ġcur rent
Ġfrag ments
Ġpanc re
ul um
Ġmut ant
it amin
ill ary
Ġmon it
Ġchrom osome
Ġlab eled
Ġol d
Ġmonke y
tal ity
Ġessen tial
Ġto ge
Ġmaxim al
Ġtoge ther
Ġn ative
oc k
Ġres istant
Ġspec imens
Ġus ually
Ġis o
rel ated
Ġproble ms
Ġalcoh ol
Ġlabo ratory
Ġresul ting
tera se
ent y
e th
to x
ec ted
Ġstr i
vir on
Ġdis turb
Ġgl and
Ġaut o
Ġf ield
Ġst ren
ati s
Ġsign s
e tic
Ġd iv
Ġex cess
ord ers
Ġb ind
Ġinfec tions
Ġrele ased
Ġrever s
Ġb ile
Ġch ick
em b
1 8
Ġyoun g
Ġbloc king
Ġs tero
ar ily
Ġex is
Ġabnormal ities
chol ine
y ear
en ced
Ġinclu ded
1 3
Ġv er
ell a
Ġli tera
Ġs leep
Ġbi ological
Ġvis ual
Ġinter v
Ġun its
ap tic
gl and
id al
Ġcarb on
Ġrep e
a f
ul atory
Ġbe l
Ġperiod s
Ġmix ture
Ġalte rations
Ġin j
Ġhe av
om ple
of luores
Ġ Q
Ġty rosine
Ġdam age
Ġpl us
ĠNADP H
Ġlitera ture
Ġsupp ress
S F
at ors
Ġprog ressive
ffici ency
Ġmitochond rial
oass ay
Ġman if
Ġglyc oprotein
Ġmut ants
ococc al
Ġpropor tion
i i
ti z
Ġm ug
ation al
uv ate
ter ia
Ġcon ven
Ġgene tic
gen s
Ġpo tent
H A
Ġan other
Ġd imin
Ġcytotox ic
al anine
Ġw ide
C h
Ġre tin
Ġm ig
Ġlen gth
Ġspec ial
Ġcol lec
ul ins
Ġ3 2
Ġcolum n
Ġfib res
Ġmor tality
c ine
ĠS ince
pos itive
os yl
Ġv ary
Ġch oles
Ġpo int
Ġpro st
Ġme lan
L C
Ġs tain
Ġimmun oglobulin
jec tion
Ġvirus es
at us
Ġexperim ent
Ġdegrad ation
Ġim p
Ġdiff ic
ater nal
Ġsystem ic
Ġol ig
enic illin
g roup
ĠF rom
Ġend ogenous
ade x
e qu
Ġhig hest
Ġfrequ ently
Ġre n
Ġth ough
il i
Ġex change
Ġinf lamm
Ġvar iety
Ġan terior
Ġe thanol
ph adex
Ġon set
1 6
Ġt rac
Ġanaly zed
as sive
Ġpar alle
b ound
ra w
Ġat tac
ĠP G
l ess
Ġbe low
Ġat ten
Ġ2 7
Ġaden osine
ur on
Ġund erg
Ġsus cepti
Ġn at
medi ated
Ġinactiv ation
all en
ĠIg M
Ġinjec tions
Ġextra ct
ke le
Ġbehav i
o ra
rolog ical
Ġh ost
Ġimpro ved
u als
Ġpath way
Ġox idase
o z
id i
om on
Ġas p
Ġfib rob
Ġincub ated
al es
Ġdete ctable
Ġcontain s
Ġprop ranolol
ĠP h
Ġtra ct
Ġac tin
Ġmod erate
o red
Ġreg ard
Ġconj ug
Ġintens ity
viron ment
an gl
tr yp
Ġselec tive
od ec
Ġinter mediate
od en
Ġ her
Ġres tric
Ġlong er
Ġterm s
u ter
ox ide
Ġlim ited
C o
Ġgas tro
s u
Ġdis orders
Ġequil ibrium
tra n
Ġcompara ble
d en
toph an
o ked
u oden
y g
Ġimpro vement
Ġde ta
Ġace tate
Ġradio immun
Ġa ble
at uration
Ġpolym erase
Ġcontroll ed
Ġsuccess ful
m ission
ĠS im
Ġof f
ati d
Ġcontra ction
Ġhypoth al
Ġper me
Ġsero ton
o k
Ġ Z
o pha
Ġpro ton
Ġprec urs
Ġgran ules
Ġ ed
Ġion ic
Ġcapa ble
D TA
Ġindivid uals
Ġs w
Ġline ar
on ia
Ġm ol
Ġmon o
il ization
Ġdepend ence
Ġobser vation
Ġsubs titu
Ġpep tide
if ug
ump tion
tic ular
Ġdis app
Ġle uc
Ġcul tured
Ġgra ft
Ġre ag
Ġex ternal
Ġsp l
Ġph armac
Ġreduc tase
Ġch allen
tid ase
Ġrecip i
o vered
xim al
Ġf av
om ic
Ġen ti
ri p
it able
us t
ĠL H
rop ri
Ġaccompan ied
Ġa ir
Ġnitro gen
vel oc
kin ase
Ġderiv atives
Ġin dex
Ġb ro
lo rop
Ġoptim al
Ġe lu
Ġextra cellular
odec yl
Ġsubun its
N a
Ġb and
ur ine
Ġdis tingu
Ġcons titu
in us
os idase
r is
os ed
Ġn g
Ġth yro
Ġplace bo
Ġpro t
Ġimmun ological
Ġmain tained
Ġp rin
sacchar ide
Ġpo or
Ġhyper trophy
Ġsol ub
Ġ ill
ĠR e
b inding
Ġin ner
os ynthe
Ġcyc lase
Ġdefin ed
Ġlike ly
Ġsynthe tase
mit ted
Ġsed im
Ġf ood
Ġpred ic
m ol
er ally
Ġcomp eti
Ġloc ated
Ġconst ants
Ġat tem
li er
C A
Ġt end
Ġpop ulations
Ġran dom
Ġin oc
Ġdef ec
til ity
Ġner v
otrop ic
Ġremo ved
A MP
r up
Ġcon formation
Ġad s
Ġlar ger
hyth m
ĠFurther more
Ġlact ate
Ġl ateral
Ġind uce
Ġrec ur
W e
Ġs kele
al in
Ġimmun ofluores
orb ed
Ġenh ance
Ġinte stinal
s ec
ac k
ĠI m
ome tric
Ġstren gth
ic ial
om at
if orm
Ġex erc
Ġd odecyl
Ġgl ut
Ġlay er
Ġdissoci ation
or al
ore tic
Ġmeasure ment
Ġhe x
itone al
Ġstatis tically
Ġmacropha ges
b ut
Ġs arc
Ġen vironment
Ġsepa rate
b enz
Ġg angl
Ġsupp or
Ġplate let
Ġb ir
Ġadv anta
Ġclose ly
Ġd erm
chan ged
Ġremo val
dom inal
Ġ veloc
Ġsubs tance
ĠL e
Ġprovid ed
7 5
Ġdep ression
Ġrecom m
am s
Ġ2 6
Ġo es
Ġm otor
Ġrece iving
Ġ3 3
Ġcat he
Ġphys ical
id ed
Ġv itamin
Ġdep os
Ġtole rance
Ġbehavi our
s pec
Ġs ch
Ġra ised
ocy tic
ati ents
Ġapparent ly
Ġgran ul
Ġinter nal
Ġmed ical
Ġepithel ial
Ġc re
Ġsynthes ized
Ġprin cip
g lyc
Ġex tensive
an ding
Ġfix ation
Ġdecreas es
Ġf ar
Ġhe ad
Ġgen es
Ġphosph o
Ġtest osterone
II I
Ġindi rect
adren ergic
Ġcann ot
al t
op oly
Ġsubun it
Ġnerv ous
Ġles ion
Ġvar ied
Ġs il
Ġhyp ox
Ġvari ation
n amic
Ġprev ent
ad der
Ġt a
Ġsc re
Ġcytoplas mic
Ġex cept
Ġmicros omal
f lu
o di
ĠOn ly
Ġlac k
Ġe lic
Ġdete ct
ect omy
Ġear lier
Ġinj ur
Ġco e
Ġre as
lab eled
g lutam
Ġspec if
Ġpoly acrylamide
Ġorganism s
ĠH B
ĠAn ti
Ġkine tic
ĠS ome
Ġalter n
5 7
Ġb rom
Ġsuc rose
ropri ate
Ġpancre atic
p he
Ġst ar
Ġtarge t
n a
Ġg lutam
Ġse l
ĠT RH
Ġun it
en ter
ich ia
Ġinf ar
ĠE EG
Ġheav y
Ġb lue
Ġout put
Ġgu an
Ġpercent age
Ġv ag
ĠP A
Ġab ol
Ġdel ayed
Ġrepe ated
P S
Ġpred ominant
p H
Ġde oxy
Ġun changed
Ġgen erally
Ġlab el
Ġdifferen tial
itu itary
Ġa ortic
Ġra re
ogra ph
Ġnumb ers
Ġselec ted
Ġ iod
Ġmedi ated
Ġvessel s
) ;
n at
sc her
Ġcor d
Ġst ress
Ġgrow n
Ġexpres sion
omon as
s s
il ities
igh ts
er ic
Ġpa rent
Ġhist ochemical
Ġinvol vement
Ġun s
Ġthym us
glutin ation
Ġcholes terol
Ġp ron
Ġb est
Ġex tre
Ġdifferenti ation
Ġpre f
Ġappro ach
O H
ab ain
Ġsusp ension
Ġreview ed
Ġsour ce
scher ichia
e ffec
Ġt en
% ).
id in
Ġsmall er
con taining
Ġb ic
at he
Ġme tal
Ġinterv als
Ġcate chol
b l
Ġth ick
Ġhybr id
c ardi
ĠM e
ul a
Ġ2 00
Ġsp inal
Ġpreven ted
Ġskele tal
d im
Ġre tro
Ġse p
Ġdiabe tic
Ġradio activity
ra tes
Ġassess ed
Ġstab ility
Ġthrom b
i k
Ġhe mo
Ġbloc ked
Ġbec ame
Ġtox ic
ion e
Ġclinical ly
ĠH e
Ġven ous
Ġmuc osa
Ġdon or
s ensitive
Ġ Y
Ġw ay
ion ic
ge al
Th is
ac y
Ġwh ose
g alact
an g
Ġpig s
Ġm other
ch rom
Ġne ar
ĠE scherichia
ap s
est hes
Ġt rain
tra diol
Ġsupp ression
Ġcon sequ
Ġplas min
Ġchrom osomes
Ġprosta gland
m ented
Ġa qu
Ġex ten
et oprotein
Ġseroton in
Ġtrans formation
in ts
Ġp y
ran ge
ma tic
Ġunderg o
al dehyde
Ġe as
ram ine
in te
Ġm aternal
Ġat tribu
Ġno rad
ensi tivity
Ġampl itude
Ġan tic
Ġl ed
ys tal
p ose
Ġcri teria
ad en
Ġun til
Ġbir th
est ation
Ġcur ves
esthes ia
Ġfunction s
Ġparalle l
n ic
Ġcur ve
Ġf ed
Ġde gen
las tic
Ġtyp ical
ob arb
Ġbo dies
Ġe t
ogen eic
Ġgl omer
Ġprol actin
is ation
ce phal
Ġfix ed
ic ations
Ġpost operative
hes us
Ġad he
ĠG A
Ġsynthe tic
Ġcarbo hyd
Ġble omycin
B C
Ġk inase
+ )
Ġradi ation
ro us
Ġglyc ogen
- ,
te tra
Ġd uoden
Ġdep le
Ġover all
Ġhem oglobin
oelec tric
a bo
Ġn ow
Ġbiop sy
Ġk ill
Ġmin or
arb onate
s p
ut ine
h al
Ġt i
ĠA DP
Ġre tur
Ġmod ification
Ġmorph ine
Ġcer v
Ġshe ep
Ġp ub
Ġaccoun t
Ġexerc ise
Ġin tro
Ġpro gn
00 1
Ġreg ulation
Ġpur ification
Ġmorph ological
Ġemplo yed
hydro x
Ġconsidera ble
r yp
qu id
Ġinvestig ations
p ite
Ġm il
Ġac t
Ġde x
T H
u de
Ġc op
Ġro utine
Ġadren al
Ġantibio tic
Ġren in
ĠSe phadex
Ġpers ons
Ġfam ily
8 0
Ġd ied
ell ing
Ġdiff usion
age ment
Ġdef ect
Ġtr ig
Ġu ter
reas t
ococc i
D NA
Ġfac t
Ġs ter
Ġsal t
c hem
ĠIn c
2 4
at s
las ma
Ġrever se
Ġp ent
ĠC o
ĠM ore
me th
Ġ12 5
Ġveloc ity
S e
Ġthrough out
opath y
Ġphenomen on
atis fac
ĠT o
Ġcon tact
Ġvari ations
Ġcorresp ond
Ġconven tional
Ġw ild
Ġwh om
Ġad ap
Ġfrag ment
Ġd ip
Ġm ast
Ġvar iable
Ġhel p
m ature
Ġf ast
Ġsu itable
Ġspec trum
Ġfem ales
Ġou ter
Ġspecif ically
or ing
b loc
Ġas pec
Ġlocal ized
Ġs inus
Ġb r
ass oci
Ġg lu
ifug ation
A g
Ġsuper ior
Ġperf usion
Ġirradi ation
b ody
Ġ .
Ġtur n
Ġp K
Ġvar ia
Ġtum ours
ti le
tr in
Ġinter f
ody namic
seud omonas
Ġradioimmun oassay
op e
Ġmal es
Ġure a
s ulf
Ġinvol ving
Ġremain s
Ġa er
ro globulin
Ġb al
ĠP R
Ġav oid
ce ed
Ġsh or
Ġphen yl
o lec
u tion
Ġag ed
Ġem phas
th yroid
Ġex pected
Ġos te
Ġatr ial
Ġb ur
Ġapp ropriate
Ġb reast
Ġ3 6
Ġfrequ ent
Ġminim al
E M
um ed
Ġdon ors
Ġprolif eration
Ġb en
Ġoccur ring
ĠP re
Ġprim arily
Ġconsidera bly
p hen
Ġab dominal
Ġhist ological
il ateral
Ġspec tra
Ġdisapp e
Ġpath ological
Ġpossib ly
Ġsulph ate
z e
ta tic
Ġremain ing
id ent
Ġis oelectric
ĠE C
Ġorg ans
Ġal ong
Ġen c
oun ced
3 2
m erc
in osa
Ġb ene
ĠC l
ĠP C
Ġacid ic
Ġmajor ity
D S
Ġman agement
Ġvary ing
Ġal ways
pa ired
ĠW h
Ġp ituitary
Ġan gi
ri pt
ĠE DTA
Ġperform ance
p oly
an ning
Ġ7 5
Ġpl ay
ĠTh ree
sel f
Ġn ine
ap e
g g
Ġ2 9
Ġother s
Ġov ar
ug inosa
olu ble
Ġextra ction
Ġinteraction s
Ġd ial
Ġse t
ch ing
Ġfibrob lasts
19 7
ĠSim ilar
f ts
res t
ys t
Ġexpres sed
Ġpolypep tide
Ġepid erm
Ġaer uginosa
3 5
Ġt ension
Ġp enicillin
os amin
ĠO ur
Ġtox icity
Ġantibio tics
enc ies
Ġdep ressed
Ġsmo oth
Ġan g
Ġb ands
ce le
ot in
lu x
ĠF e
Ġerythrocy te
Ġg o
em a
Ġhydro gen
Ġbec ome
ly ing
Ġaqu eous
c hed
Ġn it
Ġpron ounced
ox in
form ed
Ġsupp ressed
lyce rol
Ġnat ural
Ġepithel ium
Ġfoc us
Ġdeta il
Ġt rial
Ġn ons
Ġdi ame
az ole
anc ies
ere nt
f etoprotein
r ich
u rate
Ġs ens
Ġl ast
ĠB ac
Ġun treated
Ġrec ons
ĠI f
n el
Ġoccur rence
Ġins u
ĠIg A
ph ase
id ity
Ġra d
Ġne oplas
Ġla pa
ace ment
Ġinter fer
Ġtermin al
Ġvac cin
Ġcle arly
i at
Ġpo ol
Ġrec overed
I g
h yp
Ġ --
Ġp ap
ir us
ti ce
Ġne t
Ġy iel
Ġj o
Ġc e
iff usion
Ġhyp o
Ġimmun ization
Ġchem otherapy
P C
Ġmicroscop ic
2 1
Ġ er
os cop
ogra m
e ity
Ġm ild
Ġreac hed
Ġmen ing
ĠT SH
Ġelectroph oretic
Ġlocal ization
Ġtryp tophan
Ġag on
Ġfe tus
adi ly
+ /-
c tive
od e
ĠC omp
ad s
ary n
Ġdos age
Ġsuper nat
Ġpotenti als
he um
Ġg lobulin
Ġstimul us
lin ked
Co A
Ġextra cted
Ġstre pt
m us
Ġam yl
cep tors
Ġmagn itude
B L
Ġsam ple
Ġnew b
Ġblock ade
Ġbre ak
2 3
A L
Ġretic ulum
ĠS ta
Ġhorm ones
Ġtoward s
Ġg ive
tiv eness
era ting
entric ular
Ġperox idase
% ),
T wo
ĠC om
Ġinter val
Ġcap s
Ġb ar
Ġne ph
Ġcor tical
in ated
Ġb ra
Ġexplain ed
re ac
u pp
ĠC SF
Ġshow ing
ĠU sing
Ġprecipit ation
op a
Ġacid osis
ile p
ĠE n
+ )-
Ġp ass
Ġconver sion
Ġultras truc
Ġres t
Ġpre treatment
Ġhis tory
Ġsto rage
Ġexperi ence
a w
as al
an ted
Ġpyr uvate
Ġpep tides
Ġperme ability
Ġimmunofluores cence
ra y
ur g
Ġsu p
Ġcons umption
Ġtranspl antation
p henyl
Ġh or
ĠNA DH
b y
Ġb ran
ol one
Ġpos terior
Ġst atus
Ġconfir m
Ġf a
om ized
Ġvol un
Ġadren ergic
m g
+ .
p yr
Ġp assive
ĠM n
Ġmeas uring
mo b
cell ulose
w h
Ġad equ
ĠH g
ma g
cep tion
Ġnorm ally
Ġgl ands
stim ulated
Ġinfar ction
de f
Ġtes ting
Ġbi osynthe
Ġinflu enced
Ġelectr ical
Ġbene f
Ġc ation
Ġth in
Ġs aline
Ġf ro
os es
di az
Ġev oked
in ed
te st
Ġg ram
Ġres to
Ġisol ation
ĠIg E
Ġinclu de
Ġexis tence
Ġne on
omp ati
Ġis chem
Ġy e
Ġpl a
Ġloc us
ero us
Ġchallen ge
oc in
Ġpor tion
Ġfe eding
Ġsequ ences
Ġinflamm atory
Ġres er
Ġimmun ized
in ation
ia z
ero bic
Ġcirc ulation
Ġbl adder
iz es
amin es
Ġinhibit s
Ġcytoplas m
am ents
tu b
all ed
Ġrec ording
Ġpa ir
Ġseg ment
Ġsel f
Ġwh ite
Ġou abain
Ġenti re
Ġpro m
op era
Ġst om
Ġcle ar
Ġmet ast
Ġaggreg ation
Ġdimin ished
p y
is ing
ĠA r
Ġr hesus
Ġarter ies
Ġsym p
Ġdepend s
Ġplate lets
Ġgreat ly
Ġre produc
Ġam ni
it ol
esthe tized
Ġrec ent
ucle o
Ġa round
ĠT re
Ġcor tic
Ġbic arbonate
Ġs ac
Ġad ults
Ġ3 4
Ġwe ights
ke t
Ġass ays
Ġimmun ity
ĠRes ults
ri x
cy t
Ġrel ax
Ġabol ished
Ġ19 6
Ġcat al
en tial
ol ved
am us
Ġsecre tory
s h
oplas mic
othe l
Ġ3 1
p to
Ġlab elled
Ġconclu de
k n
Ġp ure
as ion
Ġf r
tra te
Ġsh ock
Ġcontra c
ura ble
Ġdis tal
Ġse iz
ges terone
Ġinf er
Ġtransi ent
S O
in ally
he a
Ġh ams
Ġall ogeneic
Ġprosta tic
Ġo w
Ġin st
Ġf o
Ġsepa ration
Ġcirc ulating
Ġproble m
c ul
ve ments
ac es
Ġrem ission
troph oresis
tiz ation
Ġhe re
Ġhom ologous
plas ia
associ ated
y es
Ġe ye
ol low
Ġpro jec
Ġne ither
Ġit self
Ġpos i
Ġar th
phosph atase
ĠThere fore
Ġcr ystal
Ġh our
Ġprote ase
Ġcyc lo
lus ive
Ġb ond
oc ial
Ġeff ic
EA E
Ġreac tive
Ġref lex
Ġconn ec
om it
Ġsu fficient
Ġimmun od
ne gative
Ġp al
gen ital
Ġreac ted
Ġinte st
Ġprovid es
Ġ3 8
a bs
ĠNA D
Ġh yd
Ġestabl ish
Ġs atisfac
Ġd one
Ġd ors
tro gen
Ġorgan ic
ĠA g
Ġsur ve
cle rosis
Ġman ner
Ġalk al
Ġgon ad
op ic
ĠS tre
Ġr ing
Ġcyt os
Ġhetero gen
Ġnucleo tides
Ġmil k
Ġun i
Ġref erence
obarb ital
Ġn ic
Ġs ten
Ġp ic
Ġag ree
ogen s
pine phrine
Ġammon ium
Ġa z
Ġob jec
2 2
Ġpartic ip
Ġleuk ocytes
Ġo pp
ĠP seudomonas
opro te
Ġnorad renaline
L V
Ġde li
ĠUn der
c arb
Ġre adily
Ġz one
Ġcle arance
2 00
Ġcon tribu
Ġcon tamin
ion ine
Ġtox in
Ġax ons
a ffec
Ġs qu
Ġex er
Ġsubjec ted
Ġidentif ication
Ġdire cted
l av
Ġrese mb
v ious
Ġp ow
Ġe gg
medi ately
Ġsu ffer
7 0
Ġm um
Ġmuc os
ome try
entr al
Ġhep arin
Ġpneum onia
Ġpro ximal
pha rose
Ġisol ates
otyp es
Ġrevers ible
en ed
ter minal
pro tein
resh old
E P
y t
im en
ad ing
pp er
Ġb enzo
or gan
inte stinal
Ġm urine
Ġhyp ers
Ġshif t
Ġinjur y
Ġcarbohyd rate
p ic
re ceptor
ren e
Ġf resh
Ġ4 2
Ġtre at
Ġlymph oid
Ġmech an
affec ted
v i
Ġb ri
Ġmicros omes
Ġe very
Ġchan ged
Ġtub e
Ġrati os
Ġdiabe tes
Ġen cephal
Ġresid ue
Ġrecomm ended
R P
a ine
in ergic
le p
Ġeffec tiveness
h ing
Ġph age
Ġpara si
gin ine
ocyt osis
R S
Ġcollec ted
Ġglutam ate
N S
Ġac cele
Ġr heum
Ġd yn
ch loride
Ġmamm ary
Ġw a
Ġrecipi ents
Ġsedim entation
Ġdiame ter
Ġs um
Ġse m
ment ation
Ġag ar
Ġreg ular
Ġn ore
Ġall o
tr i
v is
Ġcon ten
ib ility
Ġex ogenous
Ġz inc
Ġphosphoryl ation
Ġc m
Ġf ul
if y
Ġreg ar
ran e
Ġy et
Ġbac k
Ġproduc ing
Ġdefec ts
per im
Ġventric le
Ġnucleo tide
Ġne arly
onucle ase
Ġsimultaneous ly
Ġben ign
d is
Ġ idi
Ġd ye
id ation
oc ar
Ġm RNA
Ġph ag
Ġun affected
Ġye ast
w ise
Ġcom mun
Ġep ilep
Ġcat s
Ġp el
Ġmorph ology
Ġscre ening
Ġconc lusion
Ġstom ach
Ġe thyl
Ġrequi res
ĠAd dition
iv eness
ren ol
Ġstero id
Ġcon duction
Ġacc urate
Ġassay ed
uct ose
Ġprostagland in
c or
t um
Ġe th
Ġr h
Ġmat rix
Ġtransi tion
Ġextre me
us ions
Ġth i
Ġim paired
l im
he x
Ġabs ent
Ġkn ow
oglob ulins
ace tate
Ġpregn ant
ĠD e
Ġhem at
Ġconcer ning
kn own
omit ant
ul i
Ġfac il
Ġderiv ative
glutam yl
ro tid
Ġexc re
Ġu pper
Ġrepor ts
Ġmu M
Ġcathe ter
f unction
is tic
it ative
ar r
Ġim mob
ĠI V
Ġmo vement
Ġqu estion
Ġlin ked
Ġn um
am ycin
Ġprote ction
Ġstimul ating
gluc ose
Ġyiel ded
Ġintest ine
av age
Ġcar til
Ġ6 5
Ġglu tamine
l uc
Ġn one
Ġred uce
Ġcerv ical
ter al
Ġan at
os ts
ific ant
Ġli quid
Ġsupp le
Ġinflu enz
Ġcoe fficient
Ġa u
Ġim pair
Ġim mediately
ĠR ec
pres s
Ġa or
Ġpath ogenesis
atid yl
rip tion
Ġac ross
Ġev olution
oc rine
Ġpres er
Ġj u
Ġrever sed
Ġve in
Ġste ady
Ġcytotox icity
zym es
Ġproduc es
Ġn ar
tr ins
Ġim mediate
Ġimmun os
Ġsug ar
Ġfluores cent
Ġdig estion
Ġen tero
ĠM ost
Ġca v
ag on
Ġlip ids
raz epam
i pp
Ġc ations
th rom
Ġv ers
form ing
Ġnod e
Ġenhance ment
H C
em ic
Ġtub erc
Ġd oc
ign ificant
Ġorig inal
E S
I A
oc al
ĠR h
Ġdetermin ant
ob acter
Ġdisturb ances
Ġmig ration
Ġbri ef
D A
p ig
Ġl as
Ġco ag
Ġimmun o
Ġunder st
Ġner ves
Ġtw ice
Ġinterfer on
si es
Ġobs truction
Ġven til
athe tic
Ġaspec ts
Ġeffic acy
F A
ur ia
Ġfol lic
Ġgra d
v ic
Ġrese arch
V H
ĠA nal
ĠC ell
Ġsp ace
Ġplas m
k en
ol i
ip s
Ġcentr ifugation
Ġsuffer ing
ti ous
te b
Ġg estation
res istant
ĠS ch
ĠF our
Ġop en
Ġsal iv
Ġadv anced
Ġl ost
od es
tr on
Ġneuro lep
Ġallow s
d le
ro r
tu dies
Ġele vation
Ġcarri er
ĠTre atment
phy ll
b u
ĠC T
Ġen l
ĠS uch
ĠD EAE
Ġcor re
B P
Ġmeas ures
Ġseg ments
Ġex am
ever al
Ġessen tially
Ġdiv ided
ĠP atients
ĠO ther
Ġmark ers
Ġdyn amic
ollow ing
Ġconten ts
es ium
Ġl um
gen eic
Ġmark er
Ġvolun te
Ġp all
ol ine
Ġcy an
Ġsever ity
imin ary
g ent
Ġh um
Ġsuc cin
Ġhydro xylase
ra ct
Ġf ore
Ġgen erated
h is
t yp
Ġin active
Ġf inal
Ġma ke
pos ition
Ġhemo ly
es e
Ġcon genital
ran t
Ġtrans f
til is
Ġstimul i
h r
t one
Ġb enz
ac id
Ġ5 5
Ġdiffere d
Ġl ob
ogra ms
Ġphys ici
sacchar ides
lus ions
Ġre t
al ian
Ġdia z
Ġexc lu
Ġcr ude
P D
adren o
Ġelic ited
ĠStre pt
Ġth reshold
activ ated
Ġrecom bin
Ġdiffic ult
Ġbe gin
lo id
ace tic
Ġas ym
ch ain
Ġmo bility
Ġdisc rim
Ġele ments
immun e
Ġcompos ed
v ent
ĠN H
Ġcataly tic
Ġto p
Ġe ti
ter n
ĠC M
Ġrele v
Ġmanif est
S V
a u
Ġdi hydro
Ġso le
Ġtempera tures
rop henyl
titu ted
Ġpolym er
Ġt RNA
ch ym
Ġreac t
Ġk era
olu te
otox in
Ġsuppress or
f ib
Ġand ro
ar ts
Ġrel iable
Ġform er
trins ic
C C
e lec
Ġlow ered
Ġro se
Ġconsis ted
Ġconduc ted
Ġinterpre ted
o ic
Ġin take
as is
at u
op er
Ġpre ced
vir us
qu in
Ġall ergic
p rop
Ġt ach
Ġf ell
Ġst ates
Ġgen eration
Ġinte g
ĠAm ong
Ġattribu ted
Ġdire ction
Ġpredominant ly
Ġnewb orn
Ġs af
ub ation
ie f
Ġar tif
Ġanal ges
Ġmetabol ite
Ġj unction
Ġly so
Ġanalys es
ec ause
un c
ĠS erum
Ġconc omitant
Ġ5 00
Ġprost ate
Ġsuscepti bility
C a
ic ated
Ġme ta
Ġar r
Ġep ide
Ġsubjec t
mit ter
oglyc an
Ġfibrin ogen
Ġanalys ed
Ġiniti ally
Ġallow ed
ĠIm mun
ar ia
Ġcon trib
ĠD A
ure us
glutin in
Ġlapa roscop
f low
Ġsp in
Ġassess ment
ec u
Ġex ist
Ġinactiv ated
Ġsperm at
Ġbiosynthe sis
Ġs tem
Ġl og
Ġimmun oglobulins
inf ected
Ġch l
tro l
Ġdors al
Ġac cep
ĠI ts
ific ations
Ġsub tilis
Ġob tain
Ġsensi tized
te ine
pa ra
Ġvac cine
ac ed
os amine
Ġg er
Ġg lob
Ġqual itative
Ġadequ ate
v entricular
w enty
ten tion
Ġsubc utaneous
Ġsch iz
4 50
d raw
Ġequ ivalent
Ġrelationship s
Ġcontinu ed
cyc line
re ady
Ġe fficiency
il ic
Ġch loro
ma x
Ġtrans mission
ĠNa Cl
yn aptic
ĠMore over
oc l
Ġch ond
Ġdetermin ing
iat ric
Ġagree ment
n cy
Ġmic ron
Ġprev al
Ġmamm alian
Ġsupernat ant
' ,
o yl
ic ol
ast olic
oid s
Ġalte ration
4 5
Ġcar ry
Ġpar ts
Ġ15 0
Ġhomogen ates
Ġw ave
om ers
im ide
Ġsec tion
me an
Ġexamin ations
Ġkidne ys
Ġcoup ling
Ġ :
Ġser ious
Ġk ind
Ġval ve
Ġpul se
led ge
Ġfam il
Ġdemonstra tion
Ġsyn geneic
Ġrecogn ized
alt ons
l og
Ġch lor
ĠE lec
ill i
Ġes ter
oph ren
Ġauth or
Ġstre pto
diaz ep
Ġcartil age
B G
Ġs ocial
Ġinf il
pl ate
oprote renol
9 0
Ġcl on
Ġhis tidine
Ġstimul ate
Ġlin k
Ġprogn osis
fer red
Ġdefin ite
Ġmid dle
Ġmonit oring
ul us
Ġg alact
Ġsp ind
Ġdep ending
ar ter
un t
Ġabs olute
Ġadvanta ges
Ġsten osis
Ġre tained
tiv ation
Ġpoten cy
Ġtub ular
Ġsour ces
Ġd ark
ol s
Ġl ib
Ġ5 1
Ġintravenous ly
ĠBac illus
Ġnore pinephrine
f il
Ġ7 2
Ġaden ine
as ing
Ġal ready
ri als
iff eren
de oxy
ten ance
Ġly sis
Ġcomp uter
Ġg ain
Ġper itoneal
Ġinter s
Ġaden ylate
ect omized
ĠHB s
Ġal le
ay er
ĠB AL
ome tr
Ġmo vements
Ġtr ue
Ġreduc ing
Ġreas on
dim ethyl
ell ar
ence phal
ĠM LC
Ġdiagnos ed
c arbo
ro c
Ġun us
Ġdevelop ing
Ġf al
Ġcons ecu
Ġclass es
omple te
k es
ic s
er gen
Ġe ch
Ġexhib it
Ġamni otic
ran s
ch id
Ġmyel in
Ġsatisfac tory
d el
Ġres ection
Ġcoup led
Ġqual ity
Ġill ness
Ġturn over
Ġa ureus
Ġin ges
at oid
ta ge
ut ure
ax is
k er
Ġf ull
Ġpregn ancies
c ome
Ġt as
ro tic
Ġd altons
Ġm ature
Ġcon cept
Ġas th
Ġmon th
Ġcol d
Ġsubsequ ently
Ġuni que
Ġfacil it
+ +
Ġprecurs or
Ġvolunte ers
z ing
Ġp ene
ag ed
Ġeas ily
b ular
o ice
ĠD M
ĠG roup
ov ascular
Ġadj uv
Ġbel ong
Ġdeli very
Ġun known
Ġep is
otyp ic
Ġcompeti tive
in hib
ar p
ch ron
Ġimmunod iffusion
Ġsaf e
Ġpo ints
Ġmetast ases
I F
Ġre gen
id ol
ĠI a
ath ione
Ġab or
Ġcle avage
Ġcommon ly
gra de
Ġirradi ated
g amma
am ent
Ġev ident
ac ent
Ġdes pite
Ġdifferenti ated
Ġcri tical
d a
ot omy
Ġch arge
mo lec
Ġgastro intestinal
r u
ac yl
oc hem
Ġfrequ encies
Ġf ung
ir ty
Ġes opha
Ġunder w
0 2
S D
Ġp seud
Ġfollow s
Ġgrow ing
l ation
Ġl amin
Ġchromat in
Ġdig es
Ġacetyl choline
Ġlay ers
Ġelimin ation
Ġful ly
it in
Ġj ud
Ġconsis ts
Ġslow ly
atu rated
Ġc itrate
ot al
Ġle thal
Ġnum erous
Ġ3 9
Ġabs orbed
Ġend othel
art ment
Ġran ged
oelec trophoresis
Ġdial ysis
F C
v ul
tim es
Ġcor ne
Ġr hythm
Ġcarcin omas
Ġmate rials
Ġsarc oma
Ġduoden al
um a
Ġ3 00
Ġbil ateral
y to
ac in
Ġcir rh
Ġattem pt
Ġp ol
Ġwith draw
Ġse rological
Ġaltern ative
Ġtrain ing
Ġhypers ensitivity
ĠBAL B
n itro
ine tic
phyl axis
Ġknow ledge
it ory
ĠThe ir
Ġres on
por al
Ġlead ing
Ġresid ual
Ġer ror
] -
c omp
Ġre pair
th ym
ten ed
Ġhomogen eous
w or
on in
ic ine
Ġ4 3
Ġacc ess
Ġfib er
Ġprote olytic
lin ed
Ġtransc ript
Ġunderw ent
pp ing
ĠB i
Ġpath ways
Ġutil ization
Ġble eding
Ġconformation al
Ġhor se
Ġpla que
P G
Ġc AMP
Ġcomp e
Ġhuman s
Ġrepres ents
onucle ar
Ġincorpo rated
Ġarth ritis
C M
p s
Ġconsis ting
organ ic
Ġaor ta
g u
y le
re vers
ar aldehyde
op o
Ġcor rect
Ġop tic
Ġ9 5
Ġfr uctose
Ġch ar
ri ll
Ġop e
Ġgra fts
Ġac tions
ĠB ecause
lyc er
Ġsyn ap
lin ical
phyl ac
c hes
Ġb und
Ġis ot
ten sin
Ġsys t
Ġcirc um
Ġtreat ments
Ġconsecu tive
N ase
e k
ra ting
um ably
Ġmed ial
Ġpur pose
Ġneur al
Ġlim it
Ġpeak s
Ġdistingu ish
Ġpref eren
m at
Ġs ial
Ġhydro xyl
Ġmain tenance
Ġbu ff
ompati bility
Ġovar ian
x ine
Ġradio active
Ġschiz ophren
Ġpoly saccharide
Ġevalu ate
Ġpanc reas
amin ergic
Ġtech n
Ġneur onal
Ġnutri tion
Ġf rac
Ġal ve
ie ve
Ġrespond ed
Ġbegin ning
Ġsyst olic
I C
Ġphys i
Ġphosph atidyl
Ġinhibit ing
i ent
o rac
Ġp le
os tero
Ġper m
ĠD own
ĠL i
Ġocc lusion
Ġop erative
Ġdis order
Ġhem orrh
Ġantagon ist
Ġdeple tion
o es
ophil ic
Ġmagn esium
Ġd raw
Ġpre mature
Ġk g
ear ing
bl ind
Ġuter ine
Ġneon atal
c om
Ġhyper tensive
Ġther m
Ġinsu fficiency
g lob
Ġd uct
Ġde ep
Ġfor ce
ĠC A
ĠS c
Ġsh ape
Ġ4 4
Ġtes ticular
Ġev ents
Ġro set
Ġlarge ly
lab elled
am yl
Ġ5 6
Ġ4 6
Ġgiv es
Ġvis c
p ass
Ġd uc
om orph
Ġbiop sies
il es
Ġsp e
Ġperf used
Ġdefici ent
Ġhypox ia
Ġdegen eration
Ġsum m
ch arge
Ġhe mag
Ġsymp athetic
Ġrheum atoid
- [
2 7
Ġch lorop
ys tem
Ġph ases
Ġleuk ocyte
Ġpolym orph
Ġchick en
E x
Ġdiff use
Ġfe ed
Ġdecreas ing
Ġhypothal amus
a ff
b ase
Ġspecific ities
Ġhydro ph
Ġmicrogram s
Ġnod es
Ġpro gesterone
op ep
Ġmicroscop e
Ġelimin ated
Ġprecurs ors
Ġmucos al
ĠM A
Ġarter i
ov al
Ġres ting
Ġocc asion
Ġprof ile
g row
om an
ĠS al
Ġpow er
H B
Ġg lycerol
oph ys
3 7
Ġon es
Ġeffec tor
Ġless er
Ġinfec tious
Ġmuc opoly
Ġdesign ed
aem ic
oz o
Ġads orption
ta tively
tu ally
molec ular
Ġp olar
ara tus
and ros
Ġol der
Ġrestric ted
Ġbal ance
Ġmechan ical
Ġper man
Ġparen teral
Ġchond ro
d s
Ġbil i
Ġminim um
Ġplac ed
v ascular
Ġa ra
Ġr ub
Ġrespons iveness
Ġsc anning
Ġtak ing
Ġd in
ul osis
ri er
vid ence
Ġmut ation
Ġrespi ration
Ġdiffic ul
Ġultrastruc tural
Ġadjuv ant
P R
Ġd rop
ĠS p
cop las
Ġmu ta
ra se
uc ine
ĠS H
ĠF ollowing
cell s
Ġb abo
is try
tim e
Ġ12 0
spec tive
Ġpall i
N H
g re
Ġa ug
Ġgel s
Ġrecogn ition
Ġsuscepti ble
Ġsil ver
Ġta ke
ĠM a
Ġseem ed
Ġclass ified
yc ardi
er in
ĠS ub
ĠF c
ocy an
Ġev ent
Ġqu ite
Ġs ar
Ġre al
Ġmod e
Ġste re
oglyc ans
Ġadj acent
Ġhypothal amic
M A
M T
i re
Ġapp aratus
Ġrec ently
Ġsur round
Ġhydro x
Ġflu ids
Ġstri king
I t
k ers
Ġm as
an ges
ur ic
ĠP lasma
Ġex plo
Ġcor tis
Ġmed ian
ĠK Cl
Ġinvol ves
Ġattem p
c ers
l ife
Ġchan nel
Ġran ging
Ġequ ally
Ġrepl acement
Ġneed ed
Ġundergo ing
ĠGA BA
Ġti ters
l at
n is
p art
Ġs aturation
om otor
Ġis op
Ġor ally
ĠE ach
Ġes tradiol
ro phy
or r
Ġgluc agon
Ġprac tice
r d
Ġb ul
ges t
ura cy
ĠNe ither
Ġreag ent
2 8
3 8
Ġan x
Ġcombin ations
Ġmyel oma
Ġdistingu ished
Ġglut athione
Ġnons pecific
f ix
re active
ti ated
ro x
Ġmon omer
Ġintra per
io tensin
en se
er ine
Ġ8 5
Ġsol id
Ġmyocardi um
Ġlys osomal
Ġdil ution
Ġsolub ilized
Ġow n
Ġbili ary
ec al
Ġcomp ens
ĠS o
Ġselec tion
Ġantagon ists
p ten
ic in
ĠA pp
Ġex ists
Ġelectro cardi
Ġbro ad
ter min
Ġhydro chloride
Ġcr yp
C N
ate st
Ġmic rome
Ġir revers
Ġembry o
on tinu
or g
Ġun iform
Ġlymph oma
Ġinvestig ate
Ġelectro de
Ġp yro
rib ed
pre gn
Ġimpl ications
or ies
tra ted
Ġch oice
Ġapp rec
Ġar ginine
Ġfraction ation
Ġvari ants
ias is
Ġammon ia
Ġmother s
Ġsens ory
Ġ ile
ran ial
ĠN eu
Ġtrans formed
Ġpropor tional
Ġreflec t
ryp sin
Ġseiz ures
Ġinfluenz a
b les
Ġc utaneous
Ġp ump
Ġth al
Ġg all
Ġfib rill
ole t
Ġfocus ing
def ici
n atal
Ġin trinsic
Ġes trogen
co up
Ġsal ts
i us
Ġre ct
tu al
Ġpres umably
Ġexc lusive
Ġcarbo xyl
amb da
Ġresto red
Ġtach ycardi
Ġd ri
Ġlip oprotein
Ġunus ual
Ġt rim
Ġp ec
Ġgre atest
Ġutil ized
Ġgangl ion
Ġlabel ing
Ġparent al
rop ath
Ġthough t
an av
rom y
ia e
Ġha pten
Ġun related
Ġocc up
cell ent
Ġflu or
Ġreag ents
Ġglut araldehyde
3 3
tiv es
ĠB P
sion s
Ġamino transferase
ĠWh ile
Ġdis rup
Ġco val
Ġst op
Ġvac u
Ġdepos its
Ġextreme ly
M G
P ro
ti tis
Ġc ost
Ġbe aring
Ġch amb
Ġle ar
ĠD NP
Ġrel ap
Ġnec rosis
Ġmat uration
Ġinduc es
uron idase
Ġtranscript ase
ol ism
ta ch
ĠS everal
ĠP er
ome th
Ġass umed
Ġfe ver
Ġden se
Ġvers us
Ġinters ti
z ot
ar m
Ġe osin
rom es
Ġeffec tively
ct omy
Ġacc uracy
Ġhydro xy
Ġvari ant
yg ous
Ġcirrh osis
ta ken
Ġinf ant
Ġreg ression
Ġphospholip id
S P
b acter
o ol
Ġt rop
ti tion
id a
Ġcorrel ate
Ġpolypep tides
Ġpersis tent
emb rane
M R
s il
ti a
Ġm olar
Ġdo ub
Ġcap illary
Ġatten tion
G T
Ġd ich
Ġis oproterenol
ch loro
Ġindic ations
Ġchromat ographic
Ġimpair ment
Ġdiaz epam
ĠA C
Ġinter ven
Ġpart ly
Ġc he
Ġm ill
id azole
Ġresp onding
por ted
Ġcal f
Ġmodel s
Ġoxid ative
Ġelu ted
Ġp he
at ch
Ġcomp ati
Ġdec line
Ġtermin als
Ġstep s
Ġstero ids
ocar cin
Ġenc oun
Ġallo anti
anav alin
Ġp u
Ġw ound
tic le
ĠP CO
Ġca ud
Ġsuccessful ly
ur rent
pp ed
Ġexpl an
Ġcolon y
Ġdoc um
e j
m od
Ġ illus
Ġre tention
st ate
Ġdistribu ted
Ġquanti tatively
Ġsus pected
Ġclass ification
hythm ias
Ġimmunos upp
Ġmanifest ations
r ils
al ysis
Ġto o
Ġe c
Ġdes truction
Ġsyn aptic
ĠU V
Ġlung s
Ġfl av
phylac tic
hen ol
Ġclass ical
Ġmonit ored
Ġver teb
Ġhams ter
Ġs lic
Ġb order
ĠM S
ĠB e
Ġsupp ly
Ġelectro ly
Ġauto radi
Ġcop per
al c
Ġdis charge
Ġen ding
ĠH b
Ġbehavior al
galact osidase
Ġjo int
ĠStrept ococcus
Ġope rations
Ġp p
ĠT rit
Ġg erm
Ġad verse
Ġ4 7
Ġreg imen
Ġ9 9
Ġcir cular
Ġdispl ayed
del ta
m or
ĠC F
Ġca rotid
Ġglomer ular
Ġpreval ence
l ip
Ġin organic
id ate
ĠF inally
Ġmit ral
Ġwall s
Ġchol inergic
m y
us h
Ġex ceed
Ġhe arts
ĠH is
Ġneut roph
Ġconnec tive
ĠAnal ysis
ar s
Ġth iol
ĠP i
Ġreg ulatory
Ġins er
Ġprolif erative
Ġsuppor ted
Ġsurve y
kg round
Ġneu rological
Ġselec tively
ame th
eti tive
otin amide
C H
ĠI s
op le
ĠH ist
ogen etic
Ġaffec ting
Ġrelax ation
s or
in ter
Ġin tensive
Ġan e
Ġd ivalent
ol amine
Ġabs orb
ra min
Ġl iving
th ase
Ġex cellent
ir ub
Ġpost ulated
Ġfil aments
po ra
b earing
re le
Ġle g
Ġconver ted
Ġspontaneous ly
Ġhepat oma
rec ipit
Ġrad ical
a us
h ost
Ġd own
Ġpro mo
Ġloc ation
Ġdisc re
ric hed
Ġsubstan tial
Ġure th
Ġtit ration
Ġfal se
2 6
S R
ly s
ur idine
ĠS tudies
ĠAl so
Ġdiet ary
he al
il is
op y
lo ad
Ġun ilateral
Ġnew ly
Ġmix tures
Ġtend ency
A T
Ġsp re
Ġpre l
ĠH CO
Ġquanti ties
Ġcoun ter
Ġcoun ts
Ġana esthesia
Ġlo ad
Ġt able
Ġd ra
er v
Ġex ception
ĠS t
Ġmod ifications
Ġqu in
Ġunder taken
Ġyield s
Ġbronch ial
Ġrecur rent
Ġdisappe ared
b enzo
Ġsh arp
tro p
ĠL D
Ġglycoprotein s
Ġadvanta ge
3 4
d ents
Ġan omal
op sy
ĠS ix
oph ore
Ġprote ctive
Ġneuro trans
defici ent
tion ed
ĠA cc
we ight
Ġpair s
n ucleo
Ġdisc ontinu
phyl ococcus
Ġlys ine
orrh oe
Ġimmob ilized
Ġcoag ulation
Ġcontrib ute
ej un
Ġthe ory
Ġc ry
Ġtes tis
Ġdeg ra
Ġtem poral
Ġglyc ine
Ġregion al
Ġretin al
abs orption
er ia
Ġch lo
Ġ4 1
ĠF SH
Ġcardi ovascular
ffici ently
Ġvaria bles
Ġpneumonia e
Ġexcre ted
ĠTrit on
n ia
Ġinte rest
Ġsurf aces
Ġphospholip ids
Ġalve olar
he re
Ġc is
Ġsome times
Ġrequire ments
Ġfamil ies
Ġa di
Ġs omat
Ġc ore
an y
Ġg ent
Ġv s
Ġ5 7
ros p
Ġop erated
Ġidentif y
Ġbrom ide
zot ocin
h our
l ac
Ġa im
Ġf ine
Ġun like
Ġconcent rated
Ġbac kground
Ġprec ise
Ġbind s
adreno ceptor
Ġchl orp
A l
C T
Ġchrom osomal
Ġradi otherapy
Ġabnormal ity
Ġcolum ns
Ġprof iles
Ġcare ful
Ġthick ness
a rose
o u
Ġse rolog
ym ethyl
Ġtrans loc
tab ility
truc tive
Ġaccum ulated
Ġpharmac ological
Ġthyro xine
5 5
p ar
Ġs k
Ġm atter
Ġe yes
Ġ1 000
form ations
Ġintra c
Ġend ocrine
Ġcompara tive
Ġinoc ulation
Ġe fficient
yl ic
Ġactiv ator
Ġpartic ulate
Ġalk yl
Ġsuper f
Ġa id
Ġl ith
Ġper mit
Ġsyn thase
resp onse
mac roglobulin
Ġembry os
Ġsitu ation
Ġcatechol amines
Ġperm its
Ġac yl
Ġass ign
Ġmemb ers
anti body
Ġmicro b
opath ic
Ġed uc
typ es
ar i
Ġv entral
rom azine
Ġcom merc
Ġha ir
Ġcontra cep
Ġalcoh olic
Ġretur ned
Ġopp os
Ġtachycardi a
T o
n o
ed uc
Ġf if
Ġser ve
ob ic
Ġsc hed
Ġhy al
Ġeff lux
Ġc lo
Ġat rop
Ġindic es
Ġhyper plasia
Ġcarri ers
Ġdev i
Ġguan ylate
orac ic
r ug
z ol
om ical
ine phrine
ĠM ic
ĠIn tra
Ġ4 00
otrop in
Ġmacropha ge
su bs
Ġcontrac tile
e thanol
p ed
Ġsp ite
Ġmy e
Ġcat ab
Ġcomplic ation
Ġlo op
Ġfro g
a ro
b rain
Ġan esthesia
er n
op rop
ĠC ol
tro phic
Ġorgan ization
Ġstatis tical
Ġpic ture
C P
Ġp ac
Ġor th
ĠM ed
Ġmus cular
tox in
ĠPG E
Ġlyso zyme
Ġc as
rom atic
und red
Ġrec ord
Ġconsequ ence
Ġb last
ĠF ive
Ġro ute
Ġconsistent ly
Ġrepl ication
Ġlig and
s yst
Ġle v
Ġfib rosis
Ġcaus ing
Ġoxid ized
Ġfoc al
nit ros
Ġwide ly
Ġsup ra
Ġprel iminary
b it
o ts
os ter
Ġval u
Ġdescrib es
Ġrestric tion
M N
red uc
ĠD es
ĠH L
p op
ra ble
Ġne ver
Ġimmun oelectrophoresis
ĠL PS
Ġcl os
mon ella
Ġsuspension s
rosp inal
p es
r uc
se min
ir al
amic in
Ġlar v
Ġsep tal
Ġdex tran
oper idol
ĠN one
Ġbec omes
Ġrepres ented
Ġgeneral ized
hydroxy tryp
Ġcoun t
Ġventil ation
Ġencoun tered
p on
u ted
on yl
al k
Ġ( -
oc aine
ab led
Ġflu x
Ġprog ress
Ġtw enty
opera tively
Ġmum ol
oc ompatibility
ĠIn hib
el ve
Ġ5 2
Ġdec arbo
Ġ197 4
amp he
Ġcate g
z en
ic ular
Ġf ill
Ġe ct
Ġsign al
Ġlow est
Ġdeter gent
Ġdescrib e
Th ree
Ġintro duced
Ġunderst anding
b ack
Ġm orb
os us
os ides
Ġdr y
Ġpartic le
Ġax onal
Ġhum oral
M e
f ol
o in
Ġn ig
ur ys
Ġen ter
Ġar yl
Ġsensi tization
Ġrem ark
Ġana erobic
Ġinterpre tation
Ġwithdraw al
Ġintersti tial
amphe tamine
4 8
d in
Ġl oci
og lyce
Ġ4 9
Ġdi ver
Ġaut ologous
Ġmut ations
Ġtub ules
Ġty ph
effec tive
m en
p i
Ġg e
Ġrib osomal
Ġsex ual
Ġc od
ra tive
ur ified
ĠS P
Ġpress ures
Ġthym idine
hydrox yp
andros terone
Ġsar coplas
Ġm ental
ol gi
Ġmin ute
Ġul cer
Ġdel ay
Ġlate ncy
Ġenvironment al
Ġepiderm al
perim ents
l ished
Ġin hal
Ġpro min
ĠE vidence
Ġindic ation
Ġtri als
Ġprac tical
wh at
ĠHBs Ag
Ġexclusive ly
irub in
6 5
Ġf ist
Ġch or
Ġdis t
Ġgen ome
Ġradi ological
resp ons
troph ot
Ġphospholip ase
Ġprincip al
2 9
at um
Ġh undred
rom a
ow el
Ġspec tral
Ġdes tro
Ġmy c
Ġnec k
tryp sin
Ġinfer ior
u ro
og as
ĠS DS
Ġro om
ens tr
olar ization
Ġinoc ulated
Ġasth ma
C B
L E
Ġcon tral
rom olec
ir ing
omy el
enic ill
Ġaccoun ted
Ġexten ded
Ġvalu able
b rom
Ġw oman
is es
ph ys
Ġor i
Ġunder lying
Ġmost ly
Ġattac hed
Ġc ow
os tic
Ġby pass
Ġ6 3
Ġacc om
Ġsimilar ly
Ġphenomen a
Ġnutri tional
Ġdisappe arance
Ġcompati ble
Ġslic es
ot rypsin
Ġr un
Ġgradi ents
Ġac qui
di hydro
Ġco inc
Ġtyp ing
anism s
Ġcyc les
ines terase
Ġslow er
Ġbar rier
Ġcytos ol
c ies
Ġc ra
Ġen velop
Ġform ing
Ġimmun ore
ast om
der ived
Ġiniti ation
Ġsto red
Ġplac ental
wor k
5 00
en zymes
er t
Ġsome what
ib ly
Ġins trum
app a
Ġou ts
Ġinten se
Ġatrop ine
6 8
A FP
ul la
ul monary
ĠE CG
Ġ6 8
Ġdep ress
Ġdetermin ations
Ġdemonstra tes
12 5
Ġimpro ve
ĠSe pharose
Ġed ema
Ġcav ity
Ġenl arge
Ġon ce
Ġal anine
Ġ2 50
Ġindic ator
Ġu ro
erox idase
Ġplasmin ogen
Ġmicrome ter
c ious
Ġ ent
Ġan ion
Ġre jection
Ġl am
Ġsp i
Ġfib re
Ġout come
rac il
ov irus
Ġadren aline
Ġbase ment
tox ic
Ġtrig lycer
Ġsuccin ate
Ġrelev ant
Ġspermat ozo
h uman
an n
ing s
ĠC or
ĠS R
ĠP HA
we ek
omy osin
Ġquanti ty
Ġrequire ment
Ġspl it
ĠPR L
Ġagon ist
" .
c ol
Ġs clerosis
or us
di a
Ġimmun ologic
Ġmain tain
Ġhem odynamic
Ġhorm onal
Ġhepat ocytes
poly acrylamide
Ġamyl oid
ĠD is
ĠH yp
ure a
Ġpep sin
Ġtri phosphatase
Ġdys function
Ġdim ethyl
L R
g al
s tran
um es
end ri
ep i
Ġtes tes
ucle ar
mo tic
Ġinvol ve
ophil a
E R
t omy
Ġf uture
Ġe las
oc ortic
Ġcell ulose
ym p
Ġsh unt
Ġmo b
Ġcat tle
mic roglobulin
Ġcereb rospinal
Ġfas ter
en ia
one ph
Ġtrans ported
Ġlim its
Ġ197 5
Ġstre t
man n
oscop y
vi olet
Ġnar row
Ġtuberc ulosis
Ġexam ple
stran ded
h ist
Ġb ab
Ġf ron
ĠP a
Ġ5 8
Ġep inephrine
chol ate
Ġmac romolec
vers ity
esthe tic
phas ic
Ġmelan oma
mus cular
4 2
s ulph
ar ies
Ġmy of
Ġdop aminergic
ĠSta phylococcus
Ġischem ic
Ġarr hythmias
Ġjud ged
3 6
Ġan hyd
Ġm is
ce in
Ġac ne
Ġrespec tive
Ġsequ ential
fac tor
Ġelu tion
Ġreas ons
Ġheterogen eity
Ġobjec tive
Ġcortis ol
ic idal
Ġon c
Ġdis ulf
ĠG olgi
Ġgas trin
Ġdevelopment al
inc ubation
Ġatten u
Ġcatechol amine
hyp er
Ġexclu ded
ym ph
Ġcl us
ĠG VH
Ġinter medi
ogenic ity
Ġartif icial
g us
ge l
to kinase
Ġkill ed
sil on
s on
s te
ĠT ype
if ying
ir c
ir in
Ġmo iety
Ġcontraction s
Ġischem ia
Ġwa ves
Ġmorb idity
Ġsarcoplas mic
Ġ ide
Ġg old
ur onic
ĠH igh
Ġso il
phosph amide
Ġhetero log
Ġprogressive ly
Ġfav o
Ġcorre ction
Ġperman ent
A A
s cop
Ġus ual
Ġspec tro
ath ing
Ġpl ant
tric tion
Ġcolon ies
Ġpub lished
Ġreson ance
t hel
is on
er vation
ar ious
Ġ6 7
Ġpl an
Ġes terase
Ġro ot
Ġdie thyl
ĠNe w
Ġrecipi ent
Ġfetus es
Ġcortic ostero
L L
c hemical
h aps
ec es
Ġav ian
Ġpneum ococcal
Ġther mal
I P
d al
Ġg lass
minis tration
Ġtr is
Ġsevere ly
Ġdesign ated
Ġasp i
Ġepis odes
S T
j ug
he me
Ġan esthetized
Ġn asal
Ġpre operative
Ġsyn chron
hyd ryl
Ġexhib its
Ġhel per
Ġconjug ates
Ġsol vent
lorop henyl
Ġce phal
Ġagon ists
Ġregar ding
Ġepide m
ce re
Ġat he
ĠP ar
Ġneu ramin
Ġj ejun
Ġprote cted
ird s
Ġasc ites
Ġbund le
Ġd ental
Ġac ts
Ġsu d
ĠS h
ĠR Nase
Ġdeath s
Ġlarv ae
Ġcontral ateral
os ity
ĠC D
nt olamine
tan ts
Ġimmun op
Ġimmun ologically
Ġind is
Ġhist ocompatibility
reg ular
Ġden aturation
Ġwork ers
Ġembry onic
Ġang iotensin
ĠSal monella
Ġane urys
4 6
9 9
b al
t wo
Ġm V
Ġn ame
Ġenzym ic
Ġag glutin
Ġob vious
Ġmal n
Ġlip ase
Ġleuk aemia
Ġestim ation
Ġcys t
Ġdetect ing
Ġretro grade
Ġster ilization
Ġdetail ed
c ap
s oluble
Ġcon tin
Ġal d
ct in
Ġdi astolic
plas tic
Ġleuc ine
Ġpass age
ochem istry
Ġendothel ial
an il
Ġat rophy
Ġdemonstra ble
Ġtra uma
Ġgran ular
Ġdispl ay
Ġplac ent
Ġreser pine
Ġphysici an
Ġlith ium
Ġheterolog ous
Ġc hest
Ġb owel
Ġmo tility
Ġclin ic
Ġhaem at
Ġsuccess ive
Ġdim ension
Ġparen ts
Ġretur n
Ġa ges
Ġo il
Ġf und
ith in
Ġcan al
Ġso ft
Ġvaria bility
G G
al p
an gi
Ġor d
Ġser ine
Ġser ial
Ġsub pop
Ġ6 6
Ġpig ment
Ġ197 6
Ġrib osomes
re x
Ġin effective
ing er
ĠT e
Ġinc omplete
Ġcl ones
Ġmit otic
Ġvas odi
ĠCh anges
anth ine
ime tidine
Ġpreven tion
Ġneoplas tic
Ġpalli ative
Ġending s
d ic
o ag
re activity
Ġthe ore
os id
ĠP O
ĠU DP
Ġglyc osamin
Ġprob able
Ġfat al
Ġstrepto zotocin
Ġw t
ĠD H
mon th
li ter
Ġmm ol
Ġtetra cycline
Ġdiscrim in
Ġenlarge ment
f our
Ġc hel
Ġl umb
Ġcon d
Ġtrans mitter
Ġstudy ing
Ġchemical ly
Ġasc orb
Ġderm at
o phyll
ĠM y
pa rag
Ġvis ible
Ġtransfer red
Ġintro duction
Ġadap tation
Ġgent amicin
Ġpromin ent
ar ded
ly tic
ĠA T
ĠB lood
Ġrel ief
Ġmed ication
Ġsta phyl
Ġpred omin
Ġbil irubin
Ġdim er
Ġcataly zed
Ġderm atitis
Ġinst ances
Ġexplan ation
Ġspermatozo a
Ġf ind
id ium
ph thal
ethyl ene
Ġel uc
Ġpp m
R A
i er
ti um
Ġre inf
Ġn itrate
ap an
Ġro ugh
Ġfe ature
Ġref rac
Ġax on
Ġsw elling
3 1
l en
Ġh ipp
ĠS ignificant
lec tive
Ġun able
ost atin
Ġliver s
Ġpe ople
Ġinflamm ation
ĠZ n
Ġpoor ly
epi androsterone
a fter
t ally
u bs
in dependent
ro phic
Ġd rain
an a
Ġsub cellular
Ġma kes
Ġappro ac
Ġconn ection
Ġhydroph obic
b red
l er
l ig
l ines
Ġf lo
ĠA Ch
Ġconc anavalin
tif ied
Ġfil m
Ġnm ol
Ġke pt
Ġanalog ues
Ġexperiment ally
Ġcontribu tion
Ġaccele rated
Ġirrevers ible
Ġoppos ite
A c
od g
ten ing
Ġgro ss
ĠE A
Ġpep tid
Ġhomogen ate
ometh acin
h ab
as ive
un it
Ġres olution
qu it
Ġpre treated
Ġconc lusions
Ġ5 4
Ġ5 9
amin ase
Ġcl osed
erc ur
Ġhetero z
Ġphosphoryl ase
Ġattac k
a ved
x t
Ġis ch
ros ophila
Ġsim pl
Ġhal operidol
Ġsurv ived
Ġgon orrhoe
Ġexp on
Ġrecur rence
in yl
at ine
un ting
Ġv ul
ot roph
ĠV max
onucle o
Ġprost he
Ġcarry ing
es ter
op amine
Ġun coup
Ġcol l
Ġir regular
Ġdepos ition
S S
h ood
Ġch ole
ĠC EA
ess ion
Ġmin eral
Ġhist ologic
Ġconside ration
pep tidase
Ġtit res
Ġcontamin ation
Ġgrad ually
c m
l d
on omic
ti ty
Ġin verse
Ġd endri
or ic
Ġlymph ob
Ġdissoci ated
Ġchol ine
Ġeti ology
Ġech ocardi
c l
at ured
Ġl ens
Ġat tach
Ġcomp aring
Ġag glutination
Ġ6 4
ĠW he
Ġqu ick
ob ut
Ġsus tained
Ġdiffer ing
test osterone
throm bin
L H
d own
o tes
y ron
Ġc enter
an yl
Ġgiv ing
Ġsulf hydryl
Ġti ter
Ġbenzo diazep
. .
f en
i ant
Ġt ended
Ġm sec
Ġn urs
Ġmeth ionine
Ġcys teine
bloc king
ell es
ut ing
Ġcan ine
phosph oryl
Ġlip opoly
Ġmen tioned
range ment
Ġbond s
odg kin
n ine
Ġs cin
Ġf it
le y
am ous
ĠP oss
effec ts
b last
Ġp ed
Ġan astom
ro ximately
oc ular
ĠB ased
Ġsub group
Ġdef ic
ophil s
Ġrepl aced
d ose
Ġh ow
Ġpro be
Ġdis per
ch lor
Ġcons cious
Ġsyn ov
arc oma
Ġdil at
Ġprot ons
Ġphospho dies
aryn geal
Ġdraw n
P P
as ure
ic idin
Ġh ome
Ġpro ceed
oc amp
ati ent
Ġ5 3
Ġtrans m
Ġstimul atory
produc ing
Ġshor ter
Ġreproduc ible
8 5
g as
m ium
Ġc ut
Ġc alled
ĠT wenty
Ġl ambda
ĠA f
Ġdiff ers
Ġstr ic
Ġantagon ized
Ġutil izing
9 5
le ucine
ĠT rans
Ġmon os
Ġaut opsy
Ġul ce
Ġdeoxy rib
Ġinges tion
b re
as one
ith i
ff ered
iv es
ap to
Ġamin es
Ġestim ate
Ġimpl anted
Ġretic ul
Ġconcer ned
tum or
Ġgalact ose
it us
ĠC NS
Ġdis char
ĠH Cl
ĠR adi
Ġr ich
Ġpath ology
Ġpor tal
Ġaggreg ates
Ġthromb osis
c ar
it ch
Ġv iable
Ġphen otype
Ġbacter i
Ġhom oz
Ġmat ched
ĠComp arison
obacter ium
ĠAcc ording
ruc tokinase
Ġsud den
Ġt ent
Ġa romatic
qu es
ĠC H
Ġab und
G A
b ac
Ġa w
Ġd ominant
Ġac ting
Ġper haps
Ġle p
ĠD rosophila
Ġtemp ora
Ġhist ologically
Ġdie ts
Ġhomogen eity
Ġsaliv ary
C on
Ġan emia
ce l
Ġch ym
ĠS T
iz ations
tan ces
ĠL ow
Ġreve als
Ġepiderm is
Ġabor tion
Ġchamb er
3 9
C r
l act
id o
Ġtem plate
truc ted
ili ary
Ġspind le
Ġcorne al
C R
Ġp ast
Ġm os
Ġf usion
us cular
ĠT H
Ġcomple ted
ty rosine
Ġleuk emic
Ġlac king
Ġneed s
Ġinduc ing
Ġdiv ision
Ġchlorop lasts
z o
es ides
tr ies
yp ical
Ġinf used
Ġintra muscular
Ġlower ing
ull ary
Ġconduc tance
Ġouts ide
w ith
ia tic
ĠH ospital
Ġtrans ferase
Ġcy to
Ġst arch
Ġox al
Ġappro xim
Ġfem oral
Ġz ones
Ġpotenti ated
Ġpersis ted
Ġreflec ted
Ġacqui red
ĠA B
Ġmon ol
Ġelectro des
Ġexc it
Ġimpl antation
Ġphenyl alanine
Ġprojec tions
Ġhemag glutination
Ġanx iety
Ġaccom pl
u it
Ġc ros
Ġanalog ue
Ġmoderate ly
Ġspl en
Ġdefec tive
Ġangi ography
Ġbra dy
Ġlear ning
cere b
z ine
Ã ©
ic ardi
di vid
od erm
Ġhe me
Ġmed ulla
pt omatic
Ġglyc ol
Ġprecipit ated
Ġstain s
Ġinterf erence
ocl onal
. -
i tions
o cellular
Ġm enstr
ĠD ep
to le
ros pora
Ġ6 2
Ġam ine
ĠG MP
Ġgre en
Ġmicro org
Ġwor king
Ġlact ose
hyth mic
Ġlamin a
thym idine
ropath y
yron ine
H e
b is
l and
p e
Ġ &
ic a
Ġpro ve
Ġsp ores
tor ies
mit tent
Ġaff erent
Ġ197 3
Ġconsid er
Ġprovid ing
Ġgangl ia
Ġbrief ly
7 7
id ox
ĠC P
Ġtr ic
Ġcase in
Ġlac tic
Ġvag inal
Ġsuperf icial
ĠInhib ition
Ġenvelop e
Ġspectro scop
Ġneuramin idase
M S
om s
ĠM ich
Ġcyt ochemical
Ġcontra ry
Ġprol ine
of ructokinase
Ġsubstitu tion
ly l
Ġde le
Ġpos ts
cy tes
Ġall ogra
itu d
Ġultra violet
Ġconn ected
Ġshif ts
Ġfro zen
thel ess
t rome
on y
ine mia
Ġsys te
Ġnucle ic
Ġ9 6
Ġhybr ids
Ġlink age
on ium
Ġs ph
res is
tr ical
Ġsimilar ity
Ġmicro tub
Ġiden tity
rad ish
Ġsal ic
Ġhydroly zed
Ġmet as
utri tion
Ġinterf ere
Ġbenef it
lav in
Ġret ard
Ġfluor ide
hydroxytryp tamine
f raction
f ive
on tal
Ġw ar
tr ial
ĠH RP
Ġend oplasmic
ffici ents
Ġem ergen
Ġcarbo x
atin ine
ĠQ u
Ġnic otinamide
Ġregar ded
Ġhemorrh age
Ġspre ad
Ġf lex
Ġphen obarbital
Ġthrom bin
Ġpossess ed
Ġdisturb ance
6 6
tra tes
ĠA P
Ġspec trophot
Ġcl ot
hem at
Ġinflu ences
Ġtas k
Ġpreferen tially
I T
h aem
l s
p rim
ĠC u
ĠS pec
el is
Ġtre nd
Ġchan ging
Ġcorrel ations
Ġspl enic
ograph ically
Ġasym me
U sing
a ves
Ġd ic
Ġres olved
ĠG H
Ġvir tually
hydro lase
titu tion
Ġref lux
Ġretin a
phe tamine
ĠpK a
ĠCell s
Ġandro gen
lys ine
Ġhipp ocamp
d ec
o phosphate
Ġpro spective
Ġen riched
ins on
Ġend otoxin
Ġel der
Ġreduc es
Ġactin omycin
Ġher pes
es ia
Ġsp or
Ġad mission
st re
Ġam b
Ġplas tic
Ġmin us
Ġdemonstra ting
az epam
ex change
onucle ic
gin a
An ti
Ġve ins
Ġmanif es
ored uc
Ġgonad otropin
Ġsqu amous
Ġju ice
Ġneurolep tic
Ġlaparoscop y
Ġdegra ded
Ġchlorp romazine
Ġp ate
tim al
Ġk in
Ġdr in
Ġthere by
Ġsm ears
rough t
Ġinflu x
Ġcardi omy
Ġpred nis
Ġcomplic ated
Ġpers onal
Ġads orbed
urg ical
Ġcra ss
Ġdilat ation
Ġw id
Ġf oci
rom at
pha tic
hem oglobin
Ġman n
Ġavail ability
Ġtrain ed
ĠNeu rospora
Ġdecarbo xylase
Ġe ther
ol us
oc ys
Ġha pl
ĠR A
Ġdec lined
ist ar
Ġfraction ated
erox ide
Ġtak es
Ġlate nt
vers us
Ġfas ting
osamin idase
Ġvaccin ation
C F
Ġc en
Ġto ok
Ġl up
Ġper i
Ġun ex
Ġmagn etic
Ġcurrent ly
Ġfo ot
A D
A d
c alled
Ġto tally
us al
Ġv ec
se mb
ch icine
Ġstu dents
Ġparen chym
Ġger min
Ġile um
Ġb rought
Ġsam pl
Ġpresent ation
Ġvol tage
Ġrespond er
Ġcontroll ing
Ġcoe fficients
Ġrecons tituted
Ġplasm id
Ġchondro itin
Ġth re
Ġwas hed
Ġpro ven
Ġacid ification
era t
Ġdep ri
Ġdi oxide
Ġinclu des
orb ent
Ġpor cine
Ġpredic ted
Ġclon idine
6 4
d l
f usion
Ġin her
Ġas sis
Ġex act
tr us
ch lo
Ġma king
Ġhand ic
Ġcys tic
Ġprogram s
Ġasp art
Ġmono amine
Ġduoden um
ĠSimilar ly
Ġspe ed
B S
D L
] .
Ġan gina
as ic
ol ated
ĠC BA
ĠC yt
Ġgro und
Ġco ord
po int
nit rophenyl
pyr uvate
Ġlum en
Ġdifficul ties
Ġsurround ing
ĠAf ric
Ġelder ly
Ġcrass a
a elis
f e
y rate
Ġb ed
ol ab
oc ons
ib ration
ir radi
ĠS V
Ġag g
Ġag arose
Ġem p
Ġ197 2
Ġemphas ized
Ġentire ly
Ġcyclo phosphamide
Ġphe ntolamine
Ġname ly
ĠPoss ible
C D
Ġ ips
ĠA M
de press
Ġmod ify
iod oth
Ġlab elling
oxy genase
Ġheal ing
Ġz ero
Ġpossib ilities
Ġcarbo xylase
ĠPA S
sulf ate
pic illin
Ġmucopoly saccharides
Ġche c
Ġadi pose
6 7
m ale
Ġbe ats
to id
ĠO p
Ġar ticle
Ġpl ot
Ġfour th
Ġvol umes
Ġele ment
Ġchem o
Ġhypoth yroid
Ġleuc ocytes
aden osine
Ġepilep sy
ĠElec tron
H g
Ġs omatic
ul ent
Ġis lets
ot rex
Ġch im
ĠD i
ox id
iss eria
ĠWith in
" ,
h ion
he patic
Ġc ure
Ġr up
ĠO ver
phy se
Ġ197 7
ension al
Ġpub lic
Ġposi tively
Ġanat omical
ogas ter
oneph ritis
Ġp ace
ro cal
Ġac ceptor
pha ge
Ġind omethacin
Ġinter mittent
Ġstra nd
ocarcin oma
c entr
m ing
ph rag
Ġex tension
Ġse pt
ĠD ifferen
ĠB ut
ie tic
pec tive
Ġves ti
Ġtransc ription
Ġsuppor ts
Ġisop renaline
Ġinterven tion
Ġtransloc ation
ĠDes pite
0 3
5 8
g aly
p sych
us ing
ur ity
ac a
Ġwh at
ch lorophenyl
ĠE B
ative ly
entr y
anti gen
Ġhaem oglobin
rit in
Ġneurolep tics
Ġcyan ide
Ġrecombin ation
Ġdocum ented
s tra
Ġto m
Ġg ir
era ses
ensi tization
Ġinte ract
Ġsc ores
io tic
ocardi al
Ġdehydro epiandrosterone
Ġke to
Ġexperi enced
Ġrare ly
Ġchar ged
Ġattach ment
Ġex amine
ĠS D
ĠN E
Ġreac ting
ap ed
Ġins ide
rect omy
Ġiniti ated
Ġstab il
Ġfer ric
uter ine
Ġbra ins
Ġtheore tical
otrex ate
A P
l ain
m es
u ran
Ġth oracic
Ġsh ared
Ġar g
Ġhaem ag
Ġsitu ations
Ġattac ks
enter ic
elec tro
Ġphosphodies terase
. ).
7 1
H uman
an ed
di bular
ell ow
Ġme al
Ġdis tance
Ġcor p
ie tal
Ġtr ich
Ġequ ip
Ġlong itud
ud itory
otox ic
opath ological
Ġtechn ical
Ġfrac tures
L a
c ys
Ġb anding
Ġn al
Ġdis semin
Ġco at
Ġun com
Ġli ve
Ġgen era
Ġop tical
av ing
Ġhem is
Ġcontinuous ly
Ġexcess ive
Ġrecomm end
glyc erin
Ġrecording s
Ġalkal i
Ġdisulf ide
g a
l tra
u ous
Ġt one
Ġc imetidine
Ġe con
Ġal dehyde
Ġse minal
Ġhe n
Ġreg is
xim ide
Ġhydro carb
Ġir rit
Ġtranspl anted
Ġfield s
Ġiod ine
Ġfibrill ation
Ġmetas tatic
C S
ĠC linical
ĠS C
ĠIn s
Ġser ved
Ġk ary
Ġpoten tially
Ġdepend ed
Ġsubstan tially
ithel ial
Ġpers on
Ġanalog s
Ġmelan ogaster
Ġgranul ocytes
unc ture
omorph ine
Ġaccompl ished
ĠMich aelis
o rome
te ad
Ġs ick
Ġse as
ĠP oly
Ġout p
Ġphen yle
Ġproper ty
Ġfil ter
Ġsynd romes
Ġuseful ness
Ġsolub ility
Ġegg s
Ġkind s
gre ater
Ġplacent a
y ond
Ġt ight
Ġd yes
ĠP e
Ġpres ents
Ġimmun ochemical
Ġk cal
Ġk appa
Ġ7 4
Ġtole rated
tingu ish
Ġdeple ted
Ġsial ic
ĠS pecific
Ġpo in
Ġreac h
Ġev iden
Ġpresent ing
Ġave ra
Ġtransfer rin
Ġfas hion
Ġuter us
vic es
oval ent
Ġreinf or
Ġlup us
5 6
L I
M M
N O
Ġp sor
Ġim mature
Ġhe aring
Ġar m
tur ally
Ġj ust
acter ial
lamm atory
Ġsubstitu ted
ĠMe an
Ġsem i
Ġoccasion ally
oprop yl
iodoth yronine
P T
P re
Ġs ig
Ġs ib
Ġp r
it als
ĠT NP
ta x
Ġpres c
Ġelec tric
Ġcharacter ization
opro l
Ġindependent ly
Ġbel ieved
opha geal
Se pharose
Ġposi tions
c omple
o lym
Ġa eti
Ġcomp are
Ġpl ays
Ġphosph ofructokinase
Ġprecipit in
Ġsecre ted
Ġasp irin
Ġkill ing
Ġlob e
Ġathe ros
Ġlipopoly saccharide
I m
V A
Ġa erobic
Ġp an
al ity
ĠA b
Ġme m
Ġr ig
Ġes ters
Ġexc itation
pep tide
cor tis
ract olol
Ġmos quit
. ),
4 3
d opa
i amine
Ġf las
Ġf ace
Ġspec trome
Ġ8 6
Ġradi ographic
pres sion
ero b
Ġprote ases
Ġfl uc
Ġdifferenti ate
Ġbl ack
roscop ic
Ġcommun ity
Ġpace ma
5 2
F e
G MP
P L
Ġin otropic
it re
Ġad di
Ġco enzyme
Ġsyn erg
Ġcommerc ial
Ġchole ra
( +)
e ros
r ide
he p
ac ron
ver sion
ĠH z
Ġinf usions
Ġinto x
Ġins tead
Ġneur ones
Ġlim iting
Ġthym ocytes
cyc lic
Ġgram icidin
Ġhams ters
Ġstop ped
Ġanomal ies
tinguish able
I D
re in
Ġs cle
at ura
Ġprotein ase
Ġ8 7
Ġbi phasic
Ġneu rom
Ġax is
Ġcoun tries
Ġlys osomes
ĠNe isseria
Ġimp ul
na ph
amyl ase
fix ed
Ġdich ro
A DP
as m
ĠA bo
Ġex ud
Ġcomp lain
Ġph yto
pa red
Ġprim ed
Ġbacter icidal
Ġel ong
Ġphot o
Ġbro th
Ġrandom ly
Ġbuff ers
Ġimmunosupp ressive
l ies
o ff
ed ded
ul ates
ak ing
Ġtub es
Ġcomplement ary
Ġconjug ate
ris ing
Ġprevent ing
Ġconsequ ences
Ġglomer ul
Ġcaps ule
Ġasym ptomatic
F our
is hes
Ġd ib
Ġwas hing
Ġde hyd
ĠN O
ĠG ram
Ġbi o
Ġep silon
ĠAs s
Ġrib onuclease
Ġemplo ying
Ġbabo ons
Ġsched ule
Ġmem ory
Ġh ar
Ġad mitted
ĠSe ven
flu oro
Ġattribu table
Ġcorrespond s
Ġindis tinguishable
Ġgonorrhoe ae
Ġips ilateral
l am
le omycin
Ġ6 9
amin ation
Ġ7 8
Ġox ide
Ġins oluble
acchar ides
Ġos motic
Ġhorse radish
Ġcryp tor
+ ]
i en
he rent
us c
ys iological
per g
Ġhyp era
all ik
Ġam picillin
Ġmon onuclear
Ġ7 3
tam ol
rol ine
Ġconf ig
anc ing
Ġgene tically
Ġdestro yed
apto ethanol
Ġfluc tu
b er
g ths
i ology
r ist
Ġt ail
Ġanti depress
ri te
ĠD S
Ġnucle oside
Ġpropor tions
Ġdev oid
Ġinner vation
ucleo tide
7 2
Ġf ig
ly sis
ĠM on
ip ramine
Ġtre ating
Ġst ation
Ġmo tion
ĠW istar
Ġflu oro
Ġexc ision
cer tain
osp itals
sel ves
Ġcarb onic
ĠJ apan
Ġthrom bo
omat ous
Ġprogn ostic
Ġfeed back
ophyll ine
Ġp lex
um atic
th rop
op enia
ĠS er
ĠD D
ach ing
Ġisol ate
Ġsupp ressive
Ġdef ine
Ġsc ale
az ol
oe tal
Ġx en
Ġstand ardi
Ġamyl ase
Ġret arded
glob ulins
Ġcoval ently
Ġrelap se
Ġaspart ate
Ġp as
Ġw ays
Ġd ent
an ide
Ġen ough
ĠS A
Ġdeter io
Ġery t
Ġorgan elles
Ġprot oc
hyper tensive
G F
te re
it rophenyl
ic es
Ġre ferred
Ġe lastic
ol k
ich i
tim ulation
Ġinter rup
Ġmeas les
Ġextra syst
Ġcal ves
co tic
Ġregard less
thyroid ism
Ġhypo tension
Ġstrept ococci
Ġintraper itoneal
rele asing
I V
n on
Ġo le
Ġin put
Ġre qu
ĠT otal
tra ction
tiv ated
qu il
lo ts
ĠF ab
Ġ6 1
Ġother wise
ag ing
Ġfac ial
anti tative
Ġfl ag
Ġprog ression
Ġcre atinine
Ġstrept omycin
Ġregen eration
Ġvisc osity
Ġrecord s
5 4
A fter
Ġb ot
Ġbe yond
ĠC B
ĠS w
Ġser vices
tam ide
ram phen
anti trypsin
kin in
Ġbloc ks
Ġconf ined
row n
con jug
Ġtranspl ant
Ġepilep tic
Ġori entation
Ġlumb ar
ramphen icol
f or
s al
Ã ¶
en a
Ġp ut
ur ally
ĠE ight
Ġsc heme
dep end
Ġgluc uron
gluc osidase
Ġyoun ger
tiz ing
Ġassign ed
0 4
Ġf ish
Ġl ute
ĠA p
ys te
ĠS ec
jec ted
lin king
Ġlim b
pre ad
Ġbase line
Ġiso enzyme
Ġbr ush
Ġpene tration
B y
W hen
z ard
Ġb is
ig ible
og lu
op res
Ġpres ynaptic
Ġph ages
ox idation
Ġdesc ription
Ġaffec ts
aris ons
Ġven om
Ġpsych iatric
Ġanaly tical
ibri ll
Ġfav ora
uli ar
Ġsaliv a
Ġesopha geal
Ġsynap t
Ġelectroly te
Ġhomoz ygous
S C
g lycerol
Ġa uditory
re ceptors
od op
Ġinc re
Ġgluc ocortic
Ġpath ologic
Ġte eth
Ġinjur ies
press ure
Ġbab ies
Ġintermedi ates
Ġmicroorg anisms
Ġretard ation
ul ative
Ġcomp r
ĠS m
tro gens
00 5
si x
Ġhyp other
Ġpl ates
Ġlymph ocytic
ag as
Ġpost natal
Ġ18 0
inf lammatory
Ġshif ted
Ġcompeti tion
Ġheterogen eous
Ġphysici ans
A s
c at
m u
Ġd up
or tical
lu tion
ĠD ata
ren olol
Ġag ing
Ġmo le
Ġsubjec tive
Ġprocess ing
Ġphys ic
Ġstimul ates
activ ation
Ġthem selves
dim ensional
Ig G
Ġexer t
Ġtop ical
Ġstric t
Ġeryt hemat
K R
g ia
l ite
r idine
um ing
th ree
Ġac tual
op hen
tr one
Ġat ypical
Ġ8 3
ex is
Ġmulti pl
Ġprecipit ate
Ġve ge
Ġrepresent ing
Ġbreak down
reac ting
Ġlas ting
Ġanalges ic
F or
v ol
he xyl
Ġto ol
il ed
Ġad ding
Ġper mitted
Ġhe ating
Ġmeth anol
Ġhist one
Ġtub al
Ġrepl ic
ĠAd ministration
Ġov ulation
yc lic
ĠAm eric
Ġstar ted
Ġhybrid ization
Ġbur st
Ġcircum st
mod ified
A m
D uring
b or
l ate
u racil
ed ema
id ia
Ġl ag
Ġradi al
Ġperiod ic
ade qu
Ġchron ically
Ġneutral ization
Ġstri atum
Ġexis ting
Ġpap ain
Ġidi opathic
opo ietic
Ġisot ope
Ġcardiomy opathy
H CO
M g
m ar
Ġb ip
Ġ7 7
Ġmy cel
Ġrele asing
reg ion
Ġseiz ure
Ġdynamic s
Ġavera ged
f rom
Ġs tro
Ġand ros
Ġh ard
if lu
ĠB o
ĠL V
ĠL a
Ġ7 6
Ġdisc overed
Ġion ization
Ġtra ce
hyd raz
Ġultra centr
ograph s
Ġhypo tensive
Ġbran ch
Ġfa ir
Ġparasi te
Ġphag ocytosis
Ġanhyd rase
4 7
8 8
Ġp il
Ġm assive
Ġh ospitals
th i
ĠM LR
ĠH odgkin
ĠN MR
Ġradi olab
Ġparame ter
Ġty ros
Ġpec uliar
A r
o ate
u LV
ĠN or
Ġst art
Ġsc ar
Ġstar ting
oscop ic
ket ts
Ġau di
Ġsept um
% ;
h n
Ġc ad
Ġof fer
it onin
Ġg p
ir st
Ġactiv ate
ĠH A
ĠN ormal
Ġtrans peptidase
Ġrel ia
Ġma x
Ġcol or
Ġro d
ive red
rac ene
Ġpath ogenic
oxy benz
Ġcereb ellar
Ġnod ules
Ġrevers al
Ġolig os
Ġpel vic
Ġlongitud inal
allik rein
i tic
s ub
ll ed
Ġsp ati
Ġsp aces
Ġle c
ore ceptor
Ġne gl
ĠH aem
lymph ocyte
Ġvir ions
ochond rial
Ġiso enzymes
Ġparticip ation
Ġexer ted
Ġpreser ved
Ġrefrac tory
oreduc tase
R I
m ers
ul ant
ot onic
Ġcomp artment
ure tic
Ġmon ocytes
hydro xylase
Ġmar g
Ġsc an
Ġconstitu ents
Ġtransf usion
Ġserolog ically
Ġstation ary
ic ketts
Ġg iant
Ġpro c
tiv ities
Ġat m
ĠR ep
Ġr if
Ġhyp erg
ob last
Ġnitro glycerin
Ġsynthes ize
Ġrecip rocal
Ġconjug ated
Ġinfil tration
Ġbul k
Ġfron tal
P h
c ill
en es
Ġf oetal
ĠT P
di hydroxy
Ġco b
Ġco ol
Ġreac hing
Ġ9 8
Ġinte res
Ġlig ands
Ġseparate ly
Ġsupple mented
Ġkera tin
Ġabsorb ance
Ġsynov ial
Ġdrin king
it or
ith ine
NA DP
Ġam phetamine
Ġreg ulated
Ġdia phrag
Ġfunction ing
Ġmit ogen
Ġace tic
Ġem ul
Ġsympt omatic
Ġlo ading
oro us
Ġtarge ts
cyt ochrome
Ġcatal ase
Ġcorre cted
1 50
M V
R e
f o
Ġo cular
en tially
Ġp lots
Ġcon vul
ta rate
Ġpro jection
ff e
ĠN ine
ome galy
Ġreg imens
Ġab er
tig ra
Ġprote ct
Ġdistribu tions
Ġfibrin olytic
Ġet c
Ġpeptid oglycan
5 1
G l
Ġ umb
Ġb if
os tr
Ġn ight
Ġ( "
Ġco factor
oth ane
ab les
Ġdec ay
Ġcl ar
Ġins ensitive
yr ic
ides pread
Ġoff ers
ĠMe asure
Ġexceed ed
Ġspectroscop y
6 9
Ġg ut
ur ium
ac aca
ĠI r
ĠB inding
Ġdec om
Ġar ch
Ġdi arr
ĠV III
Ġul cers
eren ts
Ġweak ly
Ġprom pt
quin one
Ġroset te
Ġapprec iable
Ġeviden ced
4 1
s ide
v o
Ġh ind
ĠC ons
gen esis
Ġne xt
Ġ7 1
ag ic
Ġimmunofluores cent
Ġaug mented
a uc
Ġre nd
id ym
iff erent
ĠF ac
Ġar ise
hydro xyl
Ġout flow
Ġcyt och
Ġdiscus sion
bin o
Ġdel ivered
Ġmorph ologically
opep tidase
S ix
T wenty
m m
w ater
Ġd om
im entation
ri amycin
ĠF re
Ġfib rils
Ġend ometr
Ġpara thyroid
Ġconsis t
Ġcirc ulatory
Ġchick ens
ĠPh osph
ened iamine
Ġbelong ing
Ġchlo ramphenicol
Ġintrac ranial
Ġapproac hes
Ġdischar ges
] ,
e ta
f ed
re cted
Ġp g
Ġp ip
Ġb orn
Ġb irds
us ate
Ġg r
tra c
il ical
ell um
Ġas semb
ĠP FC
ĠD O
unction al
Ġ9 2
ram ide
Ġcyc l
Ġquanti f
thanol amine
Ġmalign ancy
Ġdev ice
Ġuns table
aryn x
lac tam
Ġeduc ation
Ġect opic
oglyce rate
respons ive
Ġattenu ated
Ġimmunop recipit
Ġmaln utrition
hab il
cortis one
D M
P he
in a
on t
Ġw idespread
os por
os itol
ĠT ris
Ġv i
Ġv ital
Ġmon oclonal
omy ces
pos es
Ġpur ine
ĠV arious
Ġevalu ating
la bo
Ġach ieve
Ġtrac heal
Ġpreced ing
Ġerror s
ameth asone
opy ran
Ġinhal ation
Ġvesti bular
Ġextrasyst oles
P O
d T
Ġ entry
uc cin
Ġpo lyc
oth iaz
Ġform aldehyde
Ġmeth otrexate
Ġphen ol
Ġj us
ĠEx periments
Ġprac tically
Ġprostagland ins
Ġmening itis
Ġhemoly sis
Ġmanifes ted
B H
G ly
Ġc ura
ĠA L
iz able
Ġpo ison
Ġind us
Ġst ressed
Ġsur ge
Ġlab ile
Ġpotenti ation
Ġfew er
Ġdispl acement
Ġvia bility
Ġprincip le
meth ionine
Ġadap ted
Ġfollic ular
Ġenl ar
Ġspind les
Ġduc ts
Ġchannel s
Ġtable ts
L M
u ts
he mag
Ġn as
Ġl u
Ġis omer
Ġactiv ating
Ġpar ietal
Ġro und
Ġappro x
acchar ide
Ġpor tions
Ġden atured
Ġretic ular
Ġfibrob last
Ġexam ples
Ġremark able
4 9
A la
i osis
he ximide
res pective
Ġobs tructive
Ġantigen ically
Ġcol chicine
Ġgl ial
Ġman ip
ens ation
Ġprim ate
mit ters
oe a
app ed
Ġos cill
Ġsto ichi
Ġlig ation
enc ing
ĠPG F
su pp
Ġshor tening
Ġfa ecal
Ġresemb led
Ġjunction s
Ġqualitative ly
Ġschizophren ic
Ġara chid
Ġunlike ly
Ġneurom uscular
D NP
c a
t RNA
Ġa f
ce tyl
ut um
Ġno ise
Ġwe t
Ġelec t
Ġphosph orus
Ġem ission
Ġaccum ulate
Ġcys ts
Ġglutam ic
Ġgrad ual
Ġdin ucleotide
Ġcontracep tive
Ġchym otrypsin
Ġre absorption
ay ers
Ġpre ferred
el i
ke to
Ġno vel
Ġy olk
of lavin
Ġsurv iv
Ġremo ve
Ġact omyosin
Ġbenef icial
Ġpreced ed
ĠAC TH
Ġascorb ic
h ol
Ġin adequ
al tered
reas ing
Ġr RNA
Ġass umption
Ġpar tition
ĠG TP
rop henol
Ġacc ord
Ġmetabol ized
Ġstimul ator
Ġoptim a
Ġdiss olution
Ġdiabe tics
Ġpyr idox
Ġcorrespond ed
Ġsupple ment
Ġattemp ts
Ġglycosamin oglycans
Ġdichro ism
a ran
n es
Ġb urs
ac ute
Ġis let
Ġcom m
Ġpre incubation
ĠM any
ĠB CG
ĠG u
Ġpara d
Ġfree ze
Ġtermin ation
Ġphysi ologic
Ġneutroph ils
Ġpoin ted
D O
N B
S erum
T c
r ity
z es
Ġb ring
tr im
ma tically
Ġfol ate
Ġ8 2
ensi ve
Ġ9 4
Ġprev ents
Ġglyc olysis
Ġaut om
Ġion ophore
ling s
ĠPro te
Ġreflec ts
ĠPre treatment
Ġdiscre te
male imide
4 4
l ayer
Ġc DNA
ic ks
Ġg est
ĠA H
Ġanti hypertensive
ren ergic
ĠL ymph
ox one
Ġmm Hg
Ġbl ind
Ġke y
Ġeas y
Ġantic oag
Se phadex
Ġnegl igible
G TP
c us
y el
Ġ iv
Ġ lym
Ġf el
Ġre pro
os ing
Ġbe gan
Ġat tained
ĠD P
ĠG luc
Ġvar ies
and ida
ind olol
Ġsl ope
Ġvas cul
Ġtryp tic
Ġcre atine
Ġfavo urable
Ġcryptor chid
Ġrequ iring
d ri
g o
s erine
t om
in v
Ġp ractolol
Ġan ions
Ġcon ges
ot ine
Ġhe ight
ĠM eth
ep tide
ĠO r
av irus
Ġchild hood
ton ic
Ġju ven
Ġepide mic
Ġautoradi ography
Ġdevi ation
Ġplex us
6 2
M E
Ġthe ophylline
ate ll
tra cted
og luc
Ġad op
Ġle ak
Ġconc urrent
Ġco ated
Ġequ ation
Ġmorph ologic
Ġpsych ological
Ġtw elve
Ġnat urally
Ġhemoly tic
Ġclos ure
B SA
n ary
ch a
Ġcan cers
ater ally
rim idine
Ġsimilar ities
Ġfir ing
Ġplate au
Ġprof ound
Ġepid idym
ĠRe g
ĠCo A
yto in
9 6
t te
ar th
os en
ph i
Ġ1 10
Ġanti his
ĠR EM
Ġ10 5
Ġy ellow
Ġcul tivation
Ġhyper trophic
anth rene
anth racene
Ġap omorphine
Ġauto immune
Ġadhe rence
HB s
ĠSub sequ
Ġrect al
Ġabund ant
Ġspectrome try
7 3
M C
o kinase
r um
w is
is ter
it he
Ġsu ffered
yp ro
Ġspec imen
Ġmicro c
Ġassess ing
Ġapplic ations
Ġanalog ous
ĠAc id
ĠCom pared
Ġaccep ted
tened ione
Ġneurotrans mitter
Ġtempora ry
Ġdom ain
N D
Ġt ro
Ġc it
ce eding
Ġac tively
Ġse greg
ĠIn f
Ġhyper ther
Ġbo ys
cyc lo
Ġweek ly
Ġpent obarbital
Ġneoplas ms
Ġrelev ance
orr hea
Ġsomat ostatin
omyel itis
Ġspi ke
Ġstret ch
Ġcircumst ances
- )
f ish
r il
Ġs n
Ġin bred
ul ae
Ġen s
ri le
ĠL DH
xim um
Ġhydro lase
Ġdesc ending
phosph ates
Ġran ges
Ġgra f
Ġglyc olytic
Ġprec ision
Ġvec tor
Ġtom ography
oglu tarate
h osts
v anta
Ġ erg
Ġs aturated
th io
Ġpro phylactic
ff in
ĠR BC
ox yl
Ġdep olarization
Ġtech nic
Ġfree zing
Ġtri phosphate
ĠHe La
Ġlum inal
Ġdisrup tion
Ġcorticostero ids
Ġmenstr ual
ĠAbo ut
oxybenz amine
6 3
i ella
Ġa po
ĠT A
ĠA ut
ie ties
Ġfol d
ĠK i
ĠU ni
Ġsc alp
sy n
Ġrece ive
ĠCon c
ime tic
Ġther mo
Ġver ified
Ġextre m
Ġbr id
Ġbran ches
Ġbabo on
Ġt erat
Ġo range
Ġb ases
Ġpro phylaxis
Ġse a
Ġsh are
ren al
Ġreac ts
Ġsc ore
omp e
Ġcap ill
Ġselec tivity
tac tic
Ġdys trophy
Ġmamm als
Ġmes enteric
Ġavoid ed
Ġvacu oles
U D
o y
o dium
s truc
Ġb arb
ĠT en
um en
Ġor n
Ġar ising
ensi tized
ag greg
Ġvesic le
yc lo
Ġnit rite
grow n
Ġattemp ted
Ġfist ula
7 8
a ut
o te
r p
in o
on vul
ic le
Ġpro gen
ĠA bs
Ġsu fficiently
ĠR at
ĠR IA
ins ulin
Ġlymph omas
Ġ8 9
Ġcons erv
Ġpara s
Ġ197 1
Ġrep etitive
Ġadj us
Ġshe ath
Ġbre athing
Ġfas c
Ġultras ound
Ġill umin
Ġsumm ar
Ġepidem iological
psych otic
Ġphenyle phrine
opres sin
) )
en ol
Ġs izes
Ġc um
ar yl
Ġe uth
di al
Ġres in
Ġsp utum
Ġhe red
Ġ6 00
ox ic
Ġintra vascular
Ġabs cess
Ġmicro v
Ġte tan
Ġnegative ly
Ġlo razepam
Ġcollec tion
Ġchallen ged
Ġpap ill
Ġphosphatidyl choline
trop in
Ġexpon ential
ĠWhe reas
Ġpacema ker
Ġglomerul onephritis
Ġstro ke
g ents
g lu
al bumin
ĠD ec
Ġmeas urable
ĠU ltra
gluc uronidase
Ġallow ing
rob ial
Ġsecre tin
Ġov ary
Ġpolymorph onuclear
fol ate
Ġmicrotub ules
Ġumb ilical
+ /
0 8
N E
v ate
z one
Ġo val
Ġme g
ion ate
Ġal umin
ĠN on
Ġinter cellular
ugh t
ĠK le
Ġthym ic
Ġhelp ful
Ġaspec t
ompati ble
sh aped
Ġfollic les
Ġdiscrim ination
en olone
os tatic
Ġme l
op yr
ĠC andida
ĠE le
and ro
Ġro tation
Ġsta ff
oplas tic
Ġgran ule
Ġconj unction
stim ulating
Ġpossess es
Ġstar vation
Ġparasi tes
Ġaccurate ly
unting ton
Ġposts ynaptic
Ġdiarr hea
E DTA
c her
i ologic
m ble
is ole
Ġre habil
ol ub
Ġcon cep
ir rel
ĠP E
ox yp
rel iminary
Ġ9 7
Ġins ec
ĠMg Cl
Ġhal othane
Ġtri tiated
Ġhaem odynamic
olip id
Ġfer ritin
plas min
Ġnorm o
Ġsyste matic
Ġcen ters
Ġhemis phe
Ġintox ication
naph thyl
perg illus
Ġconfig uration
conjug ated
Ġfair ly
p sin
Ġ ros
Ġs ul
Ġp i
ar ic
oc itrate
ĠM yc
oth re
ĠE ven
ill ed
Ġnucle ase
ort un
Ġcarcin ogenic
Ġfluores cein
Ġstrong er
Ġcondition ing
Ġhypox ic
ĠCT L
Ġlaparoscop ic
ĠDM BA
hemag glutinin
' )
n ec
s ized
im urium
Ġra tional
Ġpre p
Ġsign als
ĠR educ
NA c
Ġ8 8
Ġso y
Ġpoly saccharides
Ġhist ology
Ġsurg ically
Ġfil ament
Ġestim ates
plo id
Ġperf usate
Ġden ervation
ime tric
Ġcontrac tility
Ġresemb ling
Ġregular ly
Ġbenz yl
Ġcateg ories
Ġnurs ing
Ġspati al
ĠUni versity
d R
Ġs we
Ġp I
Ġd ro
Ġd ate
ul ti
id ated
Ġcomp ression
ĠP S
ĠD L
ĠH P
Ġun altered
lymph ocytes
pos ure
Ġantib acterial
ole m
Ġir respective
Ġbacter io
Ġcereb ellum
sta ge
Ġsero types
Ġleuc ocyte
Ġpharmac ok
Ġdegen erative
abo ut
Ġcyclo heximide
Ġdiges tive
Ġple ural
Ġillus trated
Ġpac ing
Ġenlar ged
B M
O T
c ian
Ġan n
ro g
ĠT BG
ine al
Ġv ic
ome ter
Ġimmun ogenic
Ġantigen icity
mo le
anti bodies
oid es
ob enz
Ġneur on
Ġaff erents
pre c
hyth mia
Ġschizophren ia
rox ys
p renolol
is ions
os oma
uc cess
Ġex h
pa g
Ġdeter gents
Ġar rangement
Ġsta tic
DP G
Ġsym me
Ġsex es
Ġmanif estation
Ġoes tradiol
Ġsch ool
ode oxy
ĠEn zyme
Ġalle les
Ġdiver tic
Ġtyph imurium
parag ine
Ġhandic apped
ĠDifferen ces
7 6
Ġs onic
Ġv ill
Ġanti tumor
Ġgen ital
sy nthe
Ġbacter ium
Ġcarb am
Ġsubc lass
chrom atic
Ġdrain age
Ġequip ment
Im mun
Ġgest ational
m as
Ġ xyl
os arcoma
Ġch osen
ĠS ur
ill s
Ġ7 9
Ġop i
Ġhydro cortisone
Ġsupp osed
Ġcharacter ize
Ġrespons ive
Ġbac illi
kin esia
Ġur idine
Ġ[ (
Ġpost operatively
Ġprob ability
ĠPro tein
Ġdex amethasone
Ġdissemin ated
i em
in ic
on ine
ra t
Ġre tain
ĠH untington
Ġcan d
Ġpl anning
Ġdep th
titu de
mit ochondrial
chol anthrene
Ġfil ms
Ġcri ter
Ġneed le
Ġantagon ism
Ġconstitu te
Ġsil ic
bl adder
Ġtrig ger
Ġset ting
Ġpreser vation
Ġcapill aries
0 6
M I
o active
en ching
ro tomy
Ġh osts
il st
ir teen
Ġper in
ĠH ydro
Ġrec ess
and ed
Ġmuc ous
Ġ197 0
sp ring
perim ental
Ġplasm ids
Ġprosthe sis
Ġgermin ation
Ġrup ture
ffe ine
N e
i ans
m M
re ed
al one
Ġth io
ll a
se ven
ĠD HA
Ġar c
Ġ8 4
Ġmuc us
co ated
Ġgel atin
chol es
Ġoxid oreductase
gluc osamine
Ġnar cotic
Ġcatab olism
Ġaddi tive
e ight
al as
Ġan k
oc ap
rom al
ĠM ar
ĠH uman
ĠB io
Ġfunction ally
phosph oglycerate
enzo ate
nit ol
18 7
urg ery
Ġresto ration
Ġau x
Ġquick ly
Ġscin tigra
icardi al
Ġcorp us
Ġinadequ ate
L e
l ight
p ly
Ġc rom
ra tories
id ing
Ġde form
ati te
Ġindic ative
Ġintra uterine
Ġend onuclease
Ġ13 1
otox icity
Ġdig ital
Ġaggreg ated
group s
ocyan in
Ġintraper itone
Ġinser tion
Ġcow s
Ġanastom osis
ithi othre
physe al
Ġsurviv ors
os ystem
Ġn M
im b
ot rophic
de g
mo id
Ġfe as
Ġfib rous
Ġpath ophys
rag ing
Ġquanti t
con trol
Ġ16 0
ĠCon trol
Ġsecre tions
Ġperox ide
Ġtit re
Ġmono phosphate
Ġsuppor ting
merc aptoethanol
Ġroset tes
Ġdiscre p
subs tituted
Ġmye lob
Ġaspi ration
ithiothre itol
c ens
r us
s a
s w
v ity
w ave
er b
Ġg yn
ut hen
ĠA D
yl ine
Ġen erg
ten e
ĠpH i
Ġop era
ram idal
ark inson
Ġasc ending
Ġoes trogen
Ġextensive ly
Ġfrac ture
Ġmuta genic
Ġelectrocardi ographic
Ġfill ing
Ġhypother mia
Ġerythemat osus
7 4
s tained
Ġc GMP
Ġm s
Ġf inally
Ġn a
ter ing
di astolic
Ġse e
Ġim idazole
ĠD acron
Ġso on
Ġpoly s
Ġsc iatic
Ġdam aged
ĠInc reased
Ġcaps ular
Ġultrastruc ture
Ġatm osp
p an
Ġan tiv
ro ton
ĠA KR
ĠC hem
ĠP ur
ĠH al
Ġund es
Ġthere after
Ġaut omatic
Ġaut onomic
oprotein s
Ġcent re
Ġstab ilized
Ġap ical
osyl transferase
Ġantic onvul
Ġang le
Ġjo ints
Ġpolymer ization
Ġdist ress
Ġtriglycer ide
odop sin
3 00
m ide
Ġe fficiently
ep ithelial
lic ation
ensi ties
Ġins ignificant
Ġmal formations
Ġprim ates
Ġaden oma
ĠAs pergillus
Ġfl at
till ation
Ġphosphoryl ated
Ġsw ine
ang u
tetra hydro
Ġsupernat ants
Ġfore ign
arter ial
Ġcoval ent
Ġdeterio ration
Ġeuth yroid
C I
h om
Ġb ull
ar rh
ĠC alc
ĠR el
ĠTh irty
ĠL ys
tin omycin
ron ic
cell a
yr yl
Ġte tro
Ġpolym ers
Ġana phylaxis
Ġaccompan ying
arter itis
Ġsafe ty
Ġmarg inal
Ġintraperitone ally
7 9
e te
v ice
Ġth irty
ph ilic
di rected
oc rit
Ġdis abled
Ġanti mic
Ġper turb
ess ation
ĠM C
Ġha zard
Ġall ergen
Ġsub mitted
ogen es
Ġcons tructed
Ġloc omotor
Ġace tone
Ġ14 0
Ġul tim
Ġdehydro gen
Ġreduc tions
Ġaccep table
Ġsubpop ulations
ocons triction
Ġjuven ile
N T
d ich
Ġin ver
Ġd an
Ġd ensities
ĠT ryp
ac c
oc ript
od s
ut ral
Ġse ts
Ġse arch
Ġus es
Ġco ver
Ġprotein uria
Ġall ergy
Ġmed ullary
Ġsurv iving
Ġana esthetized
Ġsero type
Ġfer mentation
ii i
Ġenti ty
Ġair way
Ġprincip les
reac tion
Ġpseud o
Ġdifficul ty
ocyan ate
Ġpyro phosphate
Ġchor ionic
uthen ium
ocript ine
o acetate
en tes
Ġp es
is opropyl
ĠC lin
duc ing
ĠP rop
ĠE G
Ġwhe at
Ġphen ytoin
rag ment
row th
arbo xyl
Ġnutri ent
Ġsedim ent
unc tiv
Ġmicrob ial
chlorophenyl alanine
L ys
o ration
s ible
t hen
ac rine
am ples
lu ding
tro lled
ĠP ost
ĠE nd
Ġun f
ĠR a
ĠG l
Ġsugges tion
Ġab ort
Ġneu ros
ethyl maleimide
Ġdiss olved
Ġhaem orrh
Ġdig oxin
Ġnecess ity
Ġris ks
Ġtrac hea
benz yl
Ġbreak s
Ġcrystal s
Ġcrystal line
Ġvul g
Ġlu tein
S tudies
v ular
v enty
in omycin
al th
ur ons
ĠP o
Ġmon ovalent
Ġsugges tive
ap se
orph ine
Ġtra dition
Ġprop ose
Ġlar gest
Ġpossess ing
ĠQ RS
but yl
Ġadhe rent
Ġavoid ance
Ġconnec tions
Ġald osterone
depend ence
Ġinteres ting
Ġaf lat
O ne
i op
t ary
Ġa eros
Ġc osts
Ġin p
le b
Ġe labo
Ġv ent
Ġse b
Ġcol onic
rel ations
Ġhyper cap
Ġaden ocarcinoma
Ġline arly
Ġsol v
Ġgon ococcal
Ġsqu irrel
fil tration
Ġcaud al
mor tem
Ġdefic it
gas tric
Ġemergen cy
Ġarachid onic
5 3
Ġ ip
on a
Ġp atch
al ing
es tions
an es
ter in
op eration
Ġanti psychotic
ĠS LE
ĠH CG
Ġgen erate
Ġacc id
ram ycin
Ġmal ate
Ġpa ired
Ġenh ances
Ġrese mble
Ġtrac er
Ġencephal itis
Ġflav in
Ġmacromolec ules
H P
O n
ul ase
Ġex pec
ĠP B
ĠP reliminary
ĠM O
ĠD BA
ost asis
ĠG en
Ġpl ants
Ġvir ion
Ġmicro M
Ġpa roxys
Ġpress or
oph ores
Ġte aching
Ġeff ort
Ġalter ing
Ġantic hol
bloc kers
ĠPC B
Ġhor iz
Ġsampl ing
Ġdepri vation
ibrill ar
E F
r ific
Ġp in
al ed
Ġbe g
Ġpro pag
Ġac ryl
ĠA A
Ġma p
Ġqu estions
art ments
la gen
Ġvas opressin
Ġtranspl ants
stim ulation
Ġsmo king
Ġhemo di
Ġcarbohyd rates
Ġinst ance
Ġfacilit ate
Ġhydrox ide
Ġimmunore active
ĠFre und
R F
d ine
f ace
m er
n ucle
Ġc u
Ġp up
om ing
ĠA S
Ġam ph
Ġrec over
ĠG ra
phy rin
Ġly tic
et ween
Ġcarcin ogen
Ġve h
ocyt oma
Ġprolong ation
Ġpersis tence
Ġalkal osis
lim iting
throm ycin
Ġanalges ia
part um
Ġfif th
onucleo tides
Ġrehabil itation
G H
G lu
Ġs atell
or ns
ar ginine
Ġe mo
th idine
ad one
Ġle ctin
vel en
ĠB esides
Ġprote oglycan
Ġelectroph ysiological
ines e
Ġchemical s
Ġoff spring
Ġpref erence
Ġnit ros
Ġcation ic
Ġcatheter ization
Ġsole us
Ġinteg rity
ĠTe tra
Ġemp ty
Ġcob alt
uccess ful
s table
Ġp en
er ing
if ty
tic ed
Ġex chan
bs iella
las es
ĠN ever
Ġpur poses
tribu tion
itu des
oplas m
In tra
Ġcle aved
et us
trans pl
Ġred ox
Ġpred is
Ġmedi ators
Ġcolla genase
Ġlabo ur
ĠUn ited
cal c
Ġthyro tropin
Ġaltern ate
Ġiod ide
Ġreproduc tive
Ġphag ocytic
arr hythmic
irradi ated
Ġphyto hemagglutinin
Ġcool ing
alas in
4 00
R ec
m embrane
Ġs ap
Ġc all
Ġc essation
Ġp enicill
Ġf us
ent gen
os ulf
ph il
ĠC I
Ġam en
Ġst roma
Ġar rest
phosph o
Ġcorrel ates
Ġcour ses
till ed
Ġelic it
Ġguan idine
Ġdeoxy cholate
Ġemphas is
Ġpap illary
Ġcommun ication
Ġsugar s
Ġsubcutaneous ly
Ġpreferen tial
Ġbuff ered
Ġverteb ral
alk yl
Ġmann ose
Ġstandardi zed
prec ipit
Ġantimic robial
u z
in ar
ic les
or ts
Ġe jection
Ġse ed
ĠP urified
de ple
tem p
Ġ9 3
Ġamin oglyc
Ġcalc ification
Ġphen oxybenzamine
Ġtub ule
Ġcondition ed
Ġrepresent ative
emb ry
Ġunderg one
Ġsep sis
Ġandro gens
Ġaccess ory
Ġatheros clerosis
ĠAmeric an
Ġabort us
ĠNever theless
" )
e v
ra ys
ul gen
Ġg hosts
Ġal bino
our ished
ĠG T
hydro genase
Ġqu enching
Ġend ocardi
Ġexhib iting
Ġris es
Ġdil u
esthe tics
omat osis
Ġpal mit
aff inity
ĠMA O
Ġcontracep tives
Ġaw a
Ġagg ressive
Ġrend ered
5 9
C ell
H R
Ġt on
re tory
Ġo d
at ology
Ġis omers
Ġas tro
yl transferase
Ġco vered
Ġpur ity
Ġins titu
Ġhom ology
Ġlab or
Ġgon ococci
ĠAnti bodies
Ġnic otine
grow th
Ġhydrox yp
oster ic
Ġmyof ib
Ġlym phatic
E q
w as
y ne
Ġb ones
Ġ( +/-
ig en
ĠI F
Ġwh ilst
Ġinc lusion
ad vanta
ĠP T
ĠP las
Ġtrans mitted
Ġk allikrein
ep tidase
Ġ8 1
Ġhis ti
Ġlip osomes
Ġmit ogens
Ġsl ides
Ġos s
Ġhel d
Ġlabo ratories
Ġrecogn ize
Ġbel ieve
ris k
ĠLe wis
Ġprojec t
ste p
Ġheteroz yg
c ons
v ision
ro genic
Ġbe ef
op tic
Ġcomp arisons
ĠP V
ĠP ara
ĠB leomycin
Ġmo ving
Ġdisc l
Ġbas ophils
Ġpara ffin
Ġmain taining
resp ond
chol inesterase
Ġmass es
Ġparalle led
Ġcathe psin
Ġhyal uronic
Ġtriglycer ides
Ġjejun um
Ġdimension s
Ġspor ulation
Ġcompr ised
Ġultracentr ifugation
9 8
b its
t ations
in cter
it rophenol
ar ith
ol ase
od al
ad in
Ġca ffeine
tin al
me tabol
Ġmed icine
Ġsc atter
Ġstruc turally
Ġur ic
othe rapeutic
Ġaut osomal
Ġperipher y
Ġemb edded
Ġmethyl ene
Ġprof ession
Ġbehaviour al
Ġrecons truction
py rene
othel ial
comp etitive
ĠSo dium
Ġbenzodiazep ines
enol pyruvate
Ġcriter ion
m ix
r one
u rop
Ġs ti
it ance
os itive
ĠC L
Ġsp ine
Ġpres umed
ĠE P
Ġform alin
Ġob taining
Ġop erating
Ġ9 1
Ġend s
Ġpoly ethylene
Ġtr in
oid al
aly zed
Ġrandom ized
ograph ical
chrom atin
Ġadhe sion
Ġvaccin es
Ġnewb orns
Ġpla ques
adreno ceptors
Ġfacilit ated
nucleo tidase
ĠDH EA
bre ak
Ġnal oxone
Ġconserv ative
Ġhered itary
8 2
E D
c utaneous
r ig
Ġh CG
Ġch ore
Ġal g
Ġcomp uted
Ġinc lusions
Ġsp ore
iz er
ĠIn ter
ĠB a
per m
ab bit
Ġtrans verse
Ġcol lic
Ġcol itis
tero id
Ġmicro f
Ġquanti tation
Ġfer tility
ĠUn like
Ġtend on
Ġarr hythmia
Ġchloro form
Ġcareful ly
Ġexcit atory
Ġexud ate
throp o
Ġrif amp
Ġorn ithine
ĠMyc obacterium
L eu
k y
w elve
Ġc ig
Ġd ithiothreitol
at ases
ĠC ro
Ġdis advanta
Ġen abled
ment al
Ġim age
Ġval inomycin
Ġmod ern
Ġout lined
och le
Ġery thromycin
Ġ13 0
Ġtri iodothyronine
ward s
19 75
Ġapplic able
lyce ro
Ġshor tened
Ġparticip ate
Ġhippocamp us
Ġprednis one
Ġandros tenedione
Ġcum ulative
0 7
L T
o phy
s en
im il
ere b
oc on
am el
Ġcom a
Ġse min
ĠS O
lec ted
ĠM in
ĠM od
Ġun labeled
The re
Ġop in
mon ophosphate
Ġdevelop s
ĠU p
Ġsc ans
Ġwor ld
Ġsple ens
Ġana erob
ophil ia
gra ph
Ġdisturb ed
Ġdimin ution
glyc ine
glutam ate
Ġvag otomy
Ġnet work
23 187
Ġresemb les
Ġidi otype
Ġethyl ene
Ġrecombin ant
Ġlib eration
Ġmonomer ic
Ġhypothyroid ism
h ym
in ol
Ġt ib
as tic
om imetic
am mon
ran ged
ĠH ill
hen e
ĠK inetic
Ġhyper plastic
ĠU pon
Ġax oplasmic
Ġhepat ocellular
Ġiso zymes
Ġneon ates
opera tivity
Ġdra matic
pi ratory
Ġillumin ation
ĠKle bsiella
j e
Ġp ineal
Ġg over
un e
Ġch olec
Ġch ief
Ġsp he
NA D
Ġma pping
Ġstr ips
Ġphen othiaz
app roximately
Ġlac ked
rolog ic
Ġbo y
Ġinfluenz ae
Ġesopha gus
Ġhen ce
9 2
I s
e ther
on ad
Ġo titis
Ġo edema
Ġs en
Ġin tral
is o
Ġm erc
im olar
am ental
ffec ts
ess ions
ĠL A
gn etic
Ġro entgen
ob lastic
ĠV al
ole ic
Ġtryp an
Ġana emia
Ġphot osynthe
Ġretro spective
Ġnorad renergic
Ġalloanti gens
Ġaneurys m
Ġisch aemic
Ġhydrocarb on
ĠJapan ese
Ġfavora ble
exis ting
Ġhyperther mia
Ġnormo tensive
Ġrecess ive
Ġantiv iral
D e
M B
a und
b lood
d t
e tal
t ant
Ã ¼
Ġin tub
Ġd omin
Ġac qu
Ġon to
min o
ĠH ence
ip er
ĠE D
ĠTh ose
Ġcl one
Ġmod ulation
Ġprim ing
ov is
Ġprote olysis
oglob ins
Ġfl ies
Ġnecess arily
Ġtole rant
inte g
Ġpub er
Ġdip loid
Ġwa velen
ometr ically
Ġgall bladder
Ġoccup ational
dal ton
Ġflo ra
Ġclot ting
Ġprotoc ol
entes is
ĠEG TA
E B
E V
R es
a ver
i rable
j ac
Ġb ag
ar um
Ġto lu
Ġcon ta
ac cin
di imide
Ġper iv
Ġpre natal
ĠH SV
Ġob ese
Ġro ots
Ġbi ologically
til ation
Ġprote oglycans
Ġgu ide
anc er
Ġexpres s
br id
ĠRes p
Ġconven ient
ĠPh ot
Ġpool s
Ġsup eroxide
Ġaz ide
Ġfung i
Ġendothel ium
Ġsynap ses
Ġtherm os
Ġneurotrans mitters
Ġcod ing
Ġelas tin
Ġdeoxyrib onucleic
Ġmonol ayer
Ġsph incter
Ġhapl otype
Ġsolv ents
) ]
P i
a res
Ġt onic
ul ator
Ġen co
Ġen ables
ĠP PD
ĠE MG
tin ction
Ġmy ocl
ures is
Ġdefin ition
oglyc ate
Ġmonit or
tryp tophan
Ġsac rific
fil aments
MT V
Ġthal amic
Ġallogra ft
Ġsalic ylate
Ġaeti ology
Ġvulg aris
P a
p ent
Ġw orm
ra me
Ġfor ward
Ġad oles
de termin
era ble
Ġun less
Ġr ule
Ġk ne
Ġmo uth
Ġinfec tivity
Ġaden omas
Ġconfir ms
Ġcoun ting
Ġconside rations
Ġrib oflavin
Ġrepl ace
Ġcompara tively
Ġdistinct ly
Ġke tone
Ġfall s
Ġgranul ocyte
ĠInc ubation
meth oxy
Ġlimit ations
ĠLi ke
Ġstaphyl ococcal
Ġoxal ate
Ġcros sed
Ġwid th
Ġunex pected
Ġanticonvul s
Ġcig are
d rug
r ystal
s ur
ti t
ra e
it ogenic
Ġis ocitrate
ĠS tra
Ġim pregn
ore tically
ĠE arly
Ġr icketts
ĠW or
Ġbi ologic
Ġhyper b
cop lasma
Ġover l
Ġpul p
Ġfail ures
Ġimpl icated
troph oretic
Ġpyr idine
Ġhr s
gan gl
Ġexp an
iform is
Ġgo at
Ġsymp ath
para tive
Ġchemo tactic
Ġradiolab eled
Ġassemb ly
Ġpes tic
u an
z er
Ġm ot
Ġal ive
ĠP hen
Ġinf ra
Ġall osteric
ap atite
tig mine
Ġinvestig ators
Ġep i
Ġcombin ing
Ġfil ters
Ġorigin ally
Ġchol inesterase
Ġequil ib
Ġsubstitu te
Ġsole ly
cereb ral
Ġhar ves
8 4
I O
I a
b orn
u ary
Ġm ell
Ġre ar
ta zol
am ate
ies is
onse qu
Ġro les
Ġtr un
co ag
Ġventric les
Ġhypothe ses
adi an
Ġpancre atitis
Ġolig omycin
ĠPC PA
carbo x
Ġthal amus
Ġelas tase
Ġmosquit oes
Ġdiaphrag m
deple ted
E lec
re ction
Ġin ability
Ġd ual
Ġm im
Ġex cep
ĠS S
ĠB iol
ĠB ru
ĠR em
Ġdep olar
pro te
Ġana phylactic
Ġke ep
Ġsitu ated
Ġexperi ences
Ġcarbon yl
ĠPh ys
Ġsarc olem
Ġemphas ize
Ġestablish ing
bu tamol
romy ces
Ġregis tered
agas trin
F ive
S everal
T RH
a im
Ġc ranial
al ton
Ġan ionic
Ġm ong
os um
um inal
th y
Ġv in
tra ct
op erated
Ġanti thrombin
vel s
we ed
Ġr ural
Ġgen ic
Ġgen us
Ġdi arrh
Ġsecond s
Ġguan osine
Ġhistochemical ly
hal f
Ġcerv ix
Ġsem en
Ġlas er
Ġlas ted
Ġhydroxyl ation
Ġinverse ly
Ġkin in
Ġketo acid
8 1
L D
m ut
z ation
en zym
Ġs ound
am il
Ġal b
ĠC er
iz ers
Ġim pos
Ġne igh
ĠM T
Ġph i
Ġspec tinomycin
ĠL ong
dy le
pro line
Ġphen otypes
ĠAn other
opath ies
Ġstri atal
Ġdeta ils
Ġbenef its
obacter ia
Ġfollic le
Ġgain ed
Ġcompens atory
Ġdoub t
Ġneutroph il
comple x
Ġfig ures
aran ces
iem sa
d ig
f l
g then
l ich
o h
he ma
re f
al ac
is is
le uk
Ġpro to
ĠA V
tu dy
ant oin
Ġhe ated
ĠD ifferent
ĠH C
ĠH em
ma ximal
Ġsub acute
mb er
Ġreg ulating
Ġout break
Ġexc lusion
cent rations
Ġhydroly tic
Ġana esthetic
last osis
lab ile
Ġultras onic
Ġindirect ly
obarb itone
Ġtrig g
Ġlapa rotomy
Ġhyal uronidase
Ġdendri tic
Ġmonos pecific
ĠSm all
Ġparad ox
8 3
F R
k ling
m olar
p red
Ġ zym
Ġt an
Ġthe rapeu
Ġf eces
or i
Ġre in
os tigmine
om ies
ac tion
di ab
Ġsp o
ĠM N
ĠM IF
ĠD R
ain ed
ĠE s
Ġall er
Ġser vice
Ġpar s
Ġpl ane
Ġgra y
Ġhist ones
titu te
Ġenh ancing
tamin ase
Ġsusp ended
Ġcompeti tively
but yrate
Ġangi ographic
Ġinser ted
olym er
Ġpas sed
inv asive
Ġadjus ted
F rom
d ers
it on
Ġf uc
Ġe jac
os pecific
Ġg m
th re
ac ing
ĠC S
ten olol
Ġidentif ying
Ġtri ple
inc ub
ĠHe alth
Ġinsu fficient
phenyl alanine
Ġestablish ment
ifferen tiated
Ġalle le
Ġoccasion al
ĠSt ates
phosphoryl ation
Ġcrom oglycate
Ġendocardi tis
h orm
Ġs orb
Ġc iliary
ro der
ce ment
ig enic
ĠC al
Ġdis ability
Ġinc on
ad es
Ġsh am
ore ceptors
si te
olog ist
olog ists
era zine
ĠF raction
ox o
amin obut
Ġgre w
Ġbi om
Ġhyper p
Ġprim er
con trolled
Ġloss es
Ġblock ers
Ġmat urity
Ġeff erent
Ġrespond ers
Ġweak er
roscop y
ĠSim ultaneous
Ġthick ening
Ġaccele ration
gu an
Ġbund les
Ġfund amental
Ġsubpop ulation
Ġheteroz ygous
Ġconges tive
Ġsummar ized
Ġhoriz ontal
H is
l ator
r ons
re hen
Ġan esthetic
ate ctomy
ĠT es
ac cha
ot ing
Ġcomp li
ĠC R
ĠC onsequ
ĠP MN
Ġco operative
Ġacid ity
Ġreac hes
Ġval idity
Ġes trogens
Ġqu ad
Ġover load
Ġpa rotid
li quid
Ġdel ine
Ġsl ide
Ġte le
Ġnod osa
Ġsimple x
Ġpsych otropic
Ġlig ament
Ġatr ium
Ġatr io
Ġprogram me
Ġampl itudes
olec ular
wh ich
Ġimmob ilization
aff in
Ġcaud ate
ĠMed ical
Ġremark ably
Ġcontin ue
ercur ib
Ġinher ited
Ġecon omic
Ġhypera c
Ġrelia bility
Ġautom ated
olub ilized
Ġquantit ated
Ġdehydrogen ases
embry onic
urop e
) --
P lasma
S er
Ġm osa
Ġm essen
tra ting
ĠC ul
ĠP D
ĠIn iti
iti dis
Ġr umen
ost omy
Ġinter n
Ġinter con
Ġassoci ations
be an
Ġace to
Ġly sed
fac tory
Ġstandard s
cyc l
Ġcataly zes
Ġhospital ized
yg dal
Ġderm al
Ġureth ral
Ġsharp ly
Ġclus ters
Ġbarb itu
ulti ple
Ġperin atal
Ġparoxys mal
g ic
i ence
w t
Ġo ct
os te
Ġh orn
Ġfor ces
op ulmonary
Ġad riamycin
ĠP F
ĠR ats
Ġob lig
Ġfraction al
Ġdiscus s
Ġmit ogenic
ĠCh inese
Ġdys kinesia
ĠInc reasing
ĠAddition al
Ġimmuno ads
prop yl
Ġlog arith
Ġasth matic
Ex periments
Ġrub ella
Ġdisrup ted
Ġsk ull
oprol ol
ĠMeasure ments
9 4
A S
C SF
p ath
Ġo t
Ġin ex
Ġf u
os al
Ġac ridine
ĠS yn
de methyl
Ġco operativity
ĠR T
Ġmon omers
ĠAn im
Ġhist opath
Ġremain der
Ġpul ses
Ġcr uz
sta tic
gluc uron
Ġdefin itive
Ġdil uted
Ġdim ers
gra phic
Ġprac tition
Ġbronch odi
ĠFe ulgen
hr lich
Ġreason able
Ġmuta gen
ĠMa ximum
pregn ant
romy osin
Ġinstrum ent
Ġamyloid osis
Ġtris omy
Ġapproxim ate
Ġpoison ing
Ġcruz i
g ue
ti ary
Ġh ip
Ġg ap
ir s
qu ine
ĠC omple
Ġun certain
Ġintra ocular
Ġmut ans
Ġpolym erases
Ġconjug ation
Ġcontamin ated
virus es
Ġinteg rated
Ġchloro phyll
Ġisot onic
Ġuniform ly
ĠSR BC
Ġtent atively
divid ual
ĠBo hr
ĠConsequ ently
) /
A C
K m
c AMP
k inetic
v a
ti amide
Ġs oci
Ġp at
Ġp uncture
Ġsp oro
pa ble
Ġrel ating
so ver
ĠL ip
Ġobs te
ond yl
Ġval id
Ġman gan
Ġman nitol
Ġdete c
Ġhyper thyroidism
Ġgra de
Ġj aund
rag ue
Ġmedi ator
Ġcri tically
Ġovar ies
Ġow ing
IA A
Ġinges ted
Ġtas ks
Ġhemorrh agic
rd U
Ġbenzodiazep ine
prim ed
Ġtradition al
m Tc
id one
oc ortical
se lective
orm ally
ĠH ep
ke y
ĠE v
ace tamide
Ġund ete
Ġcul tivated
Ġmar gin
Ġcyt ological
Ġmal aria
Ġinv asive
requ ency
rin ary
Ġprocess ed
Ġprecipit ating
Ġprecipit ates
Ġdistin ction
Ġstab ilization
uch sin
Ġap art
Ġgland ular
emb ran
Ġinj ured
Ġimp act
ili ac
prop ranolol
encephal ic
Ġisch aemia
Ġdendri tes
Ġproceed s
Ġlec ithin
oxyl in
+ +-
Ġs on
Ġw k
as c
Ġb in
Ġto oth
ul ous
Ġh yste
Ġcon tex
ys ed
ĠB r
ros ta
pl icated
Ġnormal s
kin je
Ġcharacteris ed
Ġcere vis
Ġblock er
Ġelimin ate
Ġbrom ocriptine
cardi a
Ġroutine ly
Ġring s
ĠSch iff
Ġexclu de
ĠCM L
Ġide a
Ġeluc idate
blast ine
Ġindus trial
Ġcompli ance
Ġcerevis iae
6 1
H ydro
H TP
b erg
s tic
t ine
Ġs essions
es tradiol
Ġf rame
tr iol
her ic
Ġat oms
ĠE hrlich
oph ysis
Ġcarcin ogens
troph ied
hyth ms
Ġacetyl cholinesterase
Ġmelan in
Ġrepeated ly
aryn g
ĠEn tero
Ġsegment al
Ġentero c
pig s
Ġreson ances
ĠApp roximately
Ġanomal ous
Ġphysic ochemical
Ġtetan us
Ġlutein izing
Ġantichol inergic
tazol amide
accha romyces
. /
T C
f ield
l orp
on ent
Ġs ut
Ġc ocaine
Ġn oc
om iting
Ġbe am
oc entesis
ĠC d
Ġle af
ĠM al
ĠH ig
ĠG c
Ġpl ayed
Ġinv asion
ĠV II
mic ro
Ġinflu encing
Ġsulf ur
Ġrepres sion
inf ection
verse ly
nit ine
Ġvisual ized
Ġsolub ilization
Ġfood s
Ġpredic t
Ġinfer tility
Ġopp ortun
quin oline
Ġaneurys ms
oderm al
Ġcarbox ymethyl
Ġparenchym a
ĠAfric an
Ġvege tative
Ġhypercap nia
ĠCro hn
. "
I H
T yr
w here
in ess
Ġan th
is teria
Ġf in
ar ial
ly ox
Ġde als
ĠS ubs
ch n
ĠD ia
per itoneal
Ġtrans form
Ġno ticed
ven tilation
ici ans
Ġu tero
Ġol factory
gluc osaminidase
orn avirus
Ġconj unctiv
Ġatr ia
oass ays
Ġasc ribed
Ġinterv iew
Ġsw im
Ġfav our
Ġundergo es
Ġ196 9
inhib ition
Ġcorrect ly
Ġhaemag glutination
Ġtight ly
Ġconcep ts
Ġexpan sion
Ġketoacid osis
d omen
n m
Ġbe ads
Ġac ros
Ġdis k
ĠE m
Ġr uthenium
ĠL ab
Ġam ygdal
Ġintra ventricular
Ġcent res
omes tic
Ġadj ust
Ġuns aturated
sulf atase
Ġpool ed
Ġrh in
Ġfamil ial
Ġregen erating
Ġevent ually
Ġmye loid
Ġfill ed
hydroxyp henyl
ymp an
Ġelong ation
Ġaccord ance
ĠBru cella
) :
9 3
c ape
n ight
on gest
Ġthe ta
Ġs uture
ro gen
Ġm ach
er vated
ul ence
Ġh ors
Ġcon v
tra ined
Ġat opic
Ġen rich
Ġad duc
lu ded
ĠE urope
ĠF irst
Ġtrans aminase
Ġmeth adone
ong ue
ie ving
Ġy r
Ġintra der
Ġstra tum
Ġbi otin
Ġbac tere
Ġery thropo
Ġter med
Ġorigin ating
Ġvesic ular
amino ethyl
Ġvisual ization
Ġoff ered
Ġthromb ocyt
olone y
Ġdihydro testosterone
Ġdiges ted
Ġsplit ting
lact ate
ĠEB V
Ġfluctu ations
Ġdiarrh oea
H b
M W
h igh
r ight
s ensitivity
Ġ %
in ities
Ġt roph
Ġp CO
Ġp mol
Ġp indolol
Ġin tim
Ġf ores
Ġanti arrhythmic
ĠS tr
Ġeffec tors
Ġcor n
Ġvir ulent
Ġprepa rative
ophil us
Ġprov oked
Ġpreven tive
Ġrevers ibly
Ġta uro
Ġpy rimidine
bloc k
Ġbr ight
Ġfo etus
tri phosphate
Ġvisc eral
Ġquin acrine
Ġdist ant
Ġseas on
Ġopin ion
hym ena
Ġmell itus
Ġvin blastine
8 6
H O
M O
M LC
b and
b anding
o ke
Ġ q
Ġc os
Ġb uc
Ġl ic
Ġl id
im otor
Ġg ases
tu in
ys tag
Ġen g
ĠS upp
Ġle ct
ĠB LM
ros y
Ġr hythms
ĠO s
ap ine
tis m
tis erum
Ġsupp lied
Ġend o
ither to
Ġcalc ulation
ĠEx tra
gra phy
Ġinduc ible
Ġgangl i
Ġprincip ally
Ġpent agastrin
Ġreser ve
Ġquestion na
Ġkera t
fib rin
Ġanalges ics
Ġstrepto kinase
Ġpu tative
sulph ate
unit razepam
Ġgir l
Ġpsor iasis
ĠDD T
H Cl
H RP
P B
n cies
r ong
Ġo phthal
Ġin herent
Ġb ig
is ition
it ated
at o
Ġh ouse
tr ically
ĠC omplete
yp eptidase
Ġsp ot
ure th
ĠB lue
ĠR o
ren ces
Ġass imil
Ġform ula
ĠG el
ne a
ast hen
Ġnon c
Ġhyper tonic
Ġmal t
och rom
Ġdos ages
Ġsequ el
Ġdepend ency
Ġcentr ifug
Ġcompos itions
Ġmedi as
Ġneutral izing
ĠAc tivity
ĠAnti body
ik es
ĠSta tis
opa usal
Ġglob ulins
Ġ(- )-
Ġmyof ibrillar
Ġimpul se
Ġcomplain ts
Ġgraf ting
L PS
T NP
Ġt ip
en chym
Ġc ef
Ġm ercur
an ing
ul inemia
un ted
il ine
Ġex tinction
Ġra ting
Ġme tiamide
Ġcomp rising
ĠIn d
Ġhyp ophys
ĠG M
tab ly
Ġval ine
Ġval vular
Ġocc as
Ġphosph ates
Ġab domen
Ġdem and
tero ides
occ i
Ġ197 8
Ġimpl ies
Ġimpl ants
Ġaccoun ts
Ġreflex es
Ġcontribu ted
Ġbul b
Ġcorticostero id
Ġstaphyl ococci
Ġechocardi ography
ĠPe ak
Ġfaecal is
Ġaflat oxin
Ġmessen ger
Ġcontex t
Ġlect ins
E T
L P
W ith
b an
f r
t ases
Ġm ent
Ġm Eq
Ġre ad
ec tions
ĠT rich
Ġg ing
ac he
Ġpro pos
tra umatic
tr ig
ab dominal
cy te
ox amine
ĠO x
Ġdep ressive
Ġcons triction
Ġintra gastric
Ġcal or
Ġover come
ick el
Ġsymptom atology
Ġexpl ants
Ġmedi ate
Ġprot oplas
def ined
Ġencephal omyelitis
Ġidi otypic
mat ched
Ġelectrocardi ogram
Ġelectroly tes
Ġcros sover
ĠQu antitative
Ġcollic ulus
Ġmot one
C PA
S ome
o ta
in ate
en ten
Ġc ypro
Ġan te
Ġb rown
er ved
ent anyl
at tered
Ġch oro
op es
op eroxidase
yl ated
ĠTh at
ox ia
ĠG S
Ġdi verse
erg ed
ens ory
anti le
ardi ac
Ġbacter iological
Ġele vations
Ġmaxim ally
Ġsal butamol
Ġoxygen ation
Ġmedi ating
Ġshort ly
ĠCon versely
Ġadj un
Ġaggreg ate
Ġmor ning
Ġmetal s
chrom at
ĠGA T
ĠPre vious
reac tions
Ġcircum f
ĠMa ximal
Ġmill ion
Ġdiscontinu ed
Ġtransm embrane
Ġuncom plicated
Ġcytoch romes
Ġpyridox al
Ġintub ation
Ġimpos sible
Ġhors es
f uc
o ti
v ar
Ġt ons
Ġc ochle
Ġd omestic
Ġm ating
an al
ar tic
th ird
ac erb
Ġex tr
ĠM an
ip ital
ogen e
ĠO H
Ġar ticular
Ġindic ators
Ġcol lo
ap eptide
Ġmod es
mo dium
Ġmy oglobin
Ġred is
Ġpregn enolone
line ar
ump s
Ġdys plasia
Ġprac tic
Ġenzymatic ally
Ġiso zyme
Ġver tical
Ġphospho enolpyruvate
Ġexplo red
onucleo tide
Ġasymme tric
Ġsynerg istic
rist ine
sal ic
Ġglucuron ide
ĠSec ond
Ġemul sion
Ġhemisphe re
Ġsatell ite
a ortic
ing ly
Ġh ol
ĠT est
ere ns
ine tics
il t
ati dyle
Ġal i
Ġwh y
ĠS era
ĠS timulation
ĠP rol
Ġeffec ted
ign ant
Ġrel atives
Ġar ranged
av ail
Ġhyper trophied
Ġaden ovirus
Ġdifferenti ating
Th irty
Ġolig o
spec ies
Ġvaccin ated
Ġpel let
Ġventil atory
Ġaug mentation
lat ation
Ġlipoprotein s
Ġcommerc ially
Ġcod ed
Ġbrady kinin
Ġgir ls
Pre vious
Ġdehyd ration
Ġemo tional
etal ol
Ġconta cts
H IAA
P V
c NAc
e le
f usal
Ġa tenolol
en sis
Ġan tin
ul as
ul ed
Ġcon ce
Ġv omiting
ell ae
Ġen de
el ing
Ġmic rop
pl er
Ġno vo
Ġdi uretic
Ġop ening
Ġexc ised
Ġter tiary
methyl cholanthrene
Ġlate ncies
Ġpneum ococci
bic ans
Ġconstitu ent
Ġoes opha
Ġbal anced
aw ley
Ġcryp t
Ġtrim ester
Ġserolog ic
Ġmonol ayers
Ġbrady cardia
Ġdro pped
. --
9 1
P I
S ch
c g
n ormally
o bs
Ġt s
Ġs ides
al anyl
Ġd alton
Ġm er
Ġh itherto
if erative
ĠC ross
ich oic
ĠP rim
ĠD rug
ĠB l
ĠB SA
ten s
Ġrec ru
ĠG as
Ġcomple tion
Ġdi phosphate
Ġgra ded
Ġgluc osamine
tif ication
Ġmit osis
Ġmean ing
Ġaff inities
Ġgene rations
12 0
Ġdiagnos es
Ġhetero chromatin
Ġlin ing
Ġsto res
Ġmes h
Ġvag al
197 6
Ġstrept ococcal
Ġrest ore
Ġentero toxin
Ġlib erated
Ġchlorop last
ĠSH R
ĠSo uth
nitros amine
Ġjejun al
chlor ic
Ġoutp atient
LI SA
Ġantidepress ants
Ġconvul sions
Ġbacterio phage
Ġscintigra phy
ĠTryp an
Ġchore a
N G
d uoden
t w
t otal
u ly
w ing
y lyl
Ġs ense
is tent
is sive
ol ig
oc ation
se p
Ġex acerb
Ġcom b
ia bly
Ġper ik
up er
ĠH y
ĠN R
Ġinf requ
oth al
tim um
ome thyl
Ġhyp og
Ġreg ulate
oci ation
Ġfac ts
omy ce
Ġhydro lases
ici an
Ġradi us
ple en
ard s
Ġloc ally
ild ren
ob ium
Ġcalc itonin
cent ration
hes es
Ġnec rop
glutin ating
Ġtermin ated
Ġdefici encies
Ġlys ates
po lym
den se
Ġstar ved
Ġsep tic
Ġreproduc ibility
Ġdeli ver
Ġencephal itogenic
Ġethyl enediamine
Ġunderst ood
Ġdisper sed
Ġulce rative
Ġlep rosy
Ġkary otype
mar row
andro st
ammon ium
ercurib enzoate
Ġmosa ic
Ġjaund ice
T SH
n em
s ate
Ġt ongue
en al
er yl
ec retory
id ases
Ġwas h
Ġ( +)-
ir on
Ġal bicans
ĠC N
ĠC s
ĠS RS
ĠM IC
ke phal
ĠF orm
ĠR inger
ĠO ut
ĠO bs
Ġro utes
Ġchrom atid
Ġelectro static
trans formed
Ġmix ing
Ġprob es
Ġmac a
Ġcirc uit
Ġeff orts
Ġbronch i
Ġdev ised
Ġanat omy
uma rol
Ġphysi ology
Ġdefic its
Ġspectrophot ometric
Ġcura tive
Ġantihis tamin
Ġprogen y
Ġoval bumin
Ġhydroxyp roline
diab etic
atidyle thanolamine
B F
p in
al d
Ġf en
an esthetized
Ġh ot
Ġl ies
ati le
Ġsp her
Ġsp ikes
Ġactiv ators
Ġad d
de ed
Ġun infected
Ġprotein ases
ĠL y
Ġdes ensitization
Ġcol our
Ġdifferent ly
Ġend oscopic
Ġins tability
Ġmicro electro
Ġele ven
hyd rate
Ġhy aline
olip ids
Ġtransi tions
Ġexis ted
ĠPA H
Ġster ile
Ġcatal ysis
lim ited
Ġwound s
Ġnig ra
Ġcond ensation
.. .
Ġatrio ventricular
Ġperik ary
, "
D R
p ing
Ġp ili
ra s
Ġth yl
om ata
ur n
Ġde aminase
tra tions
ĠC ar
Ġle th
00 00
ip henyl
Ġimmun ogenicity
ox an
ach ol
cle rotic
Ġelectro chemical
ind ane
Ġcarcin ogenesis
Ġindivid ually
inc ristine
Ġcontinu ing
Ġmalign ancies
Ġmet oprolol
Ġperox idation
Ġimp ed
Ġseroton ergic
Ġthyro toxic
idin ium
iaz ol
Ġcortic osterone
Ġrheum atic
Ġexplo ration
Ġapprec iably
Ġcateg ory
Ġlam bs
Ġonc ornavirus
Ġstrand s
Ġincre ment
Ġaber rations
ĠGluc ose
Ġmicrov illi
ĠTetra hymena
e al
Ġan sw
Ġf ati
ing omyel
ec l
id yl
om aly
ur y
Ġpro ges
Ġac ous
Ġde methyl
oc ated
ys es
Ġne g
ĠM oloney
Ġinf antile
Ġk il
Ġdec ision
ĠG lu
tin ence
Ġdep artment
Ġgl auc
Ġpoten cies
ind ole
Ġphen olic
Ġmit omycin
Ġax ial
Ġemb olism
Ġden ervated
Ġtw itch
Ġhex okinase
Ġsel en
ĠCom bin
Ġconfirm ing
Ġbiosynthe tic
Ġfresh ly
nucleo tide
ĠPa CO
Ġmacromolec ular
Ġdele tion
Ġinher itance
Ġaeros ol
Ġacryl amide
Ġmim ic
Ġgenic ulate
incub ated
P HA
f ast
Ġf loc
ul o
Ġn am
Ġac ted
tic les
Ġcomp rehen
Ġen amel
Ġinc ision
Ġtre mor
ĠF ib
pha ges
Ġsim ian
Ġdi ph
Ġmembran ous
Ġextra c
Ġinfec tive
Ġcat ara
act ant
occ us
Ġmaxim a
ĠRNA s
trans f
Ġsubstan tia
Ġcarbo xy
Ġfer til
Ġmes enchym
Ġrepe at
Ġglomer uli
Ġprom ising
dimethyl benz
encephal on
Ġarteri ography
Al though
osid ases
Ġreinfor cement
Ġcad mium
Ġimmunoprecipit ation
Ġstoichi ometry
Ġinsec tic
ĠPur kinje
8 7
H z
t ocin
Ġs hed
Ġp yl
Ġan tac
Ġan omaly
es tern
Ġd yne
Ġf ecal
ol ation
Ġac tually
oc ine
ĠA us
Ġex ceeding
lo re
lec tion
Ġha pt
oth i
Ġtrans lation
ĠTh y
Ġhyp oglyce
ĠL ac
Ġcaus ative
Ġdef erens
Ġcomplex ity
ob lasts
Ġmuc in
Ġresult ant
tera ses
Ġnod ular
Ġcataly ze
Ġdispl aced
luores cence
Ġcorne a
Ġpower ful
ĠSp rague
ĠCF U
dia gn
Ġallogra fts
Ġpate ncy
Ġsib lings
cat alyzed
Ġstrict ly
eli ac
Ġoccas ions
6 00
b i
i ratory
p ul
s ue
u ate
Ġc ured
Ġb ath
Ġre ading
ta zone
Ġbe ar
am isole
tro pic
ĠM o
Ġsub fraction
ill ance
erg ide
Ġmod al
Ġequ ival
Ġhand ling
atin um
ef ici
Ġlen gths
Ġpharmac ologic
mol ality
but olol
Ġveloc ities
Ġexten d
hydrox ys
Ġyiel ding
Ġcytos tatic
Ġpec tor
Ġchamb ers
Ġperson nel
Ar g
Ġhyperg lyce
lactam ase
pan ze
A t
V al
b ec
z id
is omer
Ġm ere
ac ids
Ġis ometric
if teen
Ġres orption
Ġra phe
Ġme romyosin
igh teen
ĠP res
ĠP CA
las ting
ĠM r
ĠM orph
ĠM ethyl
ĠF ri
ater nary
ĠG rowth
Ġdeg ran
Ġprev ail
Ġfir m
Ġsc attered
ĠV irus
oplas ty
Ġperform ing
Ġ11 1
12 10
Ġincreasing ly
Ġinner vated
Ġmetast asis
ĠStrept omyces
Ġstere otyp
Ġautoradi ographic
load ed
Ġhapl otypes
ĠDi rect
cys teine
Ġuncom mon
ĠIns titute
Ġburs ts
ĠAbs orption
Ġexh aus
Ġaccid ents
' .
P er
b ands
l ers
Ġthe rap
Ġw arm
us p
Ġn ickel
ol ateral
ur b
Ġde ad
Ġas cer
Ġat om
Ġdis tilled
Ġle aving
ĠP arkinson
ĠIn te
ĠB u
ĠE F
Ġimmun izing
ĠG re
ĠG iemsa
Ġes cape
Ġstra ight
Ġfib ros
Ġcyt osine
Ġamin opeptidase
Ġace tazolamide
oxy gen
Ġpig e
Ġpep tic
Ġfrag ilis
Ġemb ol
Ġregard s
galact ose
tetra cycline
Ġcrystal l
Ġaz o
Ġpow der
diazep oxide
Ġprosthe tic
stra in
Ġflas h
ostr idium
Ġros tral
graph s
Ġacqu isition
Ġenrich ment
Ġthyl ak
D awley
a i
c ortic
x ide
ti sed
Ġto bac
Ġv ig
ĠA ctin
op pler
yl on
Ġdis integ
ous ly
Ġim ages
ĠB etween
Ġun responsive
Ġrel ate
Ġser ves
Ġobs c
ep s
Ġam ide
Ġcol loid
ĠK re
Ġflu razepam
pro l
Ġneu rologic
Ġion ized
Ġpercent ages
ĠJ an
Ġwhere by
Ġimp ly
Ġuns uccessful
acy tidine
Ġneph ritis
Ġbran ched
Ġadequ ately
Ġamni ocentesis
Ġthi amine
Ġtuberc ulin
Ġimmuno hist
Ġaccess ible
Ġcephal ospor
ĠEA E
ĠOp timal
Ġmycel ium
C om
M uLV
N ine
O f
n am
Ġa vid
on us
en ec
Ġs a
Ġf um
Ġto l
Ġas ial
Ġra ise
lu ent
ĠM it
si ties
Ġun cle
ĠL C
ĠG C
Ġsim ply
Ġdise ased
tid yl
Ġcontra s
ise ase
eral dehyde
Ġlim bs
Ġappear ing
Ġlo ose
ĠAd en
Ġtur b
Ġmes ang
Ġdimin ish
Ġscre ened
atisfac tory
Ġexer ts
Ġpolymorph ism
Ġrect um
Ġpromo te
Ġsubgroup s
ĠTP N
rosta gland
2 50
8 9
E E
P E
b ies
i ter
m uc
Ġc ot
ar se
di one
gen es
ĠB A
ĠN S
de hyd
to bac
Ġun equ
end othelial
Ġcy toph
Ġmon oxide
ace ous
me ter
ery thro
Ġcons umed
Ġro ds
ĠK M
Ġperiod ontal
Ġequ imolar
ĠCa Cl
val ent
Ġ24 0
Ġlim itation
Ġcarb onate
raz osin
Ġalcohol s
ĠAnti sera
hydrox yd
197 4
Ġer up
Ġfung us
Ġmucopoly saccharide
Ġeduc ational
Ġide al
Ġped iatric
Ġhippocamp al
romat osis
chlo rom
Ġmultipl ication
Ġfel ine
ystag mus
G L
z ary
he ad
Ġs at
Ġs ister
Ġb ud
od ys
ran ul
ĠIn di
ĠR F
Ġno tice
Ġmod if
Ġpresent ly
iden tical
ob i
Ġarter itis
Ġhist opathological
Ġelectroph oretically
of lu
Ġmethyl ation
Ġbil ayer
Ġdil ated
Ġcapa bility
Ġreflec ting
Ġovar i
197 3
Ġpalli ation
Ġcompens ation
subs trate
Ġloop s
reduc tion
Ġcoll ateral
Ġglucocortic oid
iflu oro
Ġmyelob lastosis
A b
F ig
G roup
L S
M ethyl
Ġp olic
ed ial
om uc
ur nal
se e
od on
od ed
od ic
ys ergide
Ġ2 000
so dium
Ġab rup
Ġvir ulence
ĠV I
Ġhis to
az a
Ġbec oming
co al
gram s
titu des
Ġsym b
Ġorgan ized
Ġven a
ĠComp ound
reac ted
ĠAr r
glutamyl transferase
Ġcyan ogen
Ġtrop onin
syst olic
Ġord inary
oy ant
ĠProp ranolol
Ġdiscl osed
Ġkne e
Ġtrigg ered
ĠAnim als
I B
M ic
b a
f ragment
i ra
l ambda
t tes
Ġd ust
Ġm om
Ġf entanyl
or ide
ph th
uc l
Ġfor ty
ow s
Ġon t
ĠS urgical
Ġle aves
ri um
ĠB ur
ĠB rdU
Ġall otype
Ġab normally
Ġfac ilities
Ġover la
Ġhep atectomy
Ġchron otropic
hyd antoin
ĠMg ATP
Ġel se
Ġneuro phys
inc luding
rob enz
Ġlar val
Ġtrac ts
Ġiod o
Ġdial y
otin ic
Ġvaccin ia
Ġfung al
ĠBi ochem
Ġrub rum
Ġureth ra
Ġdevi ations
respons iveness
irc ulation
Ġprednis olone
Ġoligos accharides
yclo hexyl
choles terol
Ġgyn ec
+ ),
E n
c lass
d ent
d ensity
m ouse
t op
Ġp O
Ġw ool
Ġ( =
Ġac ceptors
ĠI X
Ġcom e
red oxin
Ġsp asm
ĠM or
el an
si ves
olog ies
ĠL arge
ost at
Ġreg urg
Ġstr ip
Ġcaus al
Ġelectr onic
Ġincub ating
Ġcirc adian
Ġremo ving
Ġcapac ities
Ġeff usion
Ġdistin ctive
Ġimpl ant
Ġtw in
Ġmusc ul
ĠEx amination
Ġmid brain
Ġauto antibodies
rous al
ĠCl ostridium
Ġanat omic
nitros o
Ġscle roder
Ġantidepress ant
Ġendometr ial
Ġveh icle
Ġexchan ges
temp ts
Ġtobac co
ĠKre bs
Ġabrup t
c nem
e g
g ar
o rough
p ensive
u rations
y anide
en riched
Ġb esides
Ġd educ
im ent
Ġra m
Ġat res
Ġdis odium
ĠS K
ĠP M
las toid
ĠH R
ĠL isteria
Ġphosph atases
Ġmy x
Ġmy asthen
iden tified
Ġarter io
Ġmicroscop ically
Ġ13 3
Ġcere us
Ġvari ance
Ġneuro blast
ĠCh ronic
Ġx anthine
Ġnitro us
Ġnitro genase
Ġfer ro
Ġdil ute
Ġemplo y
Ġabol ish
ĠRec ent
Ġtransf usions
Ġtherm odynamic
Ġara bin
ĠHyp er
Ġmob ilities
stre am
atura se
ĠProte us
arboxyl ic
Ġoverl ap
Ġmangan ese
ĠTrypan osoma
0 9
U n
n or
n otic
p al
p ulmonary
s im
s aturated
ol in
il ia
Ġsp iral
ĠS accharomyces
ore al
ĠM uLV
ĠN ig
Ġspec ially
ct al
ren in
Ġsub types
Ġvar ic
Ġmed ic
Ġ8 00
Ġop ac
Ġend oc
Ġur tic
Ġamino acyl
Ġphys ically
anc re
immun ized
ipher al
Ġhaem odi
Ġeff usions
Ġlys yl
ĠCon tra
tus sis
Ġchem otherapeutic
Ġprost heses
Ġinoc ulum
spec tively
glutam ic
Ġdex tro
Ġdip henyl
Ġmucos ubs
his tidine
Ġinteg ration
ĠApp arent
aus cher
men opausal
Ġdepress ant
Ġparenchym al
hep ta
Ġleak age
Ġundes c
Ġenco u
Ġlid ocaine
Ġdyne in
- .
M acaca
s ystem
on ge
Ġc am
Ġc yl
Ġin n
er ge
an table
ar ma
ĠT um
Ġpro xim
ĠI C
ĠC r
ĠS ero
lo ra
ri or
ĠM acaca
ĠF AD
ĠG SH
Ġso ught
Ġloc ations
anti gens
Ġsm ear
Ġsc ien
ĠV ari
Ġequ als
tif ic
Ġconf lic
Ġcarcin o
Ġimpro ving
Ġtri ed
Ġneuro fib
Ġcarb enicillin
Ġos mium
Ġutil ize
Ġlin oleic
Ġbre ed
Ġbre eding
Ġheav ily
Ġspecial ized
onia zid
Ġvolun tary
Ġ196 8
lim b
Ġmeta chromatic
ĠBe fore
Ġcoord ination
Ġchim panze
ĠSC E
ĠSubsequ ent
Ġhemodi alysis
Ġrifamp icin
Ġphotosynthe tic
kephal in
Ġacous tic
0 25
d ys
i ens
x ia
Ġ <
er ule
im id
im idazole
Ġch alone
Ġcomp act
Ġcomp artments
Ġdis position
Ġsp ondyl
ĠH S
ary otic
ros al
pa ran
Ġtran quil
ĠR ed
Ġform ulation
Ġimmun oelec
Ġind ole
ĠG erm
pres sive
oly sin
Ġsurf actant
Ġstimul ant
Ġsulf ated
Ġfail s
Ġerythro id
Ġcarb achol
Ġorigin ate
arin ic
eth op
Ġcathe ters
Ġgonad otroph
Ġpel vis
Ġsurround ed
zol ium
Ġaryl sulfatase
angi ography
Ġdisper sion
Ġpan el
ĠReduc tion
Ġcand id
Ġdilu tions
Ġanticonvuls ant
B B
y rosine
Ġt ympan
or ib
an oic
at ta
at ous
at ching
id is
ol ate
Ġcon formations
Ġcon idia
th in
Ġen able
ĠS F
ĠH o
Ġus ers
hen ius
ĠF ree
ocy c
Ġam orph
Ġmon ocyt
Ġmo ieties
ogra p
Ġqu aternary
ĠDNA s
Ġcontra ind
Ġshould er
Ġradio iod
Ġsuper im
Ġla w
Ġmat hema
Ġantagon istic
Ġsecre te
oz ide
Ġher ni
Ġpredic tive
Ġrecur rences
Ġconsequ ently
ĠBac teroides
Ġcaps ules
Ġpass ages
ipp le
Ġclon ed
Ġcompe tence
Ġdistinguish able
Ġec z
ameth onium
brom o
Ġobvious ly
Ġulce ration
Ġrig id
atura ting
syn aptic
Ġatmosp here
ĠRem oval
Ġundete ctable
Ġbactere mia
Ġtauro cholate
b ased
Ġ ;
Ġan ten
Ġan tral
as ia
it ting
Ġf inger
Ġl aryngeal
Ġ( [
Ġpro of
di phosphate
am n
ys tole
Ġim aging
ĠP TH
ĠM us
Ġrec all
ĠG lyc
iss ue
Ġphosph atidylethanolamine
Ġman u
rel ation
Ġradi ographs
loc k
Ġcalc ulations
Ġappe arances
Ġte am
Ġimpro vements
Ġclass ic
Ġbu oyant
Ġpsych omotor
Ġear lies
Ġsynthes izing
Ġdev ices
Ġtrac he
idi otypic
Ig E
Ġlob es
Ġalkyl ation
Ġflux es
Ġuro kinase
col lagen
Ġimmunop eroxidase
Ġmaln ourished
Ġdiscrimin ate
Ġascorb ate
Ġthre onine
ĠFac tor
Ġgr ise
Ġfeas ible
Ġmyofib rils
Ġdisadvanta ges
Ġsacrific ed
Ġsequel ae
Ġment ally
Ġspher ical
Ġascer tained
cnem ius
B T
C EA
M et
Ġt el
Ġt ax
ti ation
Ġin osine
Ġan esthetics
Ġh ous
ve rage
Ġn ude
Ġl is
ce u
Ġv ocal
Ġen tered
ĠS r
ĠP he
Ġapp lying
pl ates
Ġcl aim
Ġst ated
Ġst ones
Ġtim ing
Ġdem yel
til b
pres sed
ardi ve
tur ition
Ġmul tic
Ġure mic
Ġprolif erating
ime try
Ġcoup les
cyt oplasmic
Ġdefinite ly
Ġtable t
ou abain
Ġcatab olic
ymp athetic
Ġtric yclic
stre pt
aned iol
Ġsurge on
Ġmanip ulation
Ġoscill ations
DO PA
Ġextrem ities
Ġfilament ous
Ġopi ate
Ġbeg ins
Ġhyperac tivity
Ġinex pensive
Ġmercur y
avail ability
Ġglauc oma
arma ceu
Ġearlies t
9 7
c re
v ival
as part
Ġm iss
an um
Ġre app
Ġre jected
Ġn ylon
ac ting
ut yryl
ĠA F
ĠI U
Ġch icks
Ġdis tor
Ġdis mut
ĠM c
Ġno te
ĠL SD
Ġgl i
rop rus
Ġmod est
ens it
Ġnucle olar
Ġcontra cted
requ is
Ġsmall est
oplas min
Ġelectr ically
In c
Ġneuro genic
Ġcoun try
Ġtw ins
Ġpain ful
Ġoes ophageal
Ġhypox anthine
cardi ac
hex ane
Ġpreval ent
icol l
carbo xyl
Ġpene trate
Ġpate nt
Ġsoy bean
Ġscatter ing
Ġparadox ical
chn oid
Ġmalt ose
Ġdiph ther
enec id
Ġmonocyt ogenes
G VH
g ulation
es ity
Ġb olus
Ġth aw
Ġg alac
am an
ĠA mino
Ġra ising
Ġme iotic
ad ap
Ġper cutaneous
ĠP ositive
ĠM ultiple
el le
Ġtrans l
Ġgroup ed
our se
ara te
Ġimmun otherapy
ĠL ight
Ġobser ve
Ġ10 4
Ġar sen
Ġtyp ed
Ġnucle oli
alu ation
Ġ11 5
ave rage
Ġhy alin
omer ic
Ġinduc er
Ġmig rated
Ġcre ated
Ġphospho hydrolase
Ġmening itidis
mus cle
Ġconfirm ation
diaz epam
Ġmeta phase
carbo diimide
ĠLi ver
Ġdri ed
Ġdoub led
Ġord ered
fe eding
bor ne
Ġjus tif
Ġdomain s
Ġpharmacok inetic
Ġaminoglyc oside
Ġredis tribution
Ġhapt oglobin
hydroxyd opamine
Ġmathema tical
m id
y x
Ġt or
Ġt un
Ġb athing
an tagon
Ġre fer
Ġe min
Ġn ystagmus
ĠT ri
Ġth orough
om o
im ozide
un ts
if t
Ġv oid
og ether
ĠS G
ĠS he
Ġim mers
Ġpre med
ĠN K
ĠN GF
si an
to tic
Ġpar alysis
ĠL ocal
Ġgl n
Ġlymph ocyt
Ġelectro encephal
Ġrespec ts
ĠV H
Ġage ing
Ġamoun ted
Ġcle ft
Ġlocal isation
Ġtra umatic
Ġslow ing
ĠAs c
25 8
Ġrib onucle
Ġmig rating
Ġher nia
Ġbar ium
Ġpal m
Ġfore brain
deoxy uridine
Ġdri ven
Ġeosin ophils
Ġtrop omyosin
ĠBe ta
Ġcas trated
Ġclus ter
Ġexcit ability
ĠAfric a
Ġstabil izing
Ġimpul ses
Ġanticoag ulant
Ġpuber ty
A N
H igh
M eth
d otoxin
p rising
r s
x iety
te g
Ġin ositol
Ġw inter
an amycin
id ae
Ġn ose
ĠT N
im al
ir y
ff ic
ĠS tudy
ess ary
ch nic
ĠM ay
ure tics
ĠR hesus
all ergic
Ġinter relations
Ġli ter
Ġdes aturase
Ġcol os
Ġmod ifying
Ġman dibular
Ġinvestig ating
Ġequ ine
Ġiniti ate
ress or
Ġacute ly
Ġtra it
Ġresid ents
rose mide
aly tic
ĠAs p
Ġfl ap
Ġrib onucleic
Ġinten sities
Ġreview s
Ġtransi tional
Ġpsych otic
mal ignant
atis f
Ġfav or
Ġconstitu tive
Ġads orb
Ġinfar ct
effec t
TH C
Ġrecons titution
Ġinterfer ing
Ġobjec t
BG G
Ġpol len
Ġstriking ly
anil ide
ĠACh E
Ġlymphob lastic
Ġsynapt osomes
ĠRep e
Ġdecom position
Ġrepro duction
ompe tence
struc tural
ĠPlas modium
ĠEntero bacter
Ġquestionna ire
Ġnecrop sy
Ġuncle ar
ĠArr henius
Ġatres ia
Ġneuroblast oma
Ġamorph ous
c ase
u ation
Ġt ree
Ġp razosin
ĠT ak
di phosphoglycerate
Ġfor ced
am idase
ĠC C
Ġinc ons
Ġactiv ates
lo on
ĠM ice
ĠIn jection
era ture
Ġsub normal
Ġmeth ysergide
ĠG ene
Ġar ms
Ġgen otype
Ġinto le
ici ally
orp tive
Ġsensi tizing
xy gen
val ues
ĠAl pha
orpo ration
Ġadv ance
Ġlact ation
ĠFor ty
Ġsed ation
Ġsusp ic
Ġren der
Ġderm is
tetra acetic
Ġdiame ters
Ġcatal ep
Ġcontrib uting
Ġanx i
my el
Ġrun ning
hist one
Ġrough ly
Ġrecommend ations
Ġpresc ribed
lite al
Ġempty ing
ĠCer tain
Ġaller gens
Ġsorb itol
Ġregurg itation
roprus side
d iss
f oc
Ġn ational
Ġv ibration
rom ycin
am y
il izing
ran k
Ġsp ring
Ġsp lan
Ġper tussis
ĠS to
ĠS ystem
Ġim ipramine
ĠD oppler
per me
Ġar ri
Ġdi urnal
Ġop son
Ġro dents
Ġexamin ing
Ġsc ales
az am
ord s
Ġsequ entially
Ġcereb ro
Ġdiss ection
Ġos molality
Ġdig it
Ġacetyl transferase
plas ma
Ġke tamine
Ġtetra hydro
ora x
Ġair ways
Ġconstitu ted
Ġsurve illance
chym otrypsin
Ġjunction al
Ġdistinguish ing
Ġfif ty
Ġord ers
Ġglycosamin oglycan
pe ak
Ġvascul itis
Ġsti ff
b ital
in ing
Ġc ran
an oate
uc as
Ġv incristine
ĠC arb
ĠS EM
reas es
ĠM et
ĠD HT
ĠN ational
Ġapp ly
pl ications
Ġreac tivation
Ġcl onal
ĠW est
Ġgen esis
Ġdi uresis
dy namic
Ġins tillation
ĠU se
ĠU rinary
ĠIg D
Ġinv aria
Ġnec ro
lin ks
ause a
Ġhydroly sed
Ġsurv ive
hydroxy butyrate
Ġfix ative
Ġprop ionate
Ġris ing
Ġmacro globulin
ĠEx posure
acetyl glucosamine
Ġhospital ization
Ġtransc rip
Ġproton ation
Ġantic ip
Ġkill er
ĠPR A
Ġfa eces
Ġpassive ly
Ġeth idium
Ġillus trate
Ġsk ills
Ġvasodi latation
ĠAB O
divid ed
ogluc onate
Ġwavelen gth
Ġframe work
Ġcollo idal
ĠJan uary
Ġscleroder ma
c ing
d iffusion
e per
l onal
p enicill
z in
Ġa tax
Ġm ec
Ġf oss
ent h
Ġcon g
Ġv itre
og uan
her s
Ġal titude
ĠP ath
ĠM MTV
ĠD T
Ġha bit
ĠE H
ĠR auscher
ox idase
Ġar ises
Ġelec tive
ins ensitive
Ġmethod ology
Ġacc ident
Ġox prenolol
orp oreal
Ġdiscus ses
Ġincub ations
Ġmul atta
Ġcr uc
Ġtermin us
Ġbronch itis
Ġatten ding
Ġscre en
Ġpy el
197 7
ĠAr ter
ocar pine
Ġchar ges
Ġchar coal
Ġsumm er
Ġirrevers ibly
Ġdri ving
Ġhydroxy ethyl
Ġpromo ted
Ġechocardi ographic
irradi ation
stra nd
Ġhydrocarb ons
Ġunf av
Ġlic hen
Ġende mic
1 000
D i
S E
g ment
p atients
Ġo c
en ergy
Ġb atch
ar ding
os clerosis
ĠT ox
ĠT yr
im er
ur se
Ġbe at
res cine
se ts
od opa
ut ants
op henol
Ġsp ots
ch i
per f
Ġun fol
Ġun nec
Ġsub type
Ġform ate
Ġam n
ox azole
ill ing
ĠG L
ĠG ood
me t
Ġdisc overy
Ġsuc kling
Ġcontra ct
oid osis
Ġinjec ting
Ġhom ogenous
val es
trans port
Ġfil trate
Ġneutral ized
ibri o
Ġfibrin olysis
Ġtur ned
Ġbiochemical ly
Ġalcohol ism
Ġasp artic
Ġgastro cnemius
Ġta urine
Ġexten ding
Ġpy raz
ĠSta ge
ĠAddition ally
Ġcompe te
Ġphosphatidyl serine
opep tide
gre en
Ġfibrill ar
Ġtrop ical
Ġmicrob iological
Ġimmunore activity
parag inase
Ġcarbox ypeptidase
ocys tis
quil ibrium
Ġcit ric
Ġvic inity
Ġharves ted
Ġtrun k
Ġswim ming
C i
c ents
f uran
g lycero
n uclear
v able
Ġt ape
Ġa rousal
Ġc ode
Ġp em
Ġm ur
Ġm cg
ic ul
ly sin
os ensory
Ġn ausea
ĠT B
ĠT F
Ġl uc
Ġl ie
ion al
Ġad dic
ĠS ud
Ġpre requis
ĠD el
ĠD ex
ĠD Nase
Ġph asic
Ġag gra
Ġval ves
oci ated
Ġmod ulated
Ġflu orome
pro b
Ġcal ib
Ġmicro graphs
ĠV O
Ġneu rop
ĠCa re
of uran
Ġnec rotic
Ġmicroscop ical
Ġoxy tocin
Ġtox ins
yn chron
ulph ide
Ġmyel inated
ĠEx perimental
Ġdim eric
Ġpri vate
Ġstep wise
Ġperox is
Ġconcer ns
Ch anges
Ġpent ose
Ġinterf ace
Ġneph rotic
ĠAr g
Ġencephal opathy
Ġhemat oxylin
bu tazone
Ġspe ech
ĠHis tamine
rele ase
Ġalkyl ating
Ġsched ules
Ġori ented
Ġcoinc ided
ocys ts
ĠSw iss
Ġproc aine
Ġclar ify
ĠDO PA
Ġdiscrep ancy
Ġsarcolem ma
ĠHig her
Ġintrader mal
Ġcomprehen sive
B r
C omp
D C
D E
G N
e ts
i res
s erum
Ġthe ories
Ġs terol
Ġp un
Ġan oxia
ic ide
id ines
ter l
Ġv ast
Ġas paragine
Ġat tain
Ġper itone
Ġper icardial
Ġim bal
ĠP r
ĠM R
ĠH GG
ĠN T
ĠF all
ĠL P
ĠL an
ech st
Ġu racil
Ġelectr ons
rad renaline
ex c
Ġi tem
Ġcoun ted
Ġx anth
Ġtetra mer
tox icity
Ġdeta ch
Ġtend s
Ġadap tive
ket oglutarate
Ġsuccin ic
Ġcompe tent
Ġoccup ied
Ġalloanti gen
Ġsick le
oprol iferative
ĠHaem ophilus
opyran oside
Ġbrid ge
Ġtib ial
Ġperiv ascular
duoden al
ograp hed
Ġinvaria bly
F ollowing
K i
L ymph
S p
S ince
U dR
f at
s taining
z apine
in is
Ġt ardive
te e
Ġan tero
er ian
ta iled
Ġis oniazid
Ġme at
Ġsu pine
Ġim id
ri tic
ĠD BH
ip id
ĠN P
ons es
per idol
ĠE p
Ġun res
ech an
Ġ10 2
Ġes trone
Ġdi uretics
Ġhydro p
Ġmar m
tric t
Ġinte rac
Ġcomplex ed
ĠAl cian
Ġvis ion
omer ular
Ġstan ding
fac tors
ĠCon centrations
uch terl
Ġsuppress ing
Ġpredic tion
ĠGA G
bloc ker
Ġmening ococcal
Ġprom oting
Ġimmunod efici
Ġopp osed
Ġwithdraw n
Ġimmunosupp ression
Ġmyc obacteria
ĠGVH D
Ġapproac hed
Ġuncoup ling
Ġtransm ural
Ġsplen ectomy
Ġcryptorchid ism
ĠAut o
ĠAus tral
Ġmom ent
Ġsplan chnic
M r
Ġt ap
on om
an k
os ins
Ġn ond
ph aly
Ġ( '
th us
th yro
ig ram
Ġra ce
op recipit
ia ce
Ġsp an
ĠS I
ch ial
tro us
ĠP K
Ġmic rong
Ġun se
ĠF A
Ġconcent rates
Ġk anamycin
ear ly
Ġob esity
Ġso ils
Ġradi ologic
Ġhyper lip
phosph atidyl
Ġpath ogens
Ġpath ogenetic
Ġlip olytic
Ġlab etalol
ĠAt tempts
Ġtri tium
Ġadv ances
Ġmethyl ated
ĠEx cept
Ġbuffer ing
cephal us
Ġbur ns
Ġneph ro
py ramidal
Ġepis ode
Ġaim ed
ĠIntra venous
Ġinstrum ents
Ġbab y
Ġcyto lytic
hydraz ine
odeoxy uridine
Ġtrigger ing
ĠPhot osystem
Ġpestic ides
horm one
Ġthrombocyt openia
Ġprotoplas ts
Ġdegran ulation
Ġsat urable
Ġelse where
Ġdismut ase
H ist
R L
l ong
y rene
in jected
it um
os erine
Ġh arm
Ġl arynx
Ġcon ception
oc ks
am ides
ĠC LL
ĠS ym
ĠS ide
min ute
Ġ3 50
ĠM ac
ĠD E
el s
de hydro
Ġun identified
Ġchan ce
tem ia
iod o
Ġsta y
Ġgluc one
az ocine
Ġdos ing
Ġneu ropathy
Ġj aw
Ġrecep tive
Ġcarri es
Ġexpos ures
Ġlac ks
Ġperf oration
Ġlact ase
Ġphysiological ly
range ments
Ġcontribu tions
pic uous
Ġthi op
Ġnum er
Ġevolution ary
Ġcav a
opep tides
Ġpolar ization
Ġradical s
GA BA
fluoro uracil
Ġinterrup tion
Ġinterrup ted
For ty
Gl cNAc
deg rees
Ġfus imotor
Ġalg ae
Ġchief ly
rection al
Ġobste tric
Ġpector is
hepta dine
Ġcarcino embryonic
uchterl ony
A Ch
T re
g ut
Ġs cop
Ġs atisf
Ġin app
es tabl
Ġe ase
us pid
Ġh ands
Ġcon vales
um arin
ac ental
Ġpro thrombin
Ġres our
Ġres ected
Ġres usc
ĠI R
ĠI so
op us
Ġdis loc
up take
Ġpre incubated
ri ly
ĠP rior
ĠE co
ĠF lu
ĠR P
ĠR ous
Ġtrans duc
Ġtrans duction
ear t
Ġdes irable
Ġstra teg
Ġpoly arteritis
Ġins truction
Ġphen otypic
truc tions
lin k
Ġrepres sed
Ġestim ations
Ġlike wise
inf ec
Ġbil aterally
Ġsto ol
flu rane
aden ine
Se ven
Ġbal loon
iaz ide
Ġdirection s
Ġger minal
Ġabor tions
Ġlev amisole
Ġchel ating
Ġsimpl ified
Ġvul n
ĠWhe ther
tax is
comple ment
Ġbip olar
Ġhard ly
Ġendometr ium
go ing
Ġsegreg ation
Ġsymme trical
Ġsubclass es
Ġheterozyg otes
gangl ionic
aminobut yric
block ade
Ġchoro id
Ġperikary a
Ġmesenchym al
Ġurtic aria
Ġemin ence
G P
H LA
M enten
W S
e minal
h odopsin
s ates
Ġc ili
Ġan ore
Ġb at
Ġl indane
if ically
il ing
op ian
Ġsu ited
ĠS tan
ĠS ingle
ten tial
iv ocal
ren ts
Ġsub divided
end ro
Ġmed ications
rop yl
Ġund ifferentiated
Ġsuc rase
lob azam
Ġfib ro
Ġbi oassay
Ġmicros phe
10 1
az acytidine
oplas ia
Ġconf idence
Ġtri phosphates
ura min
Ġplace ment
gra ft
sec re
Ġconsequ ent
Ġneph ropathy
opera ble
Ġfacil itation
Ġinfil trates
ĠBi ochemical
Ġquin idine
Ġfif teen
Ġpac ked
Ġintense ly
Ġeluc idated
Ġreticul o
Ã© zary
Ġtrend s
Ġchec ked
ĠSer ial
Ġglucocortic oids
Ġdup lex
ĠSubsequ ently
Ġtolu idine
Ġbarbitu rates
ureth ral
+ +,
R at
R ats
c is
f arin
o uble
ed ge
Ġd ith
it ors
Ġf ate
Ġe ver
at uring
ol ving
om erase
ce tamol
ter ic
Ġcon to
ph ig
oc ura
Ġas certain
Ġ2 20
Ġper ic
ĠS E
Ġim m
Ġco ating
Ġwe igh
Ġass ume
ill a
ub lic
Ġinter cal
Ġtim olol
Ġchrom ophore
Ġperiod ate
Ġly ophil
Ġtra bec
Ġmul tif
Ġ17 0
ump tive
Ġtermin ate
Ġprog ressed
Ġprov ision
coh ol
Ġov ine
Ġcolla bo
cip arum
Ġmig ra
Ġproton ated
Ġsch ist
Ġnit roprusside
Ġbenz ene
Ġcortis one
Ġdra matically
Ġpermit ting
Ġ(- )
Ġanhyd ride
Ġpredomin ance
ĠRadi o
Ġsph ingomyel
Ġpersonal ity
Ġtrich loro
Ġirrit ation
Ġpsor iatic
Ġsig ma
Ġmosquit o
ĠCB F
Ġtyros inase
Ġhaemorrh age
enzym atic
Ġophthal m
erule us
Ġmarm ose
C s
R s
p enicillin
s us
s ia
re act
Ġan iline
Ġb onding
an ase
Ġe ros
ul ans
ĠT c
ol ve
Ġis ole
Ġac inar
Ġde br
di i
tic us
se ous
od iffusion
ĠA z
ĠI P
Ġra bies
ĠC ardiac
Ġper ip
ĠS M
ĠM B
ĠD a
ĠH om
Ġph yl
era s
Ġun c
Ġag glutinin
Ġag reed
tan e
ace tam
Ġsim ulated
Ġplas mac
Ġprepa re
Ġsta ging
Ġcyt ogenetic
Ġdef ense
Ġend oscopy
Ġhyper al
Ġhis tories
Ġglyc osyl
ful ness
Ġcardi opulmonary
ĠCa ucas
Ġstimul ants
trans formation
Ġlim bic
Ġana esthe
ĠCh rom
ĠCh ildren
Ġty ramine
Ġepithel ia
ime th
the ma
Ġultras on
Ġstri ated
flu orome
Ġbr u
cul ture
Ġcontribu tes
cor tical
ĠRh iz
Ġthreshold s
Ġdihydro folate
Ġfal ciparum
nis olone
fix ing
Ġcompens ated
Ġlymphob lastoid
ĠDep artment
Ġamb ient
Ġseas onal
ĠNor th
ĠEle ven
Ġsilic one
Ġneuros ecretory
osulf ate
respond er
salic ylic
Ġmodal ities
rostagland in
Ġunnec essary
D T
c ourse
g ressive
Ġ $
al low
is obut
ec tin
ĠT welve
ac ry
if erous
ĠA DH
Ġse rosal
Ġanti thyroid
Ġspec trin
ros tatic
pl en
Ġca ution
Ġhyp ere
Ġhyp oglyc
Ġimmun oc
Ġcl amp
ĠO uchterlony
Ġ7 00
form s
Ġdi versity
av y
Ġnucle osides
tric tor
Ġmal absorption
act one
Ġlocal ize
Ġsepa rating
ĠAl k
immun ization
eti tion
adren oreceptor
Ġmusc arinic
Ġconcer n
ĠAc tivation
ĠLe vels
Ġce ment
Ġhyd raz
Ġglob in
Ġdiges ts
ĠHist ological
Ġdiscontinu ous
Ġprecise ly
Ġemergen ce
Ġdepri ved
Ġground s
Ġbip henyl
Ġpil ocarpine
Ġtyros yl
ĠLymph ocytes
Ġens ure
Ġdigital is
ĠCalc ium
Ġadjust ment
othal amic
ethop rim
V III
b ilities
f ort
p urified
s ch
v itamin
Ġa ero
Ġa ort
Ġo vid
Ġs oc
Ġp ore
it ability
ic ep
Ġf ulf
Ġf uchsin
Ġre per
Ġto ad
om b
om ere
Ġra sh
Ġat titudes
Ġcomp rom
Ġinc ompatibility
Ġpre m
Ġhe te
ĠH MM
ĠB W
ĠN Z
ten cy
ĠF C
Ġpar v
Ġmeth ane
Ġdec ade
Ġev olved
Ġocc ipital
Ġab use
Ġab rog
Ġintra fusal
Ġmar ces
Ġbi ogenic
Ġmetabol ically
old s
Ġpost mortem
ĠNa F
trans fer
Ġsal mon
pre treated
Ġcompos ite
Ġfl up
Ġhel ical
Ġsed ative
rec ogn
Ġolig onucleotides
Ġconstitu tes
sec tional
Ġhex ose
aden osyl
Ġnic otinic
Ġconcomitant ly
Ġlink ages
Ġsynchron ous
anil ine
osid osis
fraction ated
ithe li
transf erases
Ġmere ly
Ġvitre ous
L B
R O
V arious
s onic
Ġt in
Ġs aturating
Ġb im
Ġm oles
it t
Ġl anth
Ġpro tr
ĠA cetyl
Ġor bital
Ġanti d
ore pinephrine
ĠIn vestig
Ġspec ified
Ġpos tin
Ġmic rom
Ġun responsiveness
Ġass uming
ep ine
jec tions
Ġ10 1
Ġli qu
Ġocc luded
ne x
Ġnucle olus
Ġcal ories
orph in
ry thro
ines cence
Ġery thema
(- )
Ġsol itary
DH T
Ġlate x
Ġapplic ability
Ġhepat omas
Ġdispl ays
Ġweak ness
Ġpersis ts
Ġbehavi ors
Ġenti ties
Ġhead s
Ġuns atisfactory
ĠWh ipple
Ġalkal oids
lav ian
ĠDe termin
Ġhemat ocrit
Ġsupple mentation
Ġju x
bu ffered
glob ulinemia
Ġinterven tions
Ġexpon entially
Ġfit ted
Ġconscious ness
Ġabund ance
ĠSpec ial
Ġsampl ed
Ġchec k
Ġbio availability
NADP H
trim ethyl
ĠDP H
Ġpathophys iology
Ġneigh bo
Ġimped ance
Ġdeduc ed
aspart ate
E ight
E ffects
G E
N eu
m ass
n ot
o king
v ine
al b
Ġg lyox
ot ub
Ġex ocrine
Ġor cein
tu be
ran d
ĠS Ã©zary
Ġpre operatively
ble omycin
tor ily
yd ig
pa ration
Ġun specific
ab ilities
Ġconcent rate
Ġsub mitochondrial
Ġwe aning
ara bin
ear ch
cep tive
Ġcontro ver
Ġcons picuous
Ġcul tural
Ġend ocardial
Ġgluc o
Ġz ona
Ġexplain s
Ġcann ab
Ġradioimmun oassays
Ġpron ase
pyr idine
Ġaor to
Ġcav ities
ĠRh od
his tamine
Ġbelong ed
fix ation
Ġile al
Ġverteb rate
reduc ed
Ġdecarbo xyl
Ġmob ile
ĠOver all
Ġultim ately
Ġoss ification
Ġmyocl onus
Ġfu rosemide
ĠDia gn
Ġsuperim posed
ocura rine
Ġmarces cens
A B
B arr
S DS
W h
s ensitized
Ġa plastic
re t
ĠT C
ĠT L
ur onate
th irds
se x
ĠA part
ĠP ap
ĠD ay
ĠH E
ĠH ere
Ġpo uch
ĠTh ough
Ġr hythmic
Ġhyp os
Ġimmun ocyt
ĠL im
ub i
ie t
Ġma ps
ag ge
ag glutinin
Ġintra v
Ġgre y
Ġpoly rib
ĠATP ases
Ġmicro liter
Ġcalc ulate
Ġphys ostigmine
Ġbeh aved
Ġrever tants
Ġ13 5
Ġheal ed
Ġtox oid
Ġfl unitrazepam
Ġlys ate
Ġtransi ently
Ġpsych os
Ġear s
hydrox ymethyl
Ġrad s
Ġbenzo ate
Ġexcre tory
ĠSch w
Ġinteg ral
Ġglob al
Ġchloro quine
Ġchlor diazepoxide
Ġhemag glutinin
Ġdrop s
Ġeosin ophilic
Ġalcoholic s
Ġlev odopa
Ġexact ly
Ġsynapt osomal
Ġphysic o
ĠCons ide
Ġepididym is
Ġtetro dotoxin
Ġpractition ers
Ġopportun ity
Ġnam ed
Ġhyperglyce mia
foc using
Ġisole ucine
A M
A ll
b lasts
c ross
o ot
v in
in ositol
Ġa way
Ġs un
al is
ed ding
at rial
ul oplasmin
Ġh all
ĠC an
Ġhe paran
el io
bo th
Ġtrans hydrogenase
Ġsub region
ara chnoid
ĠL E
Ġtwo fold
Ġcy tidine
ub er
Ġma pped
rop las
hed rine
Ġro t
Ġfe t
Ġqu ant
Ġpost partum
Ġcle ared
Ġte ichoic
Ġgamma globulin
Ġcent rom
immun oassay
Ġdig est
Ġdys trophic
Ġtranspl antable
acryl ate
Ġther mol
ynthe tic
ynthe sis
ĠAc ute
Ġvitamin s
Ġiod inated
Ġbur n
Ġgo ats
Ġsens or
Ġneoplas m
Ġneph rectomy
Ġ196 7
Ġremission s
Ġsatisfac torily
Ġsqu are
Ġpolar ity
bacter ium
Ġdoub ling
Ġadi p
ĠMic ro
ĠMic roc
Ġinhal ed
ĠAT CC
Ġpredomin ated
Ġferric yanide
Ġlute al
trac heal
Ġswe at
Ġsympath omimetic
Ġoesopha gus
tw itch
ecl amp
Ġmanu fac
Ġatax ia
Ġpem phig
7 00
G el
N C
P atients
Q O
f oli
p ir
r ys
Ġs ession
Ġc ame
Ġin operable
es trol
ed es
Ġb lasts
Ġd B
Ġd l
ic ating
Ġf used
ate rium
og ni
tr is
yl ation
ran ts
ĠC hemical
lec ithin
ĠB acter
ten sives
em ias
Ġun anesthetized
cy anide
Ġar res
ath iop
Ġinter phase
ne w
ne utral
Ġdi amine
mon o
Ġhydro chloric
Ġman di
kin es
ass ay
tur nal
Ġpath ogen
Ġfil tered
Ġte xt
Ġaff orded
Ġorig ins
Ġslow ed
Ġthym ine
opath ology
Ġave raging
Ġcomplement ation
Ġstre am
Ġshe ll
roscop ically
Ġperme able
benz ene
ĠLe uk
Ġfragment ation
associ ation
Ġgonad al
Ġpel lets
Ġtach y
icol a
Ġexplan ations
benzo ic
reduc tase
Ġmyc osis
ĠGVH R
ĠPar tial
Ġagglutin ated
Ġcontin ues
Ġtric uspid
IT C
Ġpolyc lonal
dri ven
Ġcarbam oyl
Ġank yl
Ġcigare tte
ĠIniti al
Ġhypoglyce mia
robenz ene
ĠHo echst
athiop rine
C yt
R h
T rp
b lue
d G
v iew
z oline
in ducing
Ġt ect
Ġo per
Ġo me
Ġo ocytes
te ctomy
Ġs pp
ec e
Ġn ull
ĠT E
ĠThe n
oc or
oc arb
ĠA ug
Ġra g
tr ich
ĠC enter
Ġsp ent
ĠP N
ĠM E
ĠM olecular
el d
el ic
Ġco operation
Ġun im
Ġun conjugated
Ġcar nitine
Ġdec omp
ĠW il
av al
Ġbas ophil
Ġcyt ology
Ġhyper ventilation
Ġmal formation
Ġmicro filaments
mic roscopic
Ġfour teen
medi an
Ġhist ochemistry
Ġbeh ind
Ġimpro ves
Ġpig mented
ex posed
Ġcoun tera
yn ure
ĠPro c
Ġsubc ul
Ġbir ths
ĠHB e
Ġsac c
tri atal
ostero ids
Ġapprec i
Ġcarboxyl ic
Ġhydroxy apatite
Ġmill igram
Ġcis tern
Ġmob ilization
Ġdermat an
Ġproceed ed
Ġsyste matically
Ġgenera tor
Am ong
Ġjus tified
Ġnas oph
Ġalumin um
ĠBio phys
Ġtetro xide
Ġrear rangement
fr uctose
hydroxys teroid
Ġoverla pping
Ġhaemodi alysis
Ġcatalep sy
Ġstiff ness
Ġhyperal imentation
8 15
H I
i ramine
l ives
w orm
y ch
re tic
ti o
Ġs lu
Ġc up
Ġp ot
as h
or in
ate ver
ate chol
Ġn ail
ĠT HC
oc aps
ell if
op ed
ĠC entral
Ġdis ulphide
ĠS te
Ġim posed
ch in
el f
Ġha b
Ġco eruleus
ĠE LISA
Ġcar p
Ġhyp oplasia
Ġk b
ep silon
Ġam elio
ox ins
Ġdec re
Ġnormal ization
Ġst ock
Ġdes m
ne uramin
Ġvir gin
Ġmin d
Ġmin i
umb ellif
Ġover t
oly l
Ġgra ins
Ġgra ss
ov an
Ġleuk aemic
Ġpe thidine
Ġcoun sel
Ġdiagnos ing
Ġhaem olytic
Ġfer rous
Ġsperm idine
Ġcann ula
Ġdisapp ear
ĠLH RH
Ġthyro troph
Ġsarc omas
ang iotensin
Ġphenyl butazone
opo iesis
Ġtrim ethoprim
Ġrelap ses
Ġnever theless
ymp ath
Ġnarrow ing
Ġald olase
Ġgross ly
Ġlymphob lasts
Ġoutp atients
Ġdib utyryl
Ġfig ure
Ġcytoch alasin
opyran osyl
Ġelect romy
arth ritis
Ġenerg ies
Ġdan ger
Ġprofession al
ĠWor ld
yclohexyl carbodiimide
Ġmuscul ature
Ġmucosubs tances
oguan idine
+ ).
F ifty
L i
M y
T en
b ran
b ilis
k inson
l ands
n om
o ted
p ens
v accin
en oic
es are
es ophageal
us hing
ĠThe r
se roton
ĠA NA
ĠC le
Ġsh rin
lo fen
Ġim ple
ore active
ĠH eart
ab a
ab bits
Ġca ro
Ġall oxan
Ġtrans itory
Ġrel ieved
Ġhyp notic
ĠL abo
ox oglutarate
ĠO cc
Ġ10 8
me as
Ġcol icin
est asis
phosph ogluconate
Ġlip olysis
yr us
Ġtub ulin
Ġter nary
Ġrepres entation
osp asm
ĠCh aracter
Ġconver t
Ġke t
enc l
13 1
idi rectional
Ġed ge
Ġdepos ited
ĠAnti gen
Ġhyd ration
lav ine
Ġunderst and
Ġunus ually
Ġcatab ol
Ġplan ned
Ġasymme try
Ġole ate
Ġcad aver
Ġmeg aterium
Ġmel ting
Ġank le
Ġpalmit oyl
Ġkinin ogen
Ġthyrotoxic osis
tobac illus
odys trophy
Ġmiss ing
Tre atment
ogni tive
esare an
A sp
P oly
T E
a ir
c irc
d U
o hyp
p atient
v s
Ġ iliac
Ġt ick
he i
Ġin gu
it ating
at her
im ilar
th is
ot o
Ġex agge
Ġal dehyd
ad ec
ĠP EG
ĠD ue
ke ys
ĠE l
ĠE SR
Ġtrans forming
Ġsub arachnoid
ĠO xygen
Ġnormal ized
Ġinter ior
Ġpl ain
Ġgen erating
ugh ter
Ġcons truction
ag in
Ġmy o
tis ts
Ġpur ple
Ġep oxide
ĠV EP
Ġgra c
Ġem erged
Ġgu anine
eren ces
Ġvas oactive
Ġvas oconstriction
Ġadren o
ane thidine
fac ial
Ġanaly ze
Ġfoc used
Ġdelta pH
Ġview ed
Ġsuppress es
uron ium
ĠLe ft
Ġhead ache
Ġneoplas ia
ĠCom parative
carb on
Ġrh odopsin
Ġspin ach
Ġinfil trate
Ġesopha g
Ġreal ized
Ġstere o
Ġstere ospecific
Ġverteb rates
Ġdiscontinu ation
men tioned
Ġent hal
son i
Ġintramuscular ly
Ġemp ir
Ġatheros clerotic
ĠAp gar
obenz ene
Ġpolic y
echan ical
Ġome ga
B i
H yp
c yst
p yro
v inyl
y er
Ġp imozide
er vations
os uccin
ĠT n
ĠT issue
Ġg et
Ġde aling
il aterally
od er
ĠA ND
Ġcell ulase
Ġdis tances
Ġanti plasmin
Ġle ver
Ġpre optic
Ġstu dent
ĠN itro
tor ing
ĠF ifty
ĠR b
Ġtrans ection
Ġimmun oassay
ĠL ess
NA DH
Ġam put
ace tone
Ġar gin
Ġthree fold
Ġover night
Ġsyn cy
ĠV L
Ġ16 8
Ġmale ate
Ġnod al
Ġbro ther
Ġpredic ting
ĠLe ydig
Ġadrenal ectomized
Ġbreak age
abs orbed
Ġgonad otrop
Ġeti ologic
Ġaccep tance
max illary
Ġborder line
zo ites
Ġconsider ing
Ġput rescine
Ġextrem ity
glu tamine
ĠMar ked
Ġultim ate
Ġamen orrhea
Ġadoles cents
Ġdetec tor
Ġcypro heptadine
Ġextr usion
iazol am
Ġfati gue
encl amide
M LR
R IA
m ain
s olubilized
v H
v itro
Ġin semin
as se
Ġb ony
Ġd ying
Ġe ll
Ġh i
Ġl ose
ce mia
ta kes
Ġpro tamine
rom edial
am a
ad herent
ch lorp
ĠP I
ĠP ol
ĠH O
ĠH SA
ĠH ES
ĠH VA
hen azine
Ġph leb
Ġinf ancy
ab olic
ĠF FA
ĠR abbit
Ġhyp otonic
Ġform ulations
Ġimmun ogen
ĠO ral
Ġ10 3
Ġplas mal
ag inal
pos ing
Ġextra hepatic
Ġrele ases
Ġcontra ception
och lor
Ġglyc eraldehyde
Ġlip ophilic
ĠAl tern
Ġwor se
Ġcr isis
mac ro
Ġexp anded
ofluores cence
but aline
Ġadhe sions
Ġcop ies
Ġoste o
Ġenc aps
Ġtension s
Ġbran ching
ĠAr thus
Ġpal ate
carb onyl
inhib itory
PG E
PR L
Ġspre ading
Ġenter ic
Ġattenu ation
Ġuncoup ler
chlor inated
Ġwar farin
Ġarg yro
Ġelong ated
Ġthrombo emb
Ġrelia bly
Ġprep aring
Ġcover ing
Ġawa ke
mix ed
ereb ral
Ġimpregn ation
Ġobsc ure
Ġovari ectomized
Ġcyl ind
Ġcolos trum
Ġmur m
Ġtect um
Ġrag weed
R adi
T rans
c to
f requency
k i
l oss
p olar
Ġt orr
Ġin deed
is ot
is ive
Ġd ere
ar ct
ate ning
ĠT em
ta il
um n
Ġde al
ĠA R
Ġex trinsic
her n
ĠC K
Ġper ception
Ġim pression
ĠP L
ĠP s
ĠP ep
ĠM CA
ĠM HC
ĠD ip
Ġpo le
ke fulness
ĠE R
por tion
Ġcor ro
Ġst romal
Ġlymph o
ite ll
Ġextra pyramidal
Ġhyper thyroid
Ġequ ations
az o
oplas ma
Ġprote cts
Ġhom olog
Ġtra ced
Ġadren als
ump ing
glutin ins
Ġutil ity
acter ium
Ġpyr iformis
Ġembry onal
Ġsubc lavian
Ġsmo kers
viron ments
Ġcollec ting
Ġsubstitu ents
Ġbro ken
Ġsarc oidosis
Ġoes trogens
Ġ33 258
Ġphospho cellulose
Ġvag us
Ġinfer red
Ġfacilit ates
Ġdri ve
SR BC
din itrophenol
Ġchor i
sulph atase
Ġonc ogenic
Ġcyst ine
vol ume
Ġprompt ly
dri ed
HBs Ag
Ġpharmacok inetics
ĠClin ic
Ġelabo rated
ĠGen eral
sur face
Ġinfra red
Ġexcep tions
iton itis
Ġhyperp olarization
Ġsoci o
Ġadjun ct
Sch iff
Ġantac id
othi ocyanate
Ġequival ents
Ġecz ema
ĠRepe ated
Ġimmunodefici ency
A G
H K
H S
R abbit
S t
k appa
in i
en tia
as paragine
or ial
ul ators
id azine
Ġde af
tra st
ĠA LL
ĠA edes
Ġme als
op timal
Ġdis pro
Ġper icardi
ĠS ep
ĠS DH
ch rome
ĠM M
Ġpres umptive
ĠD C
ĠD w
Ġcar ies
ĠR enal
Ġpar kinson
ĠG GT
tin ent
ap id
ne ur
velop ment
ĠK a
Ġintra m
Ġqu ail
Ġman ual
Ġman aged
Ġmar ine
Ġdescrib ing
Ġ12 8
Ġglyc oside
Ġcardi omegaly
Ġtra ch
%) ;
Ġcentr ally
Ġsecre ting
Ġmust ard
Ġdil ation
Ġphot os
Ġfas ted
emb er
Ġexten sor
Ġpy ramidal
Ġsinus oidal
Ġrelax ed
Ġcytos olic
Ġpic tures
Ġdrop lets
ĠSub jec
Ġhaemat ological
phthal ene
Ġuncoup lers
Ġlep rae
Ġassis tance
ĠAb normal
opyr ine
Ġpolys omes
ĠMO PC
ĠGra ves
Ġsen ile
Ġworm s
Ġricketts iae
Ġtherapeu tical
Ġamygdal a
Ġdeliver ies
Ġvig orous
chlorom ercuribenzoate
Ġarterio venous
Ġanxi olytic
Ġgonadotrop ins
X X
d on
d ithi
e min
g ulatory
o tent
p K
p m
p ituitary
u ated
v as
Ġa th
Ġw edge
Ġb ivalent
Ġre bound
ĠT ran
uc in
ib enclamide
ĠA u
Ġex foli
ge rous
Ġper itonitis
ĠS amples
ĠH D
Ġ4 50
ĠR ef
tal dehyde
Ġser ially
end ocrine
Ġst one
Ġdi as
Ġop erate
ag le
mo idal
Ġdem ands
ory ne
Ġclin ics
Ġchrom ium
Ġins titution
Ġhyper immune
Ġhyper para
Ġcal oric
Ġprim itive
Ġu ran
Ġu rate
Ġproper ly
Ġiniti ating
Ġstimul ators
resp onding
Ġsulf oxide
chol ic
Ġprob enecid
ex in
immun oelectrophoresis
Ġcarb amyl
hydroxy indole
Ġlen gthen
Ġchol estasis
Ġbronch oconstriction
Ġpredic tions
flu o
Ġspermat ogenesis
Ġlamin ae
ps tein
Ġpolymorph ic
Ġevent ual
rox ene
Ġalloanti sera
ĠIs olated
roma gnetic
ĠIns ulin
Ġfavora bly
hydraz one
Ġarch ite
Ġinp uts
precipit ation
ĠStatis tical
ancre atic
Ġanten atal
Ġcruc ial
B lood
a ec
a qu
b us
b il
c rystal
o enzyme
r if
v us
in jection
Ġc in
ra tor
is tal
ar ticular
id ial
id ylate
og y
ati zation
ri an
ĠP b
ĠP sych
ĠP neum
ĠN i
Ġco eliac
ros in
Ġun w
pl ained
Ġsub di
Ġhyp ok
ĠG PT
ins oluble
Ġocc ured
form ance
ag glutination
Ġintra cerebral
Ġins ect
ob al
ĠV E
Ġexc ited
Ġaffec tive
Ġbeh ave
ĠJ uly
Ġfer redoxin
raz ep
Ġ28 0
Ġtit rations
atid ic
Ġmono amines
ris es
Ġdial ys
Ġce ased
asal azine
Ġ196 5
Ġinst ant
Ġposi tivity
Ġdoc tors
elec trophoresis
Ġlethal ity
ĠSc ale
Ġduc tus
Ġstret ching
romat ous
Ġsig moid
ĠMeasure ment
Ġantihis tamine
aggreg ated
ĠUp take
Ġphenothiaz ines
ĠVal ues
ĠResp onses
Ġcatara ct
ĠContra ry
strept omycin
Ġinterrelations hip
Ġimbal ance
Ġmigra ine
Ġcounsel ing
Ġingu inal
8 00
A H
B R
C BA
G al
V I
k a
l ateral
Ġ ic
te ch
Ġc ath
Ġc ilia
ar ian
Ġh atching
ll ig
Ġg yrus
th oracic
if orn
Ġv an
Ġal ters
ĠC oun
Ġen te
ĠP P
ĠP EP
ĠM D
ip a
ĠB asal
ĠF R
ĠF T
cy tidine
Ġno tion
end s
ĠG e
Ġmo ved
ĠW I
me tic
Ġfac ul
Ġintra molecular
Ġradi ography
Ġhyper k
och ol
Ġsc ored
ĠV ero
ral azine
Ġpa id
Ġpara cetamol
ĠX en
Ġir rig
truc tural
Ġhem oglobins
Ġtub er
Ġwor ks
Ġhydroly sate
Ġdiss imilar
Ġsix th
pep tides
ĠEx c
otyp ically
Ġap ex
Ġnutri ents
ĠAc ta
Ġretin opathy
Ġthyro globulin
Ġdodecyl sulfate
ĠWh ite
ĠRec overy
Ġdoc tor
Ġrecombin ants
Ġkera tan
Ġchl orm
inhib ited
Ġhydroxyl amine
ocarcin omas
Ġclo zapine
ĠPar ticular
Ġdisplay ing
Ġwid er
DM BA
Ġdiscrep ancies
Ġphenothiaz ine
pred nisolone
Ġmutagen icity
Ġnoc turnal
Ġbuc cal
Ġkil ogram
Ġmesang ial
Ġencou raging
Ġscien tific
Ġtranquil izers
Ġresour ces
S era
k ary
on ucl
Ġc ognitive
as on
ar ium
Ġre ex
ly ase
Ġn urse
Ġl angu
Ġis omerase
Ġal cian
Ġat rophic
ia p
Ġus age
Ġconc lusive
pa ver
pl antation
Ġr uled
ĠL T
ĠL act
ong ed
Ġdec isive
Ġinter species
pec ies
Ġlymph aden
Ġdisc s
Ġab ilities
ty ramine
Ġpoly aden
Ġpa ran
Ġpost p
Ġgu anethidine
ish ment
ĠCh lam
Ġutil izes
Ġhypox emia
Ġstress es
Ġavoid ing
Ig M
Ġprom p
protein s
acyl glycerol
gu ed
Ġaug ment
Ġsomat osensory
Ġhemodynamic s
ĠMy coplasma
auc her
ĠFac tors
Ġadop tive
Ġconcurrent ly
Ġabscess es
Ġdan gerous
Rec ent
adin one
tit uting
Ġpat ches
Ġcochle ar
Ġpractic es
Ġsubfraction s
Ġundesc ended
Ġneurofib romatosis
ocyc line
Ġresusc itation
Ġaldehyd es
razep ate
G luc
H odgkin
M on
V P
b ul
f em
g yline
h ap
p rin
v ating
Ġ ubi
Ġt ar
ro in
as ts
le mented
ly b
os per
os ition
ĠT ween
Ġ( +
oc ul
op he
Ġsu ble
ĠS arc
ĠD N
ain amide
ĠE pstein
Ġun e
ĠR S
ĠTh irteen
ĠO b
Ġmon ocyte
Ġob li
Ġob lite
Ġdetermin es
Ġmod ulate
Ġmod ality
tis sue
Ġchrom affin
Ġdesc rip
ĠV is
ĠV ery
Ġlip oxygenase
Ġem physe
ĠNa HCO
uth ors
Ġtra ces
Ġalk alin
con centration
Ġwor ked
Ġrev ascular
olip ase
Ġhepat ocyte
Ġthyroid itis
Ġtetra zolium
Ġelimin ates
Ġpersis t
emb edded
ili ar
Ġcre am
glyc ol
sp inal
Ġenc l
Ġparticip ating
Ġhemat ologic
Ġmicron M
inhib itor
Ġhydroph ilic
coup led
ĠBP H
Ġpu romycin
CB F
Ġlam ellae
Ġsynchron ized
Ġspectrophot ometry
Ġdup lic
Ġfel t
ĠHal f
dich loro
Ġtrin itrophenyl
Ġcholec ys
ovis ual
Ġhistopath ologic
Ġmach ine
ĠEurope an
ĠLac tobacillus
Ġinterac ts
Ġglucone ogenesis
ĠEco RI
M H
N ormal
b ramycin
d ge
h op
z able
Ġp it
Ġin ward
ra bb
res id
ati zed
Ġra ises
op renaline
ys tic
Ġen vironments
up uncture
Ġsh unts
ĠD ig
em atous
pa rate
ĠE M
ĠTh i
Ġsub fragment
Ġk it
Ġk ain
Ġcol o
Ġman soni
Ġpoly p
Ġsensi tiz
Ġglyc osides
Ġ15 00
Ġfour fold
hel ical
Ġtra pping
Ġhy gi
Ġultra filtration
Ġrib ose
Ġchem istry
Ġmyel ogenous
Ġpersis ting
Ġsubc ortical
Ġmelan ocytes
Ġethanol amine
Ġgranul omatous
glyc oprotein
Ġthromb i
Ġalle vi
roc entric
Ġrub ber
Ġcoinc ident
mann ose
ĠAccording ly
Ġamb ulatory
ĠRA ST
Ġflag ella
Ġincre ments
Ġbif ida
Ġtro ut
Ġpropag ation
Ġpropag ated
Ġamph ib
ĠStra ins
ĠTes ts
Ġsut ures
ĠFri end
Ġmyasthen ia
Ġintole rance
ĠArter ial
Ġdetach ment
Ġunse lected
ĠNZ B
obal amin
C L
T S
b ir
b rile
h av
u ge
v ulin
in k
Ġw al
Ġan trum
Ġe ating
ul sion
ul line
ĠT O
ĠT a
Ġcon form
Ġac rocentric
ĠI TP
ff s
ĠC e
Ġanti m
gen erating
ore ne
ĠM K
ĠD TH
ĠH I
ĠB M
ros ing
ke ts
Ġtrans it
all ium
ĠL o
Ġsur prising
Ġdisc om
ag arose
Ġnon pregnant
Ġextra p
Ġep itheli
osom iasis
Ġ14 5
Ġste ll
activ ating
rad ic
Ġsuper n
Ġter rit
Ġos m
Ġmat ching
Ġlact ating
Ġpor phyrin
Ġinten ded
Ġacetyl ation
Ġphot ochemical
Ġinduc ers
Ġinterpre t
Ġview s
ĠPh armac
ik acin
galact osamine
Ġemphas izes
ĠFe tal
Ġgo al
PC PA
Ġprojec ts
Ġparasi tic
cor onary
quin ol
carbo xy
ĠDM SO
ĠSp ontaneous
Ġrect us
ĠSh ort
Ġdrain ing
Ġunex plained
Ġinteract ing
Ġarg um
Ġxen ogeneic
Ġvi olet
supp lemented
ĠConc anavalin
Ġdivertic ulum
Ġdeform ity
Ġperturb ation
ĠPrim ary
ĠCN V
Ġleth ally
Ġasial o
Ġreapp e
Ġitem s
Ġath le
oryne bacterium
Ġlangu age
A nal
B l
E vidence
c ture
he pt
Ġan is
Ġb ad
it ter
it ment
er ve
ec table
Ġh ope
Ġth y
Ġl amb
ter ious
Ġde uter
ĠA ch
ĠI A
Ġcom ed
ion yl
ĠS pleen
ri ers
ĠP late
Ġapp end
ĠTh rough
Ġdec id
ie tin
ĠG aucher
Ġmo unted
ne u
ach loro
Ġmy osins
Ġout let
Ġout growth
erm al
Ġly se
Ġaut olysis
Ġmut ase
Ġhem opoietic
Ġcur rents
Ġol ive
hyd ramine
Ġaccum ulates
gluc oside
Ġemb edding
Ġfl ight
Ġdefin ing
Ġrib osome
Ġure ase
Ġpsych osis
Ġbre ath
cal or
Ġexp iratory
Ġepid er
Ġoes trone
Ġaltern ating
Ġpref erable
197 2
pyr ine
wh ite
Ġsurve ys
Ġwa kefulness
ĠFour teen
Ġeti ological
comp onent
ert oli
irc ulating
Ġhaemat ocrit
Ġvasodi lation
Ġfoot p
Ġpeculiar ities
Ġelect romagnetic
NB r
Ġsn ail
Ġann ual
Ġsemin iferous
Ġintral uminal
fibrin ogen
Ġextrac orporeal
Ġthylak oid
Ġunfol ding
icep tive
Ġflup henazine
Ġexagge rated
Ġplasmal em
Ġhyperpara thyroidism
d am
d opamine
g m
j i
k illed
v aline
w s
w elling
Ġp als
Ġp aternal
Ġw ard
Ġw rit
ra tase
ic illin
an o
ĠT ra
ol a
ac tively
oc yst
tra tive
il isation
ĠA ce
Ġsu icide
ĠS uper
Ġne onate
ĠN at
Ġdiff raction
si ed
Ġha bits
ĠF ifteen
ĠR ever
Ġsub maxillary
Ġhyp ocap
pha g
jec t
Ġsugges tions
ucle ated
Ġdes ired
Ġstr ongest
Ġmemb er
Ġqu oti
Ġradi ologically
ole p
Ġur ines
Ġur ban
Ġir is
Ġaut onom
Ġpop liteal
Ġsuper sensitivity
Ġhydroly ze
Ġvis ually
Ġkine tically
DH EA
Ġincorpo rate
Ġlo ads
Ġsero us
ĠCon tinu
Ġantagon ize
Ġanaly zing
Ġhel ix
man dibular
alle l
Ġexp ense
Ġexp ensive
Ġskele ton
Ġhex a
odi a
ĠMe tabol
ĠPre incubation
Ġprom ise
Ġrh ab
chain s
Ġtop ography
Ġartif icially
Ġsubtilis in
Ġglob ular
Ġtas te
nitro anilide
Ġcompe ting
Ġtechn ology
Ġeosin ophil
Ġload ed
Ġlam ellar
otroph s
Ġreticul ocytes
bis phosphate
Ġrig idity
Ġprotoc ols
vol tage
ĠLike wise
Ġimmunoads orbent
Hydro xy
ĠBl ack
Ġavid ity
Ġerup tion
Ġdextro se
adap ted
Ġjustif y
Ġanticip ated
Ġmicrosphe res
cto ber
' :
- ]
D is
b ar
m ark
n ers
p arts
Ġa erob
Ġo cul
ro d
Ġb orders
Ġd re
Ġto day
Ġto bramycin
Ġh im
om ed
un its
Ġbe ating
Ġpro tracted
Ġde tox
Ġv ice
am o
Ġme et
ĠC FA
ĠC orynebacterium
Ġ2 60
Ġanti globulin
ffec t
Ġ3 20
st anding
ĠP H
Ġne o
ĠH MG
tein yl
Ġco res
cy cle
Ġcl om
Ġwhen ever
Ġstra n
Ġclin d
Ġflu roxene
Ġpoly valent
Ġins ight
Ġadminis tering
Ġaddition ally
li ved
Ġgra vis
az oline
Ġquanti tate
ish man
Ġvas ocons
methyl umbellif
Ġsix teen
Ġorigin ated
Ġlit re
Ġpotenti ate
Ġconver ting
the rapy
Ġlig ase
Ġprot otype
Ġgranul ocytic
Ġcord s
Ġuns tained
Ġexten ds
Ig A
HC H
vent h
Ġspin a
inhib iting
Ġope rant
glob in
Ġdin itrophenyl
Ġsupra ventricular
Ġclos er
dihydro testosterone
Ġvasodi lator
Ġhome ostasis
Ġflex or
ĠAP UD
Ġchim eras
Ġbot ulin
Ġscar ce
ont ine
Ġinstitu tions
Ġinstitu tional
demethyl ation
Ġmedias tin
ĠCs Cl
cortic osterone
iment ary
Ġpremed ication
Ġprerequis ite
secre ting
acetam ido
rabb it
F U
O P
S c
c illin
d ry
h ans
l lec
m um
p otassium
p heric
s ection
Ġt ill
ra ry
Ġm and
Ġf ear
Ġe uk
ec tive
Ġh ir
ol len
ll ing
Ġcon genic
od endro
ĠA O
ĠA ra
Ġdis par
lu ted
ĠM P
ĠD PG
hen iramine
Ġco factors
pa rations
ren ch
Ġtrans por
amin ed
Ġdec lines
Ġdec isions
Ġar thro
form yl
Ġcons ult
onse t
ĠK n
Ġdem entia
Ġnon ionic
tric ted
ob is
ĠV P
ĠV i
Ġdiagn ose
Ġgra ph
Ġder ive
ĠRNA ase
hel in
Ġ11 2
ex tracted
Ġla id
immun oglobulin
ura bly
Ġfrag mented
Ġx ero
Ġstand point
Ġpneum on
sc ale
cyc lin
Ġdispl ace
Ġelimin ating
Ġequil ibration
Ġasc itic
Ġfall ing
Ġconduc tivity
Ġtransc ribed
Ġepid ural
omple ment
Ġtrac ing
Ġperme ation
osynthe sis
Ġgranul oma
ĠPC P
Ġeffic ac
Ġpol io
Ġpol lution
Ġperman ently
Ġgall st
Ġureth ritis
hydroxytryp tophan
mann osidase
Ġagglutin ins
Ġvasodi l
Ġnurs es
Ġreticul ocyte
Ġchemo taxis
Ġflag ellar
sub unit
Ġquantif ied
Ġvascul ature
Ġepididym al
Ġretain s
Ġfeas ibility
Ġastro cytes
coag ulation
Ġlogarith mic
Ġarabin oside
Ġspondyl itis
Ġthaw ing
penicill amine
ĠSud an
Ġjux ta
ĠSchw ann
paver ine
Ġclind amycin
P urified
R FC
U R
a ust
g rad
h am
o terol
p as
s m
s tero
t uring
w es
Ġo ve
Ġp A
Ġin hab
ra tia
it inase
ĠT orr
um ulation
ac illus
Ġac rome
tr ip
ĠC NBr
ĠS kin
ĠS ertoli
lo ading
ĠP W
ĠN CS
de gra
Ġun fractionated
ĠF r
ĠF er
ĠR apid
Ġreac tivities
Ġr T
Ġsy ring
ĠL ine
Ġ10 7
Ġmin k
Ġfe brile
Ġintra cytoplasmic
Ġclin ician
Ġcal ibration
Ġcharacter izing
ĠU re
requ iring
Ġaut ore
rag ments
trans fusion
Ġsepa rable
Ġflow meter
Ġ11 3
Ġ11 4
ord ant
Ġsequ es
ex tra
Ġfat her
Ġestim ating
vers al
Ġtit rated
Ġsmo ke
Ġ27 0
ropri ately
Ġsedim ented
na ke
enter y
Ġpy rim
ĠInc orporation
Ġmast ocytoma
Ġepiderm idis
Ġ196 6
Ġhyd atid
Ġaz athioprine
Ġobjec ts
Ġcontamin ating
Ġmeta plasia
Ġserious ly
ĠElec tro
Ġdark ness
Ġfung oides
Ġmas ked
Ġpyro phosphatase
ĠHist ochemical
Ġleg s
pi ration
ann ab
Ġfund us
haem agglutinin
Ġsig moidal
Ġcompr ise
Ġpil ot
hydroxyl ation
ĠAL S
ompe tent
Ġproto zo
Ġzym ogen
Ġmotone urons
chromat ography
Ġmaca ques
Ġcontras ted
Ġcytoph ot
ĠApparent ly
Ġproxim ity
armaceu tical
Ġcerebro vascular
Ġcong ru
ĠStan d
I S
Q u
m ill
s uccin
v ari
Ġt ec
Ġt icks
ti st
Ġc lobazam
Ġp ack
ro toxin
ic o
Ġe cc
ac ts
Ġv on
rom ic
ir cular
Ġcomp rises
Ġinc ompetence
Ġhe roin
ĠM G
ĠD en
tor ial
si al
Ġpos tural
tan ic
ill um
Ġfol ic
Ġocc uring
Ġmy otonic
Ġmy coplasma
tig otes
Ġradi onucl
Ġcyt ologic
Ġinfec ting
Ġtr if
Ġsensi tivities
10 5
Ġu ra
Ġu ve
Ġpost ulate
Ġaden ohyp
Ġste adily
Ġ11 7
ogenic us
rage en
Ġfurther more
Ġpig ments
Ġcross es
Ġinactiv ate
Ġpor phy
Ġconduc ting
Ġdiv iding
ili ter
lorop henol
Ġdip hen
Ġsem is
Ġeth acry
Ġvers a
Ġpall id
Ġsuccin yl
Ġtrim ethyl
Ġexceed s
nucleo tides
brom ide
Ġsimpl icity
car rier
Ġsplen omegaly
Ġdele terious
Ġsalic yl
oxid ized
ĠPoly acrylamide
Ġflag ell
Ġoligos accharide
Ph osph
Ġgraf ted
Ġfasc icular
Ġthermos tability
molar ity
Ġmelanin ogenicus
Ġcomb ine
Ġinsectic ide
Ġdiphther ia
Ġincons istent
ĠLan ger
iace ae
ĠSym pt
Ġnumer ical
Ġinapp ropriate
Ġaero genes
Ġgrac ilis
Ġell ip
Ġcorro bo
Ġpals y
) (
C linical
M an
T s
T welve
b one
d A
n u
s tilb
t ogether
u ity
he tero
Ġin ert
Ġb aro
tion ally
an ion
ol l
um erous
Ġv iz
tic a
Ġor ient
Ġal ert
ver teb
Ġsp ines
lec tomy
ence phaly
ĠP l
Ġne mat
ĠM ix
ĠM embrane
ĠH ex
ĠB el
bo vine
Ġun bound
pl acental
Ġtrans position
Ġtrans urethral
Ġr id
ĠW R
me thanol
ix ation
Ġdisc ern
Ġsuc tion
Ġfe el
Ġmal ic
Ġinte llig
Ġcontra dic
Ġsolu te
Ġsc ro
Ġ19 60
ior idazine
ov ol
Ġly ase
Ġaden ylyl
Ġlocal ised
mit oyl
mit tee
Ġcarcin oid
Ġgran ulation
Ġamong st
ĠJ une
Ġach ieving
sacchar id
Ġcataly tically
ĠRes earch
Ġdisapp ears
Ġlateral is
ĠEEG s
Ġparallel s
Ġdegen erating
sp in
Ġsinus es
Ġgo iter
Ġhemat opoietic
Ġfore arm
Ġillness es
CM C
Ġec ological
Ġfist ulas
Ġcond ens
Ġdischar ged
Ġtempora rily
Ġinterfere s
Ġplot ted
Ġcholera e
Ġole ic
Ġsupplement ary
Ġtechnic s
Ġapo enzyme
Ġpalmit ate
Ġkeep ing
ĠSimultaneous ly
ĠPF K
ĠStr ong
Ġging iv
Ġpige on
seroton in
Ġdiscom fort
C ys
P s
p iper
u a
u abain
ti an
Ġc rest
Ġb or
Ġd T
Ġf reed
id ently
Ġg rain
ph ases
uc rose
if ier
il oride
ĠA SA
Ġres tra
Ġdis ks
Ġ2 10
ĠS L
Ġpre albumin
ri ed
ĠD ie
ĠB en
olog en
ep id
Ġev oke
ĠG n
ĠG OT
Ġvar ieties
Ġcons ervation
Ġsubs pecies
Ġnon invasive
Ġso ph
Ġpath ogenicity
Ġace butolol
Ġreveal ing
yr idine
Ġion izable
Ġvol atile
of us
Ġol iv
Ġmul tiv
Ġgran d
Ġsuper vision
Ġpolym yx
Ġmac roscopic
radi ation
ĠSe venty
Ġblock age
Ġcertain ly
Ġperf ect
olip in
Ġhomogen ized
Ġmethyl mal
Ġacetyl salicylic
Ġfer ment
Ġcolon ization
Ġstatis tics
ĠAc ad
ĠPh ase
Ġsedim ents
ĠIm pro
Ġphospho enzyme
Ġthromb ocytes
Ġinfer tile
Ġresemb l
Ġkera to
elec tron
Ġsection ed
Ġlib itum
grow ing
Ġlear ned
lip oprotein
Ġorth ophosphate
Ġepidem iology
Ġvec tors
Ġcoord inated
Ġbrains tem
ĠDS CG
ĠSer ratia
Ġmax illary
oblast oma
Ġpathophys iological
Ġpenicill ins
Ġmicrof ilar
Ġcigare ttes
Ġdoubt ful
Ġinfrequ ent
Ġplasmac yt
Ġcistern ae
oder ma
I X
N U
S h
c ut
d isease
h a
i ents
o physeal
Ġt ear
Ġa rose
is omers
ic uli
ul ants
ec k
ec retion
Ġn ights
Ġth orac
Ġth irteen
ol actone
Ġl at
im ine
Ġac nes
Ġv inyl
Ġon going
ĠI D
Ġal ph
ĠS y
gen e
min eral
tro genic
ide mia
ĠM W
ĠM id
ain t
ĠB T
ab ling
Ġag o
Ġhyp ophysis
Ġpar gyline
ĠL es
ĠG m
ace to
Ġar gued
lic ular
Ġdifferen tially
Ġfac ility
Ġisol ating
ni otic
Ġbi ref
Ġpoly chlorinated
til izing
Ġtr ifluoro
ail ure
az epine
Ġevalu ations
val ue
Ġoptim ally
Ġfem ur
Ġwor th
Ġreduc tases
Ġdig itonin
inf lu
Ġach ie
Ġdop a
Ġrecogn izing
the ta
produc t
cepti ble
Ġstren gths
Ġstren gthen
18 0
Ġretin ol
Ġolig odendro
Ġsubstitu tes
Ġrandom ised
Ġgranul omas
Ġsil ica
Ġvag ina
idin o
ĠInc reases
elec tric
Ex perimental
Ġdin itrophenol
ĠApp lication
Ġcounter parts
ĠSix teen
ĠMic ros
resis tance
lam ed
Ġaudi ovisual
Ġparas ympathetic
ĠSur vival
transpl antation
Ġequilib rated
Ġlogarith m
Ġrhin itis
Ġassimil ation
Ġnotice able
nitroso urea
Ġemploy ment
Ġlis ted
ĠAsc aris
ĠGene tic
Ġsuspic ion
Ġshrin k
Ġbotulin um
; --
D ata
G S
b ow
i ers
y a
ti ble
te rations
ra ce
Ġb inary
Ġd row
ec ia
Ġn arc
ĠT CA
ĠT rypsin
Ġcon gen
th ane
Ġac upuncture
ig uous
Ġv ib
Ġv illi
ĠA BA
Ġme ro
Ġch o
ir illum
Ġat omic
Ġinc ompatible
Ġpre formed
Ġpre pon
Ġ3 40
ĠP co
ose lective
ĠM u
ip ient
ther n
de hydrogenase
per iod
Ġacid ified
ĠE T
Ġno tably
Ġsub tle
ep ilep
Ġcy nom
Ġcl im
ĠG GTP
Ġocc lusive
Ġacc lim
oun t
Ġintra n
rome thyl
Ġsc oring
ĠV A
li ver
Ġpost menopausal
Ġaden yl
hyd ride
Ġter butaline
Ġpolym eric
Ġconstant ly
Ġsix ty
Ġlact operoxidase
Ġimpl ication
omal ate
Ġaccoun ting
ronch ial
acetyl glucosaminidase
Ġsubc linical
aem ias
kele tal
Ġhybrid ized
Ġeas ier
Ġpass ing
Ġparticip ated
Ġful min
Ġplasm as
ĠSch ist
Ġabsolute ly
CN U
ĠSix ty
Ġdegra de
Ġaryl sulphatase
Ġge ographical
Ġent rop
Ġlens es
Ġcut ting
Ġaw are
Ġdic umarol
Ġflas hes
Ġmultipl icity
Ġexh aust
Ġdivertic ula
Ġsonic ation
deg ree
Ġhazard s
Ġhyperb olic
Ġtranscrip ts
Ġweigh ing
ynure nine
Ġstell ate
ĠLanger hans
Ġbiref ring
Ġprepon de
( +)-
T G
T hy
b iotic
d ural
h and
s tically
Ġ >
te mber
Ġs tal
Ġb ovis
is able
it a
os motic
Ġh og
um ins
di phenyl
od ing
ot ung
ĠI UD
Ġwh atever
st ant
ĠH er
ĠN IH
de m
Ġco arct
ĠE PR
Ġall otypes
Ġhyp eros
Ġform ulated
ill ic
ĠG al
Ġmon onucle
Ġmo ve
Ġmo lyb
Ġar bo
Ġro ta
hydro gen
Ġfe tuin
Ġ9 00
umb ens
Ġout line
Ġbi ology
Ġinte ra
och im
Ġ12 3
Ġ12 6
Ġgra vid
Ġamin opyrine
ero l
Ġj ug
Ġcardi o
Ġlab ility
Ġly ing
Ġfree ly
Ġflow s
Ġste aro
ocardi ography
Ġbeh aves
Ġoxy hemoglobin
Ġpig mentation
ale in
Ġoxid izing
Ġresis tances
Ġperf o
Ġinactiv ating
Ġpsych ic
Ġrespond s
11 1
ĠCO OH
tran ol
Ġsel dom
Ġtrig eminal
Ġow l
Ġhere in
Ġhyd r
Ġrh o
Ġhemat oma
Ġsupple ments
Ġimmunos orbent
throm b
Ġperm issive
Ġmuta gens
ars al
Ġdra stically
benzo diazep
trop ium
ĠIntra cellular
ogas tric
Ġfron t
Ġsynchron ization
Ġwashing s
Ġclar ified
Ġmicroc irculation
Ġthermo philic
Ġbrid ges
respond ers
Ġmicrof lora
Ġdomin ated
Ġdepolar izing
thre atening
Ġintern ational
Ġrecru itment
Ġdisloc ation
ĠMicroc occus
ĠAug ust
ĠHBe Ag
Ġuran yl
% -
A F
B oth
H em
N GF
T ype
c itrate
c urrent
l ated
o urable
p ox
r ical
x anthine
y cle
Ġ id
in ite
in activated
in dividual
Ġa uric
re gn
Ġs and
Ġp ter
Ġp ust
al lo
Ġw ire
ro le
ra tropium
Ġm ater
Ġto w
Ġe wes
os an
us es
ĠT er
Ġcon fer
ĠI den
Ġme iosis
ĠC ri
gen ce
ay as
ĠP ent
ĠP enicill
ĠD iaz
ĠD ES
ĠIn dividual
ĠB rom
ĠB one
ĠE ffects
Ġun modified
ĠR ana
Ġsub mandibular
ogen y
Ġform al
ĠL ES
Ġam p
ill ar
Ġlow ers
ĠG vH
Ġar ray
Ġstr ych
Ġgl ia
Ġphosph atidic
oun g
Ġdr ying
ĠK C
ak es
Ġnucle ocaps
Ġsupp lying
Ġep icardial
Ġinte llec
enz a
Ġgas tr
ĠNa N
ĠNa OH
Ġleuk emias
Ġsulf on
Ġsulf ite
Ġoxy genase
Ġthym ocyte
ump tions
Ġtermin i
Ġexpres sing
rob iphenyl
Ġprov ocation
Ġhypothe sized
Ġrecogn izable
Ġcataly zing
Ġimp lying
Ġatten ded
Ġsw ollen
ĠRe le
ĠRe action
hydrox ym
ope xy
197 1
197 8
Ġneph ron
Ġrh iz
function al
Ġau ro
Ġalle lic
encephal itis
PG F
Ġisot opic
Ġchondro cytes
lip id
Ġtyph i
Ġgonorrhoe a
Ġcoll apse
car cin
Ġelement ary
aned ione
Ġsib ling
Ġphoto phosphorylation
ĠLa pa
Ġalumin ium
Ġhemisphe res
Ġpi eces
Ġdeform ities
ĠAD CC
Ġbeg un
trig lycer
Ġexacerb ation
Ġantihistamin es
Ġimmunohist ochemical
Ġdebr is
Ġdecarboxyl ation
Ġmanufac ture
Ġenthal py
verteb ral
ofus cin
B e
H CG
M D
P F
S EM
U ltra
e ed
h old
w ar
in ating
Ġin gre
Ġw ors
Ġan ch
Ġb atter
it z
it ted
an xiety
ĠT rp
ith ramycin
Ġl and
ce tin
Ġg amm
am ily
ĠA I
Ġra tion
Ġme py
ĠC ys
Ġper ce
Ġper tinent
Ġ3 60
ĠB rain
ĠN ot
per s
ros ide
ĠF DP
ĠR icketts
ĠR aman
Ġgroup ing
Ġdec ele
Ġgl ibenclamide
Ġes triol
Ġacc ent
ven ess
Ġop sonic
oma tically
Ġhydro cephalus
Ġend odermal
pro ton
loc king
Ġmicro globulin
az obenzene
ĠAn d
Ġion izing
Ġidentif iable
Ġaden ocarcinomas
Ġfil trates
Ġselec t
ĠOn ce
Ġradio actively
Ġcer uloplasmin
Ġvas ectomy
Ġpep tidase
oles terol
Ġcarb romal
opath ologic
Ġmedi ation
Ġmagn ification
Ġure ter
Ġgon orrhea
Ġlig ated
Ġatten d
yg otes
Ġinfar cts
ograph ies
eric in
galact oside
Ġadrenal ectomy
Ġbene ath
ĠSta ph
perim ent
Ġger iatric
Ġschizophren ics
oes ophageal
ĠSc i
Ġexplo re
atch ard
Ġdocum entation
Ġpromo tes
benzo ate
Ġfist ulae
Ġtent ative
Ġhaemag glutinin
Ġimmunochemical ly
Ġbio transformation
Ġparas it
Ġvill ages
Ġseb aceous
anes ulf
Ġmicroelectro de
Ġsa id
ĠMus cle
ofuran osyl
ĠDa ily
Ġneighbo uring
uber tal
Ġslu dge
ĠLabo ratory
Ġdeaf ness
Ġemphyse ma
Ġjug ular
Ġstrych nine
Ġingre di
Ġmepy ramine
3 15
E le
J L
c i
r A
s izing
t olu
u ff
z ole
Ġw ind
Ġw aking
Ġan abolic
Ġb out
Ġf la
an alysis
le vel
ec ium
ec onomic
Ġn id
ĠT S
Ġth ro
ol gus
Ġis th
Ġde alt
di ethyl
ĠA ct
Ġres ide
Ġme q
tr iflu
ion ized
Ġal prenolol
Ġcomp ares
Ġle an
ĠP ulmonary
ĠM ass
ĠB HK
ĠN ucle
de te
Ġph yc
ma gnetic
Ġcor neum
end it
Ġam ikacin
ĠG P
rop hen
Ġacc umbens
xim e
Ġnon competitive
Ġnon linear
loc illin
tre x
dep ri
Ġrem n
Ġsulf ates
Ġste ep
Ġmorph ogenesis
otox ins
Ġz onal
Ġthym ectomized
Ġassess ments
Ġprecipit ins
BA LB
adren al
Ġprop ri
Ġmethyl prednisolone
Ġbo rate
Ġlin ks
Ġprolif erate
Ġsperm ine
Ġprogram med
cip lin
Ġrevers ibility
Ġelic iting
Ġuter i
Ġmild ly
ĠEn zym
Ġye asts
Ġsurve yed
Ġcontamin ants
Ġbenzo yl
Ġthi ocyanate
ĠAnal yses
tern ally
Ġfacilit ating
Ġbelong s
ĠSc atchard
Ġeosin ophilia
Ġmill iliter
reduc ing
Ġnig er
Ġagglutin ating
osid ic
Ġpr one
Ġdent ate
Ġquantif ication
Ġsurge ons
Ġcomm iss
ĠMeth ods
ĠDec ember
Ġsonic ated
ĠClin ically
Ġsphe ro
Ġmyocl onic
ĠComple x
embran ous
Ġantin uclear
Ġhypog onad
Ġfertil ization
Ġdisinteg ration
prol actin
Ġantero grade
establ ished
Ġconto ur
Ġtrichloro acetic
Ġfet oprotein
Ġthermol ab
pir ide
icola ou
degra ding
) ).
V L
g h
m orphine
p one
r hea
Ġa ids
ti te
en vironment
Ġs ingly
Ġc lu
Ġc era
er per
an ic
le ad
Ġe rad
ec um
os upp
ĠT T
ĠT ur
ĠT ech
om ically
Ġg a
Ġg ill
un saturated
th ood
Ġde eper
Ġv iv
am id
ĠA e
ot t
ĠI H
ĠI M
op ecia
Ġcell ul
qu antitative
Ġat titude
Ġinc or
Ġanti p
iz o
Ġle t
ĠH el
ip hene
Ġph y
cy tic
ĠL ate
amin ob
ves ical
ĠO ctober
ĠG old
Ġdep olymer
Ġfol ds
Ġgen otypes
ogra fts
omy c
Ġmy opathy
Ġextra s
med ullary
Ġtr iazolam
ĠU S
ass aemia
orb ents
Ġtra ffic
Ġcommon est
inc ompatible
Ġax illary
ĠSe qu
Ġfix ing
oryl ate
Ġprop yl
Ġmet hemoglobin
mal ate
anth roline
Ġthyroid ectomy
Ġtur key
Ġmid w
Ġexp endit
equ il
ok es
Ġsch o
Ġlabel s
Ġiod oacetate
Ġsep tice
phen ol
ript yline
Ġstrept ococcus
Ġsten oses
Ġquestion able
termin ed
ĠOp timum
Ġaeti ological
ĠAp ril
fo etoprotein
imb ine
Ġinver ted
Ġvent romedial
ĠGen erally
Ġhisti ocytic
oh imbine
Ġleaf let
Ġintim a
Ġali phatic
Ġansw er
Ġfirm ly
Ġgonadotroph in
omo tion
Ġimmers ion
myel inated
Ġhypoglyc aemia
Ġmandi ble
this terone
Ġdeuter ium
Ġautonom ous
Ġpolio virus
Ġresembl ance
ciplin ary
F SH
G u
S m
S ub
V T
c atal
c omes
h um
u its
z an
in j
Ġt idal
Ġa eration
ti p
Ġc ine
al se
is oproterenol
ar ters
Ġre new
ĠT im
Ġth ous
Ġl ist
im amide
ph ysis
uc hes
ig ella
Ġex it
ĠI B
ĠI b
Ġen um
Ġinc a
ad a
Ġsp arse
Ġle pt
tro pine
ĠP apan
ĠM arch
ound s
ĠB E
Ġph aryngeal
Ġinf un
ĠE r
ĠE rythro
Ġun rel
Ġun fixed
Ġun recogn
Ġcar rageen
ĠF ed
ĠF EV
Ġall otypic
Ġtrans formations
Ġhyp ocal
end orphin
me tal
ist urb
Ġdi amin
Ġund ere
olu ted
Ġro c
ens ated
gl omerular
Ġbas ophilic
umb er
Ġep oxy
Ġhyper tensives
itu it
Ġcase i
Ġchromat ophores
Ġaut op
Ġpul v
Ġpul mon
ĠAl most
Ġcross linking
Ġwater s
Ġcoun ters
arc omas
Ġden aturing
Ġpsych iat
po ints
Ġve ra
Ġdissoci ate
Ġplac es
Ġdimin ishes
tryp tamine
su ed
Ġpharmac ologically
Ġthromb us
Ġpenicillin ase
Ġheterogen ous
Ġmechan ically
ĠCM V
fib rils
Ġcomputer ized
mat urity
Ġarteri oles
Ġthiol s
benzo yl
Ġblast ogenic
hydroxyp ro
Ġmis sed
Ġsimpl er
Ġscin tillation
Ġdeoxyrib onuclease
Ġflex ible
cys ts
ĠGu inea
glu taminase
Ġinsec ts
Ġvill age
ĠCI E
Elec tron
Ġbronchodi lator
ĠEv aluation
Ġadduc t
Ġfoetus es
Ġmedias tinal
Ġging ival
Ġmicroelectro des
Ġloose ly
oflu orene
antagon ist
Ġnecro tizing
Ġfoss a
Ġanore xia
Ġbiphenyl s
Ġarres ted
Ġmini ature
Ġtuber cle
Ġpromp ted
Ġsuble thal
Ġwal king
Ġthermolab ile
' t
T e
c os
h aus
n ce
n ous
r heum
Ġp ell
Ġp ero
Ġin version
Ġw rist
Ġan c
ro fen
is ters
is tically
Ġf imb
ar g
Ġre paired
Ġto pic
at able
ul are
Ġth ioridazine
th rough
ac ia
ow l
ib rin
ĠA N
ĠI MP
op henyl
op enic
ĠC lass
Ġen ters
ad ders
Ġper one
ĠS ensitivity
lec t
ĠP en
Ġne omycin
ĠM F
ĠD ic
ĠH MW
Ġun labelled
ome gal
ocy anine
Ġass umptions
ep one
ves sel
Ġev ap
ĠG DP
Ġli k
Ġdes tructive
ron tal
ag it
ak er
mo tive
Ġnon immune
Ġpoly nucleotide
Ġover lying
Ġ19 0
Ġran k
Ġaffec tion
ĠAn tiserum
Ġmit oses
(- )-
Ġsl opes
activ ities
14 0
Ġcontinu ity
onucle ases
lutam ate
Ġpanc uronium
Ġpain s
ĠEx tensive
luores cent
Ġchol ate
Ġmid line
Ġprogram mes
Ġolig omers
opha g
Ġexerc ised
Ġretro peritoneal
bloc ked
Ġcaps id
Ġpure ly
Ġeth inyl
Ġhemat ological
Ġlyso lecithin
Ġpol l
yle thyl
Ġduc tal
orr he
Ġrelap sed
ĠHist ologically
Ġalkyl ated
Ġassign ment
Ġtyph oid
Ġintermedi ary
Ġanastom oses
He J
trus or
Ġmycel ial
Six ty
Ġindus try
Ġtro ub
ĠEle vated
Ġrotation al
Ġthermos table
determin ed
Ġtroph oblast
ochrom ocytoma
fuc osidase
ĠProl onged
Ġcephalospor in
Ġturb idity
obi ose
ĠTum or
ĠVari ations
eld rin
Ġhab itu
Ġdispro portion
Ġobli que
Ġalkalin ization
Ġplasmalem ma
ayas u
hydroxypro gesterone
1 14
A cetyl
F V
H GG
K LH
X Y
Z n
c he
d ate
g p
p ip
u x
Ġt amp
he art
Ġs nake
Ġp ons
an at
at ched
Ġn om
om atis
Ġl umin
Ġl aryng
ce ramide
uc k
th iazide
if ies
di amin
ot onia
Ġch yl
Ġch rys
Ġal ga
Ġal opecia
ran dial
ia bility
Ġen flurane
Ġ2 30
Ġinc is
Ġsp onge
Ġad ul
ĠS taining
ĠS tate
ĠP ron
Ġpo uches
ĠE stim
ĠF rench
ren ess
Ġsub m
Ġr im
Ġk J
ĠO F
ĠG ross
gn esium
Ġ7 50
Ġinter molecular
Ġpl atinum
ap t
Ġdi phosph
Ġdi hydroxy
Ġqu enc
Ġend ocytosis
Ġins om
Ġelectro genic
Ġperiod icity
ans yl
Ġsc ars
ĠV en
ĠV ibrio
oph thal
Ġrepor ting
In vestig
Ġion ophores
erc ise
Ġcharacteris tically
ule x
Ġ11 8
Ġtri am
osp irillum
Ġerythrocy tic
ĠCh agas
Ġrepl icated
Ġsero group
Ġnm oles
Ġminim ally
Ġminim ize
PA S
Ġconver ts
Ġsulph ur
Ġreag inic
Ġdepos it
Ġbrom o
ĠComp arisons
Ġcaps ul
Ġcatal ysed
Ġprojec ted
Ġhyd ralazine
organ ization
Ġexclu ding
Ġdihydro streptomycin
ĠBi ochim
Ġsumm ary
Ġarteri osus
Ġcompati bility
Ġdocum ent
my osin
Ġabsorb ing
Me asure
din itrophenyl
Ġaspi rated
len a
Ġoxal oacetate
Ġagg ression
Ġpresc ription
hep arin
Ġstoichi ometric
Ġparad ig
Ġrepro duced
calc ium
Ġanaerob es
Ġanaerob ically
Ġguide lines
Ġincon tinence
Ġbiom ass
Ġq a
ogene tically
ĠForm ation
ĠCombin ed
Ġstereotyp y
omuc oid
Ġchimpanze es
Ġimmunoelec trophoretic
ĠEnterobacter iaceae
Ġamn esia
Ġfluorome tric
ĠAustral ia
phosphatidyl choline
Ġlyophil ized
Ġultrason ography
ĠRhiz obium
Ġlanth anum
Ġamput ation
Ġtrach omatis
Ġarchite cture
Ġrhab d
Ġefficac ious
Ġdiphen hydramine
Ġethacry nic
stilb estrol
Ġsoph istic
Ġscho ols
Ġinca pable
B ecause
t oc
u ded
Ġt il
on i
Ġb are
it ches
it rile
or is
ent re
Ġn os
ĠT M
ĠT AT
Ġg lycero
Ġwas te
ac ral
Ġis othiocyanate
Ġpro spectively
if uge
Ġv ide
oc o
ib b
od oxin
op timum
ĠC y
Ġdis pos
Ġad ditions
ĠP rob
ore r
ore ctal
ĠM H
ĠD ow
ĠD ose
Ġun re
Ġcar c
Ġall ocated
end ym
Ġcan ce
Ġpar turition
Ġam idase
amin ofluorene
ĠG LC
Ġmo od
Ġmore over
Ġes terases
Ġphosph otung
erg ot
ody nam
ĠK d
Ġmy coplas
Ġqu arter
Ġso ut
Ġradi os
Ġpoly cyclic
Ġep it
ĠV er
az ide
Ġglyc yl
fer ritin
ĠAn y
Ġleuk osis
Ġradio isot
methyl ene
Ġoxygen ated
Ġadv ancing
ime ter
Ġver bal
Ġrestric tive
Ġhex am
Ġcop y
Ġglu ten
Ġbar riers
Ġbra chial
Ġrh od
Ġtuberc ulous
ĠDA B
ifferen tiation
Ġduc k
Ġhapten s
Ġpu erper
Ġblast ogenesis
Ġdestro y
Ġdiethyl aminoethyl
Ac ute
Ġlep romatous
ĠQu anti
Ġsynerg ism
ĠAss ociation
Ġdup lication
Ġnas cent
Ġisomer ization
Ġsheath s
synthe sizing
Ġgyn aec
Ġbull ous
Ġsphe rop
Ġimpregn ated
Ġaceto acetyl
Ġoblig atory
Ġhyste rectomy
lore lla
usp ension
Ġdialy zed
Ġherni as
Ġpyel onephritis
Ġperoxis omes
ĠAuto radi
ĠDetermin ation
eclamp sia
achloro cyclo
Ġpolymyx in
Ġbirefring ence
Ġcoarct ation
ĠPapan icolaou
C ul
M ice
P W
R T
a ud
f ur
j unction
n ar
n ourished
o ub
p ter
t osis
w all
y rin
Ġt ones
on ents
Ġo int
Ġs la
Ġw iden
ro zen
ro hydride
as paraginase
ic ate
Ġde phosphorylation
Ġde trusor
ut ter
Ġra ys
op l
Ġcom es
ĠC TP
Ġse aw
ad ed
ad olol
ant oic
Ġper ine
ĠS urgery
ĠM uc
ĠM ouse
ĠM aternal
ĠM Hz
ĠB N
ĠB S
ĠB re
hen tic
Ġco il
Ġco enzymes
Ġun su
Ġun stimulated
ĠR V
Ġag itation
ting ent
ĠTh ym
Ġr he
ep tides
Ġam it
Ġam oe
inding s
Ġst ump
Ġ10 6
Ġvar ices
ath ion
Ġcons erved
ĠK ong
Ġintra cardiac
Ġqu ies
gl ia
Ġabs orp
Ġins pec
Ġins truc
Ġins piratory
iden ces
Ġcharacter s
Ġgra vity
Ġhis tamin
Ġlong us
co umarin
ĠAn a
Ġcyc ling
Ġaut olytic
Ġtra um
Ġrever sion
Ġrece ives
Ġresid ent
ochond ria
esis tance
Ġsubstan tiated
ĠSe vere
Ġhaem olysis
Ġnod ule
Ġanaly se
Ġfer tile
Ġrecogn ised
Ġintens ified
17 0
Ġelu ate
Ġhex ach
Ġgangl ionic
Ġster ic
phen idate
BL M
Ġparticip ants
Ġmum oles
Ġpreser ving
tron idazole
Ġvolunte er
Ġhum or
Ġdiaz o
ĠBi ochemistry
inter val
Ġcry os
par tic
Ġenter ing
Ġincomplete ly
Ġdiscrimin ative
ĠSignificant ly
bre eding
Ġdissemin ation
Ġsick ness
Ġreplic ate
Ġproc ainamide
Ġbring s
ĠRel ative
Ġsediment ing
nucle oside
Cell s
was h
Is olated
ĠComple ment
polym er
Ġwash out
ĠObs ervations
ĠGerm any
Ġconvales cent
Ġabrog ated
Ġankyl osing
Ġoper on
Ġinstant aneous
Ġcongru ent
ĠSy rian
epilep tic
Ġintellec tual
Ġnid ulans
Ġincor rect
Ġundere stim
Ġseaw ater
A z
B N
D es
M SV
P EG
R b
b en
f rac
f irst
l ity
o ter
r C
w ere
Ġ ri
in ia
Ġc ock
Ġp ill
as te
Ġd ed
Ġd urations
Ġf ilar
or se
ing ers
Ġh am
Ġl ing
ur in
Ġ( +)
il le
od rine
ĠA ge
Ġex ocytosis
op ia
Ġal imentation
ĠC erebral
Ġdis trict
Ġsp astic
iz zard
Ġ3 000
st ro
ĠH ar
ug lena
ĠB D
ĠB ence
ĠN EM
Ġpo ke
Ġinf lamed
oth in
Ġmic elles
ĠE ither
Ġcar in
pl acement
ĠR O
Ġr ic
ara s
Ġk Pa
Ġam e
Ġev idently
Ġpl ating
hem ia
Ġfol ding
Ġfol ded
ap sed
Ġdise quilibrium
ast rectomy
ak ary
Ġnon f
Ġox azepam
Ġextra ctable
Ġabs tinence
Ġend oscop
pro gesterone
tid is
Ġmal tase
oly s
Ġsc rap
ole rance
Ġpa paverine
Ġmuc ins
Ġlip ogenesis
Ġlip ofuscin
Ġprol apse
Ġchromat ographed
Ġcap ture
yr uvate
Ġion toph
Ġcle an
Ġste el
Ġ13 6
Ġ13 7
immun odiffusion
DH A
ĠJ ones
Ġpsych o
Ġpotenti ating
Ġpneum ococcus
Ġsex ually
Ġthird s
diol s
Ġsw allow
Ġchallen ges
Ġhex osaminidase
Ġsuppor tive
Ġdepression s
Ġta u
enter itis
Ġthick ened
iat um
EP s
Ġnore thisterone
Ġidi otypes
Ġphag ocytes
Ġcommun ities
ĠRec ently
obacter ial
Ġtransf ers
Ġpol aro
thym ic
ĠMa jor
Ġadverse ly
Al pha
Ġcoinc ide
ĠPa O
Ġfavo urably
Ġepidem iologic
Ġsuccessive ly
ĠCP Z
Ġherpes virus
Anti bodies
Ġpresc rib
Ġscle rosing
Ġdent in
ĠRep ublic
phil us
Ġaminoglyc osides
Ġspo radic
Ġintercon version
Ġcalor ie
olig o
Ġinfrequ ently
Ġselen ium
ĠAden osine
perme able
glycero phosphate
Ġharm ful
Ġimmunocyt ochemical
Ġhall ucin
Ġquant um
Ġthyrotroph in
Ġmurm ur
Ġhypok al
Ġchlorm adinone
Ġepider moid
Ġfascicular is
Ġshrink age
ĠSchist osoma
Ġbatter y
Ġseptice mia
Ġpulv inar
Ġtroub les
ergot rile
1 60
M SH
N o
P FC
R BC
e ting
f all
l on
o phosph
p I
r ins
s alt
u f
u ta
in tra
Ġp oc
Ġp ontine
ra tio
es pecially
Ġb all
or ted
le thal
Ġre ward
Ġh us
ĠT r
Ġl ign
Ġcon den
Ġbe ars
ph ora
oc ulation
il a
op or
ran ular
Ġse venty
Ġse venth
Ġanti toxin
Ġper istal
ĠS s
ĠS il
ch aracter
ble ms
st atin
ĠM DH
ĠH ol
ĠN ov
Ġacid otic
Ġinhib itions
Ġun co
ĠF em
ĠF icoll
Ġcor on
Ġall erg
Ġsub epithelial
ogen eous
ĠL ep
tem poral
Ġreg ulator
ap ac
Ġtyp ically
ne t
Ġdi eldrin
ery th
Ġdevelop ments
loc us
tid ases
Ġover sh
Ġtr p
Ġinv olution
Ġ12 2
tif en
Ġcalc ified
Ġpath ologically
Ġglyc osidases
Ġpost traumatic
In f
Ġace taldehyde
Ġcle aring
trans peptidase
Ġte ac
ord ered
Ġmac ron
anol one
Ġneuro tic
ĠCh lorella
uv ic
tac hed
neum onia
ria ge
acetyl neuramin
Ġlife time
Ġqual ities
Ġstri ate
den atured
Ġmol lus
Ġpharmac ology
Ġhex amethonium
flu ramine
Ġster il
Ġmening ococci
opa que
Ġ196 4
Ġobjec tives
Ġexogenous ly
Ġquestion ed
Ġgalact osamine
Ġreason ably
roc lor
Ġpene trating
ĠGroup s
Ex tra
Ġmucopoly saccharid
ĠPer ipheral
Ġpersistent ly
Ġdra stic
no radrenaline
Ac id
Ġsudden ly
Ġcyto lysis
Ġmicrotub ule
Ġsalic ylic
Ġphyto haemagglutinin
ĠSeven teen
Ġaber rant
Ġprotect ing
Ġmanip ulations
Ġburs a
ĠConc omitant
opyr idine
Ġarc uate
Ġundes irable
Ġexpec tan
Ġveh icles
transpl ant
Ġhisti ocytes
Ġgover n
Res ults
ĠCul tures
omyce tes
Ġproges tin
Ġembol ization
Ġcephalospor ins
Ġendoc rin
amn ose
Ġdemyel ination
prob ably
Ġpot ato
aba ena
ĠSep tember
Ġkain ic
Ġhypocap nia
Ġquoti ent
methylumbellif eryl
Ġfulmin ant
depri ved
Ġconden sed
/ [
C V
S tre
S pecific
f ig
f el
m eric
p eroxidase
y ly
Ġa ver
ti i
Ġo m
Ġp si
Ġm U
Ġm ira
Ġe ighteen
ol ding
Ġl ae
Ġl avage
Ġ( (
ac illin
if erol
Ġv iol
ĠA v
Ġex o
Ġres c
ĠC yclic
ĠC ulex
Ġen anti
Ġsp ac
ble t
st and
ĠD I
ip olar
ĠB LV
Ġapp ropriately
Ġpo rous
ĠR ates
Ġconcent ric
Ġform ations
ĠL M
ĠL ater
Ġobser ving
Ġli ters
Ġblood stream
Ġphosph oprotein
ven tion
Ġpur p
Ġpur ulent
Ġloc omotion
ĠV ir
Ġ12 4
ior hodopsin
sin ess
Ġbacter iorhodopsin
Ġaut hentic
Ġevalu able
Ġhem ocyanin
Ġconf luent
Ġtra pped
chan nel
other mic
Ġremo te
rose tte
ura tive
Ġaccum ulations
Ġreduc tive
Ġlac tis
Ġhomogen ization
Ġure teral
Ġsleep ing
Ġinterv entricular
16 5
Ġcre ate
Ġelic its
OH DA
Ġbic ycle
ĠHe tero
Ġcop olymer
Ġhelp ed
aw a
tri phosphatase
ocar zin
Ġpreser ve
ĠCell ular
phyll ine
Ġtop ically
Ġpreced e
Ġartif act
Ġglob ules
Ġchlor al
Ġchlor inated
Ġcompe ted
opo rosis
Ġelectrocardi ograms
Ġillus trates
Ġnig ericin
Ġge ometry
Ġbed s
Ġfluctu ation
ĠEight y
oxyp henyl
Ġrational e
Ġatmosp heric
Ġinver teb
Ġinp atients
Ġcu ticle
Ġalg or
perm issive
Ġgover ned
Ġmerc aptoethanol
Ġexcep tional
Ġfuc ose
Ġoblig ate
ĠExtra cts
Ġrating s
Ġhypophys ectomized
Ġpropos al
Ġmeaning ful
Ġoncornavirus es
ĠBur k
ensit ometry
ovan illic
meas ured
ĠSubjec ts
iforn ia
ĠXen opus
vulin ic
ĠSympt oms
Ġlat tice
Ġextras ystole
agit tal
H SA
H SV
O ur
T I
V O
e termined
k era
k allikrein
o cele
s ues
s ize
in der
Ġa y
re tin
re tinal
Ġc res
Ġp on
al o
ra table
Ġm umps
Ġre aring
Ġto ols
at ally
Ġn ong
Ġn onse
Ġl ongest
Ġcon e
ph or
uc hen
th ys
oc oag
ity l
il aments
ot opic
ati de
Ġres ides
ĠI N
Ġch ord
ĠC yclo
Ġse rop
ad ow
ad mill
Ġle ave
Ġsh aring
Ġpre existing
ch us
st yrene
ide m
ug ar
de velop
tor ical
Ġpo orer
Ġ4 000
Ġpos tex
Ġun con
Ġun ilaterally
ab ric
ĠF ragment
ormal dehyde
ren ic
tal bumin
Ġsub end
Ġsub set
Ġ6 000
Ġmeth acrylate
Ġam iloride
ĠG ly
Ġinter ne
Ġmethod ological
Ġocc lusions
Ġcul turing
Ġbi ochemistry
Ġpoly ps
Ġsc i
Ġtem plates
Ġcalc uli
Ġphen obarbitone
ene f
Ġconf usion
Ġselec ting
Ġsl ime
idne y
Ġsol ved
Ġneut ron
ring ens
Ġprop ria
Ġprov oke
Ġlit ter
Ġbil ayers
tral ogy
amino azobenzene
Ġcys te
Ġap nea
Ġmes encephalic
dex tran
Ġcollec tions
ora ble
Ġsubstitu tions
flu or
Ġiod ination
Ġster ility
197 0
Ġnit razepam
wh ile
Ġstom atitis
Ġnar co
fil ament
Ġjud ge
Ġcorne as
Ġhemag glutinating
Ġstop ping
Pro tein
Ġcry ostat
ari ate
Ġpac king
Ġcas tration
ocortic oid
Ġindis pens
Ġspectroscop ic
Ġequip otent
Ġkary otypes
Ġpr ur
Ġdib enz
Ġbot tom
Ã¶ m
Ġdecom pression
Ġconges tion
Ġbacterio phages
Ġvill ous
Ġdomin ance
Ġmong rel
ĠMT X
Ġrein ner
ĠDR w
Ġconv oluted
Ġmaca que
Ġcot ton
Ġdiphenyl hydantoin
Ġradioiod ine
Ġdistor tion
carboxyl ic
ĠSto kes
Ġcontract ing
Ġaddic ts
Ġcomprom ised
ĠRhod ospirillum
Ġinsemin ation
dithi obis
hap ten
ĠSarc ocystis
Ġhir su
Ġdiscern ible
ĠPenicill ium
Ġunrel iable
ocarzin ostatin
Ġalgor ith
C ol
E nd
M ale
S ta
T BG
c ation
c are
d imeth
s he
s ig
en kephalin
Ġs oma
ro t
es ted
Ġb lastic
Ġf ishes
id ental
ĠT ime
Ġl if
ter yl
ph ot
th ing
ac cep
Ġac to
Ġv itell
Ġas phy
Ġme ter
Ġsu itability
Ġen erge
ad j
Ġsp as
ĠS ynthesis
Ġsh aped
lu g
Ġhe if
ĠP red
ĠP rin
ĠP BL
ĠM L
ĠD iff
ĠD em
ĠD iss
ĠIn dia
de pressive
Ġph yt
si veness
Ġapp ra
Ġco h
ct omized
Ġca ge
Ġno table
Ġser ving
pha e
Ġk cat
amin ar
ĠO uabain
Ġmo unting
ĠW ater
Ġy ohimbine
ogra ft
Ġocc ure
ne oplastic
Ġes trus
Ġphosph orib
Ġsystem ically
ron ectin
Ġcons tra
Ġsta c
Ġpoly amines
Ġgra des
Ġmuc oid
Ġpara f
Ġpara magnetic
occ al
Ġ14 4
ĠNa K
yr id
Ġaut oc
Ġmut ual
hy alin
ick en
orb ic
Ġcur v
Ġradio aut
Ġ11 6
Ġ11 9
Ġcr us
Ġfive fold
Ġos molarity
Ġadv ocated
Ġeff luent
Ġinactiv ates
Ġda iry
Ġov ulatory
Ġdys p
Ġtole rogen
SA g
cyc lines
ĠPro gram
Ġcapa bilities
Ġtransc arb
ritis h
Ġdiv isions
Ġprost ates
Ġsubstitu ent
Ġband ed
Ġpredic table
odi phosphate
ĠHe at
ĠY or
Ġserotonin ergic
Ġpent obarbitone
Ġsuperior ity
Ġbur ied
ĠCom plications
ĠEn gland
Ġpass es
pyr idyl
tub ocurarine
Ġprojec ting
ĠAg ain
ĠStre pto
Ġaccele rate
Ġventil ated
ĠImmun ological
deoxy glucose
Ġexplo ratory
chloro ethyl
orrhoe a
Ġmye lo
Ġge ographic
Ġchor io
phys iological
Ġgold en
Ġflo or
Ġmineral ization
cereb ro
Ġflex ion
Ġspectrophot ometrically
Ġstabil ize
ĠNO R
Ġstandardi zation
Ġbot tle
Ġlute um
Ġrod ent
eli hood
Ġbenzyl penicillin
Ġrecover ies
Ġsap hen
Ġwavelen gths
Ġdeline ated
Ġpractition er
Ġbin ocular
Ġerythropo iesis
Ġhol oenzyme
Ġantihistamin ic
Ġfen oterol
Ġmodif ies
ĠSero log
Ġcran io
Ġtrabec ular
Ġsphingomyel in
Ġliqu or
ĠChlam y
Ġhygi ene
Ġantim ycin
Ġvasocons trictor
Ġradionucl ide
Ġintellig ence
orrhe ic
uchen ne
B etween
M ouse
N R
O x
c en
c annab
g ers
i h
j Ã¶
m oles
p erature
s n
te ction
Ġc ast
Ġc occi
Ġd ies
or th
er i
an tiserum
ar ine
le uc
le ge
ing e
ĠT LC
th ion
ac ridine
ow ard
il k
Ġch olic
Ġ2 25
ad ministration
ĠS W
iz ine
igh ter
ĠM CD
ĠD uchenne
ĠH a
ma ximum
ĠF us
ĠF luorescence
Ġsub sets
Ġpar ity
ater als
Ġind welling
Ġobser vable
ech anisms
ie u
ĠG FR
Ġ10 9
Ġmo tivation
tin ct
Ġar gent
Ġdep artments
Ġdes methyl
Ġcol orectal
ap illary
Ġstr ing
Ġdi isopropyl
Ġlymph osarcoma
Ġdisc over
Ġab lation
Ġfac es
Ġdia gram
Ġintra hepatic
rap amil
Ġpresent ations
Ġinte gra
trib ute
ĠU rine
ĠV itamin
Ġ12 1
Ġ15 5
othe li
Ġcardi olipin
omen cl
erc ulosis
Ġpop ular
ocardi a
olar izing
lin ing
ord ance
Ġdiss ip
Ġbound ary
erox ides
ĠSe lective
fac lor
ĠAd riamycin
Ġintracellular ly
Ġtit ratable
Ġreflec tion
Ġcholes teryl
Ġolig oclonal
Ġtrac ings
ĠPG I
Ġoff ice
Ġfav ored
Ġoes trus
Ġphospho transferase
Ġabol ishes
aps ular
nic otinamide
Ġdegen erated
Ġcorrespond ence
Ġbur den
Ġsens ation
phenyl enediamine
Ġreser vo
Ġsymp athe
sh ock
Ġcontrac ture
cul us
ĠDe velopment
Ġpolymer ized
Ġchlor ine
CM V
Ġtechn ically
ĠLi Cl
HB e
Ġchondro itinase
MA O
Ġorth ostatic
gal ac
Ġfavo ured
Ġpredomin ate
Ġeluc idation
Ġcoll aterals
Ġecon omical
Ġmycel ia
Ġhyperg lyc
Ġrend ers
ĠPhosph oryl
Ġadop ted
arth rosis
Ġmeg akary
Ġhemodi lution
Ġpenicill amine
Ġepi physeal
carbox ymethyl
Ġerythropo ietin
Ġtons il
Ġshed ding
Ġstereotyp ed
Ġiodo acetamide
ĠFall ot
ĠMac ro
Ġeros ions
Ġphyl ogenetic
Ġbim odal
Ġgallst ones
omyc osis
Ġadul thood
Ġcarc ass
Ġpoke weed
omencl ature
5 37
B E
L DH
M any
R inger
T otal
f ord
p ur
s l
s mo
v an
v ant
x ane
on ly
Ġw ards
es terase
as ting
as tric
an one
os age
os itis
us ible
Ġh o
Ġh ay
Ġcon ve
Ġis sues
Ġde b
Ġde formation
ib acterium
ot us
ĠI on
ĠI od
ĠI SO
Ġme tac
ran ol
ran dom
ĠC Cl
Ġdis accharide
Ġinc idences
bs ter
ĠS EP
Ġsh ap
ĠM ill
ĠB ra
ĠB ri
ĠB SP
tor iness
ros es
era bility
Ġtre admill
ĠF indings
Ġreac tants
Ġreac tivated
Ġr ules
ĠL VH
ĠG BM
Ġli ved
Ġreg ime
Ġreg ained
iss ible
Ġab dom
ach y
ĠK epone
Ġfe et
Ġox ym
niqu e
ĠU s
ĠV es
ole ate
Ġ12 9
Ġproduc tive
ful vin
ov ulatory
Ġte x
ĠAt tention
ex cept
Ġtryp tamine
osp ores
Ġdiss ected
Ġmulti ply
Ġsubstan ti
Ġdiagnos tics
Ġemb oli
ĠWith out
Ġhetero chromatic
greg ation
Ġinactiv ator
Ġlo ts
Ġrepl acing
Ġacetyl ated
Ġminim ized
Ġphot osystem
Ġcollagen ous
atis m
den um
Ġsolub il
Ġrecur red
sec ond
ĠHe patic
sulf onyl
Ġoste oc
Ġgo ing
Ġgo blet
Ġinsu ff
Ġjo ined
tub ular
tum our
Ġeth nic
tern ational
fib rate
Ġpreced es
CM L
Ġcircum sc
Ġhydroxyl apatite
Ġarteri olar
Ġmuta genesis
termin us
opy ramide
Ġaccom mod
hist ochemical
ĠEA C
phosphoryl ated
zo ite
ĠDep ending
Ġmicroorg anism
Ġwar ran
Ġkin ases
Ġhandic ap
Ġrup tured
Ġdehyd ratase
Gl n
Ġvector cardi
aggreg ation
ĠUltra structural
synthe sis
Ġaccid ental
ĠPB I
Ġunexpected ly
Ġoutbreak s
ĠCal ifornia
Ġaceto acetate
ĠHep atitis
embran es
Ġcentrifug ed
Ġmotone ur
Ġethylenediamine tetraacetic
Ġconflic t
Ġcandid ates
case in
Ġstrateg ies
Ġovid uct
circ uit
Ġadreno ceptor
asse mia
Ġwrit ten
ĠGn RH
triflu orome
omegal ovirus
Ġlik elihood
frac ture
Ġmira bilis
1 10
B ased
O r
T dR
i j
i ver
m os
m otor
o fulvin
s yl
s ided
s urgical
w ide
in iti
Ġt ab
ti form
en tero
Ġs ent
Ġc ity
Ġc ited
Ġb ub
is olated
Ġm ithramycin
it ate
it tle
ar us
Ġre ared
Ġto ur
at t
id den
ĠT D
ĠT I
ĠT it
ĠThe rapy
th reshold
ac o
ac hes
Ġis other
Ġde amination
ow er
il um
ĠA la
ĠA verage
Ġres ections
Ġra w
Ġra ted
Ġor chi
tu arial
op ent
duc ible
ĠS CN
ĠS JL
lec tivity
ĠP assive
one y
tim ulated
pl us
pl ace
pl enic
pl atinum
ĠF rance
ĠF MN
ĠF ITC
ĠR ib
Ġno x
Ġwe ig
Ġr DNA
pha gia
Ġsy ph
Ġmeth an
Ġdec ades
ĠG om
ond on
me try
Ġsubs p
Ġcyt opathic
Ġpoly vinyl
Ġelectro coagulation
Ġglyc er
ĠThere after
Ġproper din
Ġhom ovanillic
Ġneur one
imin ation
Ġsepa rations
Ġmorph ometric
Ġbeing s
eren tial
Ġvas omotor
methyl transferase
Ġmac ular
Ġz o
Ġcontinu ation
gluc uronic
Ġana esthetics
Ġrib ulose
vir al
Ġsero groups
Ġnor th
Ġhypothe tical
PA G
Ġpotenti ometric
Ġdam ages
Ġpyr rol
Ġemplo ye
Ġampl ification
ĠAc tive
ĠPG O
Ġsw itch
Ġretro spectively
Ġer rone
Ġultrastruc turally
Ġposi tives
Ġhour ly
Ġpal p
DA B
typ ing
Ġandro st
Ġandro genic
Ġchl amy
para ble
Ġgalact osyl
ometr ical
Ġsafe ly
Ġlamin ar
Ġcirrh otic
Ġaccess ibility
Ġroset ting
omorph ological
Ġmas tectomy
Ġleg al
Ġacyl ation
Ġge ometric
Ġclus tering
Ġdiethyl stilbestrol
Ġcephal othin
Ġlipopoly saccharides
Ġadmission s
Ġassis tants
Ġpacema kers
Ġpas te
Ġradiolab elled
Ġsymme try
Ne w
ĠDHA S
tetrahydro folate
ĠRa ji
Ġmong ol
Ġmesh work
androst ane
Ġchimpanze e
Ġarsen ate
Ġlymphocyt otoxic
Ġunfav ourable
perf used
ĠConside rable
Ġencaps ulated
hydroxyindole acetic
hav ior
ĠPW M
Ġthro at
Ġquies cent
C u
F T
H MM
L ip
M L
b asal
c an
c entral
d ark
f luorescence
g onal
g radi
i ram
j unctional
m ug
m orph
r un
s low
s ympath
Ġ ign
on c
Ġo ro
Ġin timal
Ġan throp
as i
Ġb erg
Ġf aint
an tic
ĠT R
ĠT ub
un ter
ur us
Ġcon tem
Ġbe ams
th at
Ġpro coag
Ġde trim
il ding
Ġex em
Ġex ternally
op ur
ĠC urrent
Ġsp er
Ġad mix
st omy
ĠM es
tes ts
ĠB w
ten ded
Ġ5 000
per sed
per formance
to in
pa rent
Ġbut yrate
ke ton
ĠE uglena
Ġun controlled
ab eta
ocy totic
Ġform yl
Ġmon oph
Ġmo unt
Ġar te
Ġar bit
ĠW here
ĠW estern
Ġval pro
olu tions
ĠK e
Ġintra operative
Ġintra the
Ġplasma tic
pro duction
Ġhyper choles
Ġpa w
Ġpa resis
ulf ite
Ġpara ty
az one
Ġglyc olipids
oplas tin
ĠAn abaena
oxy carbonyl
mit ting
Ġassay ing
Ġdel ays
ocardi ographic
Ġpe a
Ġpart ners
Ġoxy tetracycline
ex posure
Ġultra thin
Ġnitro furan
ĠCon ditions
Ġpsych otherapy
Ġpsych oses
Ġanaly zer
Ġconver se
Ġshe ets
Ġanalog y
Ġphot oreceptor
Ġphosphoryl choline
ĠAm ph
Ġfall opian
Ġgastro enteritis
chrom asia
Se venty
Ġhelp s
Ġinfarction s
def ective
Ġreser ves
Ġmetast as
Ġparticip ates
Ġexcre te
Ġtransf used
Ġformer ly
Ġartif acts
Ġgain s
Ġsynap se
Ġphosphatidyl inositol
Ġple omorph
ĠCA P
ophys ical
PR T
Ġbroad er
Ġchlorp heniramine
Ġtransloc ations
alk aline
Ġcateg or
Ġdepress es
ĠCor responding
ĠSh igella
Ġcond uit
Ġapproxim ated
ĠCP K
prim er
Ġassis t
ĠAM L
ĠDifferen tial
electro ly
mu ram
ĠNine ty
Ġterat oma
naphthyl amide
Ġopera tor
ĠPost operative
Ġaeros ols
ĠPCB s
temp erature
ev oked
Ġ(+/- )-
Ã¼ ll
Ġpestic ide
Ġsarcolem mal
Ġtan nic
Ġadduc ts
Ġspot ted
ĠGas tric
Ġfibros arcoma
Ġpige ons
Ġfum arate
Ġdigit oxin
Ġoc ta
thyro xine
ĠAlk aline
arabin ofuranosyl
Ġdesm osomes
Ġcaro ten
Ġempir ical
Ġpericardi tis
Ġhexa phosphate
Ġcynom olgus
Ġmolyb denum
ĠRicketts ia
Ġbout ons
ĠFed eral
Ġrhabd omy
Ġsophistic ated
yrin th
Ġamit riptyline
oter icin
ĠBurk itt
Ġhirsu tism
yrid am
A R
A ut
A den
E L
M IF
N QO
O A
P r
b ur
h ipp
l itre
o ve
w a
Ġ ut
Ġc rop
Ġp oles
ro om
as ant
Ġd ura
Ġf lic
Ġf its
Ġf erm
or um
or dial
le ft
os ulph
ph os
ĠA roclor
ot ryp
Ġres toring
tu e
Ġme tronidazole
ĠC ancer
Ġen kephalin
ĠS ed
gen eration
ges ia
ular is
ch ase
ĠP Z
ĠP or
ĠP art
ide mic
ĠD erm
ĠD opamine
ĠD isease
ĠIn ternational
ĠB ritish
Ġ5 25
per ience
Ġpo res
ĠE th
Ġtran sep
ĠF ood
ĠR D
Ġtrans glutaminase
Ġsub muc
Ġimmun isation
ĠL S
amin ole
ub rol
Ġdes aturation
ap onic
Ġserum s
lymph ocytic
ensi le
ĠK D
Ġsynthe tases
Ġsupp lies
Ġpur ines
Ġhyper calc
Ġover w
Ġ12 00
Ġnew er
Ġ15 4
Ġj aponic
Ġpul s
Ġsulf atase
Ġexpos ing
Ġte tralogy
activ ator
Ġpep statin
Ġclass ify
Ġfluores cens
char ged
ric ul
ling ual
Ġcoun se
Ġadv isable
Ġperf ringens
Ġlact ogen
Ġmethyl dopa
Ġmagn ocellular
Ġear th
Ġda un
otrop y
Ġve rapamil
raz ine
Ġfam iliar
enzo ic
ĠUn it
Ġinform ative
Ġmor tem
Ġbronch ospasm
Ġmid point
roscop ical
ĠZ eal
Ġads orbent
Ġmil ieu
ĠInc rease
Ġbr uce
Ġglu taminase
Ġoste oid
Ġoste oporosis
ray fish
Ġthin k
abs orb
Ġpic rotoxin
bu tamide
unt ary
otal ol
Ġflav oprotein
alc iferol
inter mediate
pora ry
Ġcounter immunoelectrophoresis
ĠLD L
Ġclo razepate
ste ad
Ġtheore tically
Ġaw ak
ĠSpecific ity
Ġsib s
Ġandros terone
Ġconvul sive
Ġgr id
Ġpyridox ine
ĠOr gan
ĠInf ection
oxyp hene
Ġna phth
Ġpredis position
igen ous
Ġpuber tal
ĠStra in
Ġtriple t
glucuron ide
Ġbin der
Ġconjunctiv al
Ġfores t
ĠTest osterone
Ġali qu
Ġprevail ing
ĠIndi an
ĠDex tran
Ġbat ches
Ġreper to
Ġtachy phylaxis
Ġnasoph aryngeal
Ġeuk aryotic
aceto xy
Ġthous and
Ġchyl omic
odynam ically
Ġunsu itable
Ġinspec tion
Ġoccure nce
Ġprocoag ulant
Ġhypercholes tero
A cc
C NS
O G
U V
] )
b ra
c r
c linical
d C
f a
o int
t les
t opic
w id
on n
on tium
te rene
Ġs ized
Ġp CPA
Ġan ces
es ters
Ġb up
Ġd orm
Ġd oxy
Ġf ingers
Ġe u
ec ond
om m
ith iasis
ter ally
ur rence
ta gen
th an
th iol
Ġac rif
di x
di phosph
Ġv illus
og ous
ĠA G
Ġex onuclease
Ġsu ff
Ġal ign
ĠC V
ĠC Y
Ġse mic
ĠS an
ĠS up
ĠM I
ĠM en
ĠM PS
ĠIn stead
ĠB ilateral
ĠB GG
Ġph arynx
Ġinf low
Ġco vers
ĠE thanol
ĠE PS
pl ant
ĠF L
ĠF HR
Ġmeth oxy
ĠL ung
ĠL yt
Ġtes ticles
ace a
me ters
Ġpl ag
ap yridine
ven ti
Ġsuc ceed
ty rap
Ġnon responder
tis ation
ens es
rib ose
Ġflu o
Ġout comes
Ġpur ify
Ġmetabol izing
ĠV ol
ior k
az adin
Ġu v
Ġneu ropath
Ġace ton
tyl ine
ethyl amine
et ine
Ġtra its
Ġmul tin
Ġmul tis
methyl ated
Ġoxid ize
Ġhydroly zes
Ġneuro toxic
Ġz yg
Ġ17 5
Ġcarb ons
Ġos seous
Ġana phylac
ĠCh an
Ġmethyl phenidate
Th r
Ġlys ode
orn ithine
po tential
PA P
Ġhepat ocarcin
Ġcoup le
Ġmes tranol
Ġparen terally
Ġinterpre tations
Ġattac ked
Ġgastro esophageal
su ing
ok ine
effec tiveness
Ġmetal lic
dim er
Ġsep ta
Ġthromb oplastin
chem ic
ĠEC F
Ġmening i
Ġmening ococcus
Ġtryptophan yl
Ġreser ved
Ġsac s
Ġrelax ant
Ġsatisfac tion
Ġobjec tively
hex osaminidase
Ġentero tox
Ġfore limb
Ġlob ule
Ġmeta phases
ĠImmun ization
Ġsumm ation
Ġintersti tium
ĠHist ologic
Ġpromo ter
CT L
Ġoppos ing
Ġacqui re
Ġdepress or
Ġdiscrimin ant
Ġrefrac toriness
Ġbacteri ostatic
GA G
Anti sera
fe tal
ĠSw ed
Ġbif unctional
leb rand
Ġrifamp in
Ġequilib ria
ref lex
Ġtherapeu tically
Ġejac ulate
ĠIniti ally
Ġbarbitu rate
Ġgangli oside
Ġhypophys ectomy
Ġantin oc
Ġreading s
Ġexhaus tion
Ġfum ig
dys one
Ġpalm itic
ĠTak ayasu
Ġscop e
Ġtransduc er
Ġreticulo endothelial
Ġmarmose ts
Ġcountera cted
Ġcatabol ite
Ġirrig ation
Ġathle tes
Ġrestra int
Ġentrop y
ĠRele ase
equil ibrium
Ġunrecogn ized
Ġspherop lasts
Ġtranscarb amylase
Ġsaphen ous
cannab inol
yridam ole
ĠZeal and
Ġlysode ik
1 15
G C
G lyc
L y
P f
S LE
a rest
c arbonate
d rome
h ar
i tivity
j ejun
n orepinephrine
s er
he avy
on o
on idine
Ġs in
Ġc c
Ġin ulin
Ġw ords
it ants
Ġf le
Ġf abric
an oyl
Ġre taining
at oma
at ments
ul os
Ġn omenclature
ĠT m
Ġg am
Ġg host
Ġpro meth
Ġac anth
Ġac uity
ig ration
di ed
am oe
ĠA uthors
Ġres ins
ĠI sc
ĠI CR
op ramide
Ġcom ing
ys ter
ĠC at
ĠC imetidine
Ġper p
gen eity
ch ond
ĠP age
ĠH p
tor ius
one gative
per i
Ġco bal
ros omal
Ġafter load
iv atives
ĠE d
ĠE ch
Ġun ity
ĠR NP
Ġall ogenic
ĠTh rom
Ġsub aortic
Ġhyp no
ox azol
ĠO C
Ġst ocks
hem es
Ġgen omes
pec t
ron in
Ġmod ulating
tam en
Ġsynthe ses
gl ial
Ġpoly cy
Ġins tituted
til in
Ġmicro cyt
Ġhis tidyl
Ġproduc tivity
Ġ15 3
ĠX Y
Ġamino acids
amma globulinemia
Ġ14 6
truc ture
con trast
Ġ13 4
Ġhydroly zing
Ġneuro endocrine
Ġvis ce
Ġadren ocortical
Ġfix atives
Ġincorpo rating
eti tively
Ġlo oked
Ġmedi ates
Ġbo rohydride
Ġda ughter
ĠNe utral
Ġshe et
yc nic
Ġtetra meric
Ġtetra cyclines
tamin es
Ġintens ification
Ġauto antibody
Ġrepe ating
Ġmig rate
Ġhypothal amo
chrom osome
Ġpy ogenes
Ġadhe re
Ġinterf ered
Ġbur ned
Ġenc oded
Ġrecons tructive
ĠFour ier
CC P
prop anol
Ġpseud op
ostero id
gest rel
Ġmicrome ters
bacter ial
Ġane up
trophot ometric
Ġdepress ing
ĠAbo ve
Ġexud ates
perg ill
Ġconfig urations
Ġkeratin ocytes
Ġterat ogenic
Ġcarbam azepine
ĠHydro lysis
Ġpup s
Ġawa reness
guan osine
Ġcircumf lex
iron olactone
Ġinsectic ides
ĠMorph ological
Un der
ĠPhe ntolamine
ĠEH DP
Ġvuln erability
Ġdith ion
ĠCaucas ian
Ġimmunoc ompetent
omere s
Ġpemphig us
ĠWil lebrand
Ġargyro phil
Ġlymphaden opathy
fem oral
Ġaerob ically
Ġmand atory
Ġautore gulation
ĠDiaz epam
Ġperce ived
Ele ven
Ġphosphotung stic
Ġmycoplas mas
Ġsout hern
wash iork
phora se
thys m
gradi ent
Ġberg hei
Ġtransep ithelial
Ġbruce i
azadin ium
Ġlysodeik ticus
washiork or
1 30
A min
F ifteen
G a
H ep
M F
M od
P y
S pec
W F
c aline
c oded
d o
h i
m RNA
o tamine
p rom
p si
s ac
Ã ¤
Ġ ,
Ġ ice
in duction
on or
Ġs angu
Ġw ent
Ġan ap
Ġan esthe
Ġan oxic
ro tein
Ġd or
an ling
ec ting
Ġh ib
Ġn u
ĠT aking
Ġg aps
Ġg izzard
Ġbe e
th aw
Ġv erm
rom atin
am ido
il ate
ĠA x
ot omized
Ġex terior
qu at
ĠC G
ĠS ocial
ĠP otassium
ĠP recipit
ĠM ut
ĠM ale
ĠM uch
ĠM ason
ĠD B
ĠN umerous
yd ryl
ĠE mb
Ġtre hal
ĠF ailure
all i
Ġmeth amphetamine
ĠL eu
Ġk ynurenine
ost re
Ġmo tile
Ġcol iform
ag o
Ġnucle ated
Ġout ward
Ġend op
Ġpoly ploid
Ġexamin es
out ine
ĠV IP
ĠV accin
Ġchromat ographically
occ up
Ġcarcin ogenicity
Ġaff ord
Ġhal o
Ġneuro hyp
Ġneuro chemical
app ing
Ġbu ilt
Ġcarbo diimide
ĠCh romat
Ġcertain ty
Ġmat ch
essen tial
ĠAd ult
Ġprosta cyclin
ĠPro duction
Ġinduc tive
Ġeight y
Ġcholes tyramine
Na Cl
ĠLe v
Ġadhe sive
Ġretur ns
Ġster ilized
meth od
sulf onate
Ġben orylate
ĠPre gn
cyt osine
Ġintest ines
Ġuni versity
Ġhypers ecretion
Ġcoag ulase
Ġech o
nitro benzoic
-[ (
org anisms
Ġflav us
Ġcry oprecipit
Ġacyl transferase
Ġassign ments
no on
Ġcond yl
len gth
Ġreinfor cing
azol in
odop seudomonas
Ġdiaphrag matic
Ġemul s
Ġsetting s
Ġhaemorrh agic
Ġdisadvanta ge
leuk emia
Ġhistopath ology
Ġconjunctiv itis
Ġconv inc
fuc ose
Ġont ogenesis
ĠMor tality
Ġtax onomic
Inc ubation
Ġtransl ational
ĠCare ful
graft ment
sus ceptible
Ġbru cell
Ġintram ural
Ġepitheli oid
Ġfootp ad
Ġpreponde rance
ĠPron ase
Ġparadig m
ĠDow ex
Ġnarco tics
Ġindispens able
Ġwarran ted
ĠGom ori
Ġanaphylac toid
Ġprometh azine
" -
- ),
G lutam
K g
M o
N MR
R D
g onad
s aturation
u rance
y ears
Ġt ic
Ġt rib
he rence
Ġo mitted
Ġs aw
Ġc rayfish
Ġin e
al an
al mitoyl
Ġan t
Ġan encephaly
es ts
Ġb us
Ġb ird
Ġd ox
it ally
Ġf ur
Ġf ric
ly cin
id ic
ĠT MV
Ġg ang
oc ious
tra ctive
ell er
Ġres umed
op terin
yl ase
Ġcomp ressed
Ġsp aced
Ġad venti
ess ment
Ġsh unting
Ġpre ganglionic
ĠP rec
ĠP atient
ĠM el
ĠD ouble
ĠH age
ĠB ay
Ġph thal
Ġha ploid
per idine
Ġco arse
ĠE qu
por phyrin
ĠF in
ĠR E
ĠR esistance
Ġtrans mitters
Ġhyp oplastic
Ġmeth oxamine
ĠL oss
ves icular
and er
Ġsim ulate
Ġreg ulates
Ġsys tole
Ġlymph oproliferative
Ġcons uming
ĠK CN
ak ia
Ġintra ctable
Ġnon human
Ġhydro dynamic
Ġdete cts
Ġradi oph
Ġdef ence
minis tered
Ġep hedrine
med ium
Ġ12 7
Ġhis torical
be t
Ġphen azine
Ġglyc opeptides
Ġamino phylline
Ġ14 8
Ġcle aves
Ġmut ually
of lav
Ġremo ves
Ġthym idylate
hydroxy ethyl
19 6
Ġmyocardi tis
Ġdig itor
Ġchem oreceptors
adi one
Ġsulph atase
tation al
Ġtur ning
ĠPro blems
Ġplac ing
bic arbonate
Ġdelta H
Ġvisual ize
Ġheav ier
Ġnat ri
Ġher p
ĠLe uc
Ġsil ent
ĠAnti genic
pH i
nat ally
OH D
tetra acetate
Ġretur ning
Ġintro ducing
Ġoste omyelitis
Ġangi ograms
Ġneon atally
Ġpair ing
Ġphag ocy
ipp ed
bu ffer
Ġspermat og
ocl opramide
acyl ation
Ġfeed s
HB c
Ġoccup ation
Ġlear n
Ġslic e
inter pre
Ġureth ane
Ġmacromolec ule
Ġmonos ynaptic
car nitine
Ġsplen ectomized
Ġflex ibility
ocys teine
Ġregis tration
Ġoutp uts
usc les
Ġxen o
ophen one
ĠAmeric a
ĠUltra struc
ĠReduc ed
Ġenerg ized
Ġopera tes
Ġip ratropium
Ġpredis posing
Ġsemin oma
gangl i
leuk emic
Ġmimic ked
Ġpyl oric
Ġtherap ies
Ġtherap ist
Ġcam era
Meth ods
Ġluc if
Ġcili ated
Ġhete rop
Ġcontrover sial
ĠDiagn osis
roplas ty
cyst ine
Ġparkinson ism
Ġamphib ian
Ġterrit ory
calor ie
Qu antitative
Ġmicrofilar iae
Ġplasmacyt oma
ĠLes ions
Ġdrow siness
trex one
Ġmonoph asic
tyrap one
Ġdithion ite
+ +.
G rowth
M IC
O ver
P rim
R a
S K
S al
c ast
c DNA
f illed
h l
m el
u anine
Ġt ilt
Ġa plasia
re pl
ti bility
Ġs ke
Ġs agittal
Ġp om
Ġp oli
Ġan em
Ġd P
Ġm i
Ġm ism
ic an
Ġf owl
an i
Ġre ovirus
ve olar
ve mber
ol ling
ol enic
Ġl ergotrile
Ġg ibb
ur ler
Ġbe an
Ġpro insulin
Ġde acetyl
ut in
Ġas ked
Ġas pergill
ot rophy
Ġra in
Ġor ific
op ulation
ir ror
ĠC re
Ġinc ident
Ġsp ro
Ġsp ong
Ġsp ray
ĠS N
ĠS em
lu de
Ġpre term
Ġhe mic
st ar
Ġne ovascular
ĠD ef
ĠD IC
ĠIn activation
el en
ĠB ow
ĠB iological
Ġha pp
Ġco ugh
Ġmic turition
ĠF l
ĠF ollow
ĠR R
Ġrel ieve
ĠL N
ox al
ox itin
ĠG amma
Ġocc ult
Ġphosph oro
ile pt
Ġvir tue
Ġcons tric
ĠK ing
ĠK up
Ġup right
Ġmy otub
Ġnon toxic
Ġradi ology
Ġpoly nucleotides
Ġins ensitivity
iden e
Ġep izo
Ġep ilept
Ġmetabol ize
anti genic
Ġmicro ti
Ġmicro environment
Ġtr y
och loro
Ġgluc an
Ġglyc olipid
Ġprec entral
Ġ14 7
Ġaut umn
Ġhem ib
ĠAl terations
Ġrever ted
Ġseem ingly
Ġpep tone
Ġvis its
Ġcr ises
Ġneut rop
ĠAs ia
Ġtermin ating
rob last
rob lasts
Ġderiv ation
omal acia
Ġure mia
ĠAd h
ax onal
coh olic
Ġdys entery
Ġchem ostat
Ġfer ri
Ġexplain ing
Ġbre vis
sc re
Ġinform ed
acetyl galactosamine
Ġchol angiography
Ġaccompan y
arch ite
Ġshif ting
EG TA
armac ological
ĠAc tivities
Ġinterpre ting
Ġfar ms
Ġsil k
ĠHB SAg
Ġstar ts
ang le
ang ular
Ġbur imamide
Ġreser pin
Ġcyclo oxygenase
Ġphag ocyt
au tions
ĠtRNA s
fib rosis
Ġsection ing
ĠElec trophoresis
opo lym
Ġuniform ity
Ġvacu ole
Ġhydroxy urea
Ġgerm free
Ġintensive ly
erv ice
Ġclo fibrate
Ġrun s
Ġinstrum ental
AA F
ĠPar allel
Ġcanal icular
Ġlumb os
ĠMy ocardial
Ġdimer ization
Ġfit ting
Ġbacteri uria
Ġmenstr uation
CF U
Ad ult
Ġelement al
Ġirrit ant
Ġdehyd rated
Ġhypother mic
As n
Ġscar ring
Ġcolor imetric
Ġrif amycin
Ġemul sions
Ġhind limb
ĠCons id
hydroxyl ated
Ġpolyc ystic
Ġprofound ly
Ġpapill a
Ġxyl itol
Ġopi ates
Ġperturb ations
Ġroentgen ographic
Ġsporo zoites
ĠOs O
Ġgangli osides
ĠInd ications
Ġcypro terone
Ġconce aled
Ġmer its
Ġfen fluramine
diagn osed
ĠBu fo
Ġthylak oids
Ġcontras ts
ĠNig eria
Ġconflic ting
Ġvuln erable
Ġpolyrib osomes
Ġdecre ment
neur onal
Ġrevascular ization
bir th
ĠPlate let
Ġperone al
Ġgynaec ological
achlorocyclo hexane
Ġoint ment
Ġcarin ii
enef it
Ġheif ers
Ġweig hed
Ġdetrim ental
Ġexem pl
Ġdoxy cycline
olling er
A p
C alc
E ll
E EG
M a
M ar
M ac
S CN
U A
U p
c f
c atechol
f k
f ir
g am
j a
l ay
n utrition
p ired
s uch
Ġt al
Ġt rophic
Ġa te
Ġa eg
Ġs ino
Ġp ial
Ġp seudomonas
as tern
Ġd p
ar lier
Ġto ler
Ġe uch
at ose
Ġn in
Ġl onge
Ġg es
Ġg astrectomy
ta tics
ell ular
ĠA NS
Ġres timulation
Ġres olve
Ġme eting
op aminergic
Ġal imentary
Ġdis infection
Ġsp aring
Ġanti di
Ġper cep
ĠS ulf
lo v
Ġpre kallikrein
ch olec
ĠP y
las mic
ĠM ain
ĠM ex
ĠM phi
ĠIn tral
el ian
Ġafter noon
era cillin
ĠE L
ĠE ast
ial s
Ġun idirectional
ĠF ast
ĠF requ
Ġca pping
end icular
ers inia
Ġimmun ogens
ĠL RH
ĠL ondon
Ġsim ulating
ven tional
ak ed
ance rous
Ġdo ing
Ġcyt omegalovirus
Ġpoly an
Ġpoly cyt
Ġpoly styrene
Ġep im
Ġsc al
Ġpa ed
rect omized
ov ole
fer on
ĠX III
Ġamino acid
In te
Ġtumor al
Ġtumor igen
Ġlab yrinth
ian a
rol ateral
Ġly sin
Ġcur ric
Ġfail ing
con ver
Ġ13 8
Ġoptim ized
hyd rin
Ġhal ves
Ġtri acylglycerol
immun ological
onucle oside
gluc an
Ġorigin ates
arc illin
Ġindividual ized
omal tase
Ġden atu
Ġacetyl ene
Ġgon ads
Ġpotenti ates
Ġtetra chloride
thal assaemia
Ġrecip roc
Ġaccompan ies
nit rophenol
Ġap oprotein
ĠQ ual
Ġexerc ises
Ġoes triol
flu id
Ġbrom azepam
athe red
Ġretro virus
Ġoste osarcoma
phen anthroline
ĠFe w
Ġgo als
Ġmening eal
Ġfa ecium
Ġresto res
Ġsac ral
Ġdors olateral
vis c
Ġback bone
ĠDe tection
Ġprostate ctomy
Ġcontrib ut
Ġabor tive
thym ocyte
Ġhydroph ob
Ġtachycardi as
Ġvacu um
Ġdich loro
Ġdown ward
Ġdegra ding
ĠHigh ly
Ġchel ate
Ġchel ators
Ġbacteri ocin
Ġapproxim ation
Ġaddi tives
naph th
Ġreplic ative
Ġoscill ation
inv olved
ithe cus
Ġsul piride
ortun ately
Intra venous
Ġseed s
amil ton
Ġaller genic
Ġamygdal oid
Ġcentrifug al
Ġdemethyl ation
ĠIndi rect
ĠSK F
Ġgrise us
Ġgln A
Ġunfav orable
Lymph ocytes
Ġhydrop eroxide
Ġmarmose t
ĠInvestig ation
Ġpostp randial
Ġencl osed
Ġosm io
ĠNat l
Ġstran ded
Ġconsult ation
Ġinhab itants
ĠStand ard
Ġbor ne
yly lation
Ġserop ositive
Ġinterne urons
cerebro ventricular
ĠChlamy dia
Ġshap es
Ġoverw hel
Ġhib ern
Ġdigitor um
3 50
: --
A pp
B ovine
K D
M HC
P NP
S im
S tra
b ed
b ond
g ren
i ac
n oea
r ch
t oward
u ine
Ġ il
Ġt ac
Ġt ensile
en h
Ġs hel
Ġc ue
Ġp s
Ġan tine
ro f
Ġm ess
it ros
Ġf ly
os uria
ve ra
om us
Ġl end
im idate
im ipramine
ter na
ur ide
ph an
ac ks
Ġpro ves
Ġac tuarial
Ġv oice
am idine
og s
ĠI nt
Ġor bit
Ġch a
ĠS CG
Ġsh ares
Ġpre load
ch allen
ĠP ul
ĠP ers
00 2
ĠD W
ĠIn deed
ĠB C
ons pecific
Ġco exis
pa ren
ĠE S
Ġun myelinated
Ġtre m
ĠpH e
Ġag rees
end azole
end ai
ĠL ubrol
Ġk washiorkor
Ġind igenous
ĠG a
Ġst asis
ace tin
Ġar rays
ĠW ol
ĠW omen
ĠW HO
cin n
Ġcol ic
Ġreg ressed
ors al
ne uro
Ġlymph olysis
Ġcons truc
hydro ly
Ġmin ocycline
Ġbas ilar
pt ococcus
Ġpoly arthritis
Ġins olubilized
Ġelectro focusing
Ġrespons ibility
Ġequ ipped
Ġlip o
co enzyme
Ġprec autions
Ġcombin es
Ġhist ograms
Ġconsis tency
Ġventric ul
ress ing
Ġaden omatosis
Ġsl it
con traction
Ġ13 2
Ġfat s
Ġhydroly ses
Ġz oster
app arent
Ġpeak ed
Ġeven ly
ĠSe paration
Ġhetero kary
Th irteen
Ġmet at
ĠEx periment
ĠUn til
toph ane
Ġtur tle
tamin ation
tamin ophen
Ġposition al
ĠAc anth
eth ane
Ġlinear ity
ĠPA P
Ġten fold
Ġmetal lo
meth asone
ĠWh ole
Ġnine teen
Ġang les
Ġgo itre
ĠCom mittee
pyr rol
Ġinst ar
yt ochrome
Ġcoag ul
Ġhemoly sates
Ġkera titis
ĠImmun e
icol or
Ġmonth ly
Ġhydroxyl ated
Ġarteri osclerosis
Ġelectrocardi ography
Ġpyro gen
Ġvacu ol
delta pH
Ġhyal uronate
din itro
ĠCor relations
ĠCor relation
Ġpepsin ogen
Ġgold fish
Ġcephal exin
Ġdermat oses
with out
Ġasymme trical
Ġcure t
Ġrig orous
Ġassemb led
Ġquantif y
Ġanticoag ulants
Ġsul cus
Ġscintigra phic
ĠPur ification
Ġhazard ous
ĠGl ut
Ġelabo rate
Ġnitros o
metabol izing
ĠResp onse
Ġadoles cent
Ġrear rangements
prote ase
path ogenic
Ġbronchodi l
Ġenteroc helin
Per ipheral
ĠGre en
Ġneurophys iological
High ly
Ġperitone oscopy
infec tious
Ġpostin f
sex ual
Ġkerato hyalin
Ġwind ow
ocoag ulation
Ġcircumsc ribed
opur inol
Ġreperto ire
Pf izer
Ġperp endicular
ĠPage t
Ġlumbos acral
" ).
B ur
E s
F lu
I le
R ib
T F
T L
g lyox
h an
m ast
o hydrolase
p ol
r ulline
t ol
u ding
y tes
in ner
on ed
Ġin born
ro peridol
ra ts
Ġf iss
ul ine
ol o
Ġl ives
Ġ( --
Ġis ologous
Ġis lands
oc ally
ut roph
ot ri
Ġme tam
Ġme peridine
yl ol
ĠC as
Ġanti pyrine
igh ted
Ġsh a
Ġpre tre
ĠP rac
00 3
ĠD FP
ĠIn jections
ĠB ovine
ĠB alb
ros sed
Ġpos ture
pa que
tim ate
ĠE ss
Ġun toward
ĠF resh
ĠF amily
Ġag ricul
Ġsub dural
Ġhyp op
Ġass umes
Ġcan cell
Ġform amide
Ġdec on
Ġar s
Ġcol ored
ne al
ne ural
ne tium
ensi tizing
Ġhydro genase
Ġins tilled
Ġins pired
arge t
Ġcomplex ing
pres sing
Ġequ ivocal
mic in
Ġpara protein
Ġphen otypically
sy nd
Ġprec ocious
Ġj er
Ġcardi oselective
Ġhom es
Ġleuk aemias
Ġaut omatically
resp iratory
uth or
'- (
Ġtri peptide
Ġstate ments
Ġgeneral ization
Ġbu ild
glut aryl
15 4
Ġlo ok
tac lam
Ġrep etition
Ġsto ols
Ġmamm ography
Ġmamm illary
Ġshe ar
Ġphot on
acetyl aminofluorene
amb iguous
Ch ronic
uron ide
Ġperme ant
ĠZ IO
ĠZ ollinger
CA T
opoly saccharide
Ġaltern atives
phe resis
athe ter
Ġglycogen olysis
Ġang ular
Ġce tyl
PC B
iaz ole
au er
Ġphysi opathological
Ġmas titis
Ġisop ycnic
Ġcompens ate
Ġexception ally
Ġintrac utaneous
Ġmineral ocorticoid
tole rant
Ġdic yclohexylcarbodiimide
CD D
Ġcomplain ed
ĠSec tions
Ġanticoag ulation
Ġepidemic s
Ġdro peridol
Ġamph otericin
determin ing
Ġanticonvuls ants
Ġdeline ate
oste al
glucuron yltransferase
Ġfin anc
ĠStatis tically
Ġcatara cts
Ġtol butamide
ĠGerm an
Ġlymphocyt otoxicity
ĠCC K
ĠSystem ic
Ġsterol s
Ġsatisf ied
Ġsoc iety
ĠLim ulus
Ġcentrom eric
Ġadip ocytes
ĠOcc asion
Ġthromboemb olic
Ġunw anted
Ġpneumon itis
trip tyline
Ġalph abeta
Ġmononucle osis
Ġga it
Ġprur itus
ĠYor k
Ġemploye es
Ġnitrofuran toin
Ġfumig atus
Ġmicrocyt otoxicity
Ġaneup loid
Ġtic arcillin
ĠHage man
Ell ison
taclam ol
+ ;
- /
2 000
B HC
D el
E ffect
H D
H L
I LA
L ong
P MN
R abbits
S r
a que
c s
d iff
d osage
e eding
f ragments
h ole
n ull
p ost
s ound
s ins
w ell
Ã ¯
he at
te enth
Ġs or
al cohol
Ġw estern
Ġb ox
Ġd iz
le m
Ġre an
at ri
os terol
Ġth orax
ur ities
Ġcon tig
Ġcon tingent
Ġis sue
Ġde aff
res ting
am oyl
il in
ot tic
Ġex otoxin
ir ulent
tr iz
ys tis
Ġal gal
ver tin
Ġen graftment
yp ti
Ġinc apac
Ġanti andro
ĠS out
ĠS tructural
Ġim pressive
ĠM PA
ĠM BP
ĠH F
el ly
ĠN uclear
Ġph ant
Ġafter wards
oth orax
era rch
Ġmic elle
ĠF is
ĠR SV
ĠR abbits
Ġcor pora
Ġr umin
end er
Ġcan als
Ġmeth icillin
ĠL ar
ox imine
Ġdec ided
ĠO ld
Ġma ize
Ġsim ulation
Ġinter vertebral
Ġsec tor
me tric
Ġdes ial
Ġmed ically
Ġstr ia
ix ol
ag onal
ĠK I
Ġintra renal
iod ine
Ġmy ometr
Ġradi ographically
Ġabs orptive
Ġpoly unsaturated
Ġmicro fibrils
ĠU SA
ĠV entricular
Ġpa uc
Ġequ ator
mic roscopy
Ġur onic
Ġsecond arily
Ġpress ing
In ter
Ġstimul ations
anc omycin
orb ol
reg ions
Ġsequ enced
Ġcross ing
Ġ16 5
Ġcent ury
Ġrepres sor
inc omycin
Ġaccum ulating
Ġos mo
Ġven ography
Ġmethyl cholanthrene
Ġden gue
Ġlys osome
Ġutil is
ogn ition
Ġstab ilities
ĠEx amples
phas is
Ġampl ifier
eth oxy
Ġbel ief
Ġmig rates
Ġproton motive
Ġsw abs
omic in
Ġhex obarbital
Ġhex osamine
Ġhex adec
ĠLe ishman
Ġphospho kinase
Ġguan idinium
ĠY ersinia
galact osyl
Ġantic ancer
Ġster n
Ġpent azocine
Ġavoid s
oscop e
Ġbar ley
Ġhyd rostatic
vis ions
ĠmRNA s
Ġepilep tics
Ġanat omically
Ġtop ographical
ĠCM C
Ġmeta chromasia
Ġmicron mol
ĠElec trical
Ġclon ing
CM U
Ġdeep ly
Ġhydrox ymethyl
ĠPer iod
Ġgerm s
Ġprogress ing
Ġcoinc idence
Ġinstrum entation
Ġchel ation
Ġirregular ly
ĠTrans fer
ĠTH E
Ad ministration
Ġcoord in
ĠAM V
Ġcorp uscles
ien sis
Ġfluoro chrom
ĠSm ith
Ġreplic ating
Ġcob ra
ostr iatum
ĠGu an
Ġpapill ae
Ġpi ece
cons uming
Ġhyperb il
pred ic
Ġacros omal
ĠDrug s
polym erase
ĠFib rin
lore tin
ĠInte raction
Ġunequ ivocal
Ġcontraind ications
Ġelectroencephal ographic
ĠTN BS
Ġcode ine
degrees C
Ġstrateg y
Ġschist osomiasis
isobut yl
Ġsubcul ture
emin y
Ġlengthen ing
Ġdialys ate
ĠDN CB
Ġremn ants
ĠEnzym atic
ĠDic ty
Ġsubm erged
Ġquenc hed
Ġprescrib ing
Ġoversh oot
Ġresc ue
Ġplag ue
Ġhypno tics
cast le
Ġlonge vity
Ġhydrophob icity
' )-
0 15
A mino
B eta
E LISA
H ES
I N
P N
P rop
P TH
T R
U S
b urn
b enefit
h ospital
h CG
r id
s ter
s qu
s up
Ġt am
on to
on ococcal
ti rp
Ġs ati
Ġc ic
Ġc opro
Ġc occ
Ġw o
ra ta
Ġb red
is en
Ġd ens
Ġf azadinium
or ub
at on
ul itis
Ġh old
Ġh olds
Ġn an
ur t
th ick
Ġpro carb
Ġv a
Ġv oc
res ol
am i
og ranul
ĠA tropine
Ġme lat
Ġch itin
Ġdis opyramide
orm one
ĠS oluble
ĠS light
ffec tive
Ġpre fer
Ġ3 30
ore n
ĠM V
ĠM ol
ĠM orphine
ĠM utants
ĠH G
ĠH amilton
ĠB F
ĠB rit
ĠN early
ĠN ocardia
Ġph otic
Ġph renic
ten ti
si e
si ent
Ġinf estation
Ġspec ulated
ĠE pon
Ġun ambiguous
ĠR ight
Ġno v
Ġpar ty
Ġcl ip
gn osis
Ġob vi
ap he
Ġstr ontium
ne ph
ĠK B
iod ination
Ġman ic
Ġmar king
Ġbas ically
Ġwell s
umb ar
Ġcyt ochemistry
pro f
Ġep endym
oly n
ob alt
Ġsc r
Ġsc ience
kin esis
Ġprim e
tur n
io tics
Ġglyc opeptide
Ġamoun ting
ful ly
fer ri
ry ing
Ġsingle t
Ġiniti ator
Ġgu aran
Ġlocal izing
hel ix
Ġpul sed
la w
Ġrever sing
Ġ25 00
methyl thio
specific ity
Ġbu ilding
Ġthym ectomy
hydroxy quinoline
ĠCh lorp
phyl ococcal
Ġlit term
Ġmu U
rit ol
itone um
Ġdissoci ates
yc l
ef ined
ĠRes id
ĠRes piratory
ĠAm mon
Ġdegrad ative
Ġauto immun
Ġfibrob lastic
Ġher bic
Ġoff set
veloc ity
Ġelu ates
rup ted
omat ostatin
Ġ33 5
glyc erine
ĠHB c
ĠMe as
Ġminor ity
sp i
Ġangi ographically
Ġinsu rance
Ġrelax ing
Ġ196 3
Ġfr uit
cul ent
vious ly
Ġpreser v
Ġlog ical
Ġester ified
wor thy
arm ing
Ġphe ochromocytoma
ameth oxazole
Ġcounter part
ĠSt ar
Ġhair y
Ġmaintain s
Ġplant ar
cl amp
Ġsplen ocytes
Ġcoord inate
Ġnal trexone
ĠSA SP
Ġscan ner
enes ulf
Ġbif ur
Ġcura re
ĠLymph ocyte
ĠGluc agon
ypro gesterone
Ġprogen itor
obenz idine
Ġelabo ration
Ġheterozyg ote
Ġmerc uric
Ġtolu ene
Ġenco ura
Ġsacrific e
Ġzym osan
Ġinterview ed
var iable
Ġcrystall ization
Ġtympan ic
Ġrender ing
ĠFall opian
Ġscop olamine
Ġparv ocellular
Ġappreci ated
ĠAltern atively
Ġlympho kines
Ġscarce ly
Ġdispar ity
Ġadenohyp ophysis
Ġfreed om
ĠLapa roscopy
Ġingredi ents
Ġtour niqu
Ġvisce ra
Ġaeg ypti
Ġfinanc ial
. ;
2 25
9 00
B leomycin
C LL
D opa
E H
E CG
P ap
P PD
S odium
b urg
d b
l ar
n ity
n itrate
n ode
o tics
s ignificant
v age
y z
Ġt rap
en dix
Ġs an
Ġs me
Ġs otalol
Ġc ues
Ġc odes
Ġin ves
as partic
is oprenaline
Ġm aras
it ably
er als
Ġre ass
Ġre association
os ities
us pected
ve in
Ġn adolol
ĠT g
ĠT AA
Ġl ot
ter t
Ġde er
Ġde mineral
di rect
oc ol
res tricted
am and
ĠA ff
ĠA sian
Ġas ynchron
ĠI ll
ĠI CP
tu died
Ġme tyrapone
Ġch in
Ġinc ome
Ġanti epileptic
Ġper ia
ĠS SS
Ġsh aking
ĠP BS
ĠP rostaglandin
ĠP aste
ĠM SH
ĠM EM
ĠD oses
ĠH urler
ĠIn duction
ĠIn tact
ĠB rown
Ġapp lies
Ġinf lation
Ġbut yl
ĠE ighteen
ĠR outine
Ġca val
Ġsub maximal
Ġsub total
Ġsub lingual
ĠL in
ĠL ittle
Ġdec ap
Ġcl ock
ĠO v
ĠO lig
Ġst ore
cep s
hem is
Ġob e
hed ral
Ġintra duodenal
tis ing
Ġfib ronectin
Ġend oderm
Ġend onucleases
Ġpoly neu
Ġsolu tes
Ġsc a
mic ron
Ġcorrel ating
be ing
Ġpara ventricular
ĠAn gi
omen ing
Ġem erg
ĠNo vember
Ġsus pect
Ġlight ly
Ġgene tics
con vul
Ġsuper precipitation
Ġi at
methyl dopa
Ġfluid ity
Ġax oplasm
adren oreceptors
rolog y
Ġbo oster
Ġmu Ci
Ġhel min
lyce rate
Ġdam aging
Ġsulph ated
Ġsulph ydryl
Ġaccording ly
Ġpaper s
Ġsynthes izes
Ġchol in
Ġview point
Ġstain able
Ġimp urities
Ġrestric tions
oral en
Ġlesion ed
flu x
Ġaqu atic
sp eed
Ġdip yridamole
merc ap
merc apto
Ġalkal oid
ĠDe tailed
Ġcartil ages
ĠRh odopseudomonas
oli tica
ĠSch iz
Ġlob ules
Ġtop ographic
Ġpene trated
Ġregen erated
Ġple thysm
Ġmas tic
Ġmas king
Ġpump ing
CH O
nitros oguanidine
hydroxyp regn
brom odeoxyuridine
Ġcra b
Ġide as
Ġplan us
Ġflo ur
Ġuncoup led
Ġcytochemical ly
haem oglobin
oreduc tion
Ġcen tered
erat osis
Ġketo tifen
Ġgenera tes
ĠAss uming
Ġfluoro chrome
Ġkeratin ization
Ġalumin a
Ġprep ubertal
ĠProtein s
ians erin
brid ge
Ġdepolar ized
Ġalb umins
Ġintercon ver
ĠLip id
ĠHep arin
Ġacros in
Ġtroph oblastic
Ġeng ine
ĠInd omethacin
Ġcochle a
ĠSecond ary
Ġantac ids
Ġbud s
ĠNig erian
Ġradioiod inated
enth ixol
ĠTox icity
Ġvast us
ĠInvestig ations
Ġgluco amylase
Ġcentrom ere
ocor tex
Ġcylind rical
ĠTem perature
ochol anolone
Ġdescrip tions
ĠContinu ous
Ġmediastin um
ĠKn ow
grad ation
Ġecc entric
Ġsemis ynthetic
Ġgingiv a
Ġgastr itis
proton ated
Ġcarrageen an
Ġinsom nia
Ġexpectan cy
Ġlae vis
Ġadmix ture
Ġflic ker
Ġawak ening
Ġantinoc iceptive
Ġcobal amin
Ġsangu is
A SA
E p
E DP
I M
I R
M n
M ed
O R
O p
S W
T T
U C
b as
b ach
c aine
c ancer
d ays
f erence
f rog
f uchsin
g mental
j unctiv
p u
p et
s tain
Ġt ann
Ġa gen
Ġa thymic
en ti
Ġs ieve
Ġp us
ra pped
ed ip
ic tal
er pine
le ading
Ġre w
Ġre hyd
Ġe igh
Ġh inge
Ġh idden
ĠT SA
ĠT ypical
ĠT yrosine
Ġg um
ac ceptor
ac tants
Ġac ini
di hydroxyphenyl
rom as
ase ous
ĠA BC
ot re
ĠI ron
op sis
ĠC op
Ġdis tension
Ġen abling
gen erated
Ġim ag
Ġhe ns
ore t
ĠM CR
ĠD il
Ġph armaceutical
per ties
per fusion
Ġ4 20
Ġco verage
ros omucoid
pa rous
iv en
Ġun charged
ĠF unctional
ĠpH s
ĠR ose
Ġconcent rating
Ġmeth osulfate
Ġam ido
ox ane
Ġdec ereb
ub ic
ĠW as
Ġinter fac
TP N
Ġes trogenic
Ġcons um
ores p
tam ycin
Ġintra cerebroventricular
Ġman age
Ġso uth
cop e
Ġperiod ically
ĠV CG
10 3
ind ol
Ġur chin
ĠAn xiety
Ġhom inis
Ġleuk openia
Ġconf ron
orb ate
ish ing
con duc
Ġcontrast ing
ĠII B
Ġorgan elle
Ġstate ment
Ġhydroly sates
rose ttes
Ġoxygen ator
Ġneut rons
Ġfl utter
olip oprotein
Ġmethyl amine
oglyc er
br uary
Ġmusc ulus
Ġmet oclopramide
des methyl
Ġsperm atid
Ch rom
Ġolig omer
Ġolig onucleotide
Ġendogenous ly
Ġleuc yl
Ġextracellular ly
Ġpent apeptide
sulf ur
Ġbur ne
ĠComp aring
ĠMn Cl
ĠHg Cl
Ġpal pable
Ġhyd rated
Ġeth ionine
Ġlum inescence
Ġhum idity
au di
ĠtRNA Trp
CC D
carbo hydrate
lycer ide
Ġduc ks
Ġdense ly
sil ver
erv ical
ĠAcc umulation
Ġasthma tics
ĠNew castle
Ġagglutin ate
Ġclinic o
Ġdimension al
Ġdermat ophy
Ġwar ning
haem olytic
Ġspor ts
Ġassis tant
Ġferric ytochrome
Ġthrombo xane
Ġburst ing
ĠLa ke
cyclo hexyl
Ġsul pha
Ġvic tim
Ġcand idate
Ġna ph
Ġvent rolateral
Ġexpec tations
oplasm osis
Ġod ont
Ġprofession als
ĠMin or
Ġbag s
Ġperiv entricular
ĠSyn drome
Ġmargin ally
Ġenteroc occi
ĠActin omycin
Ġaminoacyl ation
Ġfinger prin
Ġhous es
Ġtun nel
Ġhypere mia
Ġpemphig oid
Ġmyo epithelial
Anal ysis
stero idal
Ġseques tration
Ġtec tal
Ġintera cted
war f
Ġcera mide
Ġerad ication
Ġepit ope
pter idine
develop ed
leuc yl
Ġinsuff lation
aminole vulinic
wid th
amoe ba
ĠConsid ering
Ġcuret tage
Ġprocarb azine
Ġmelat onin
B a
C or
C er
D ep
M al
M ost
[...]
