{"<|endoftext|>":0,"<|pad|>":1,"<|unk|>":2,"<|bos|>":3,"<|eos|>":4,"!":5,"\"":6,"#":7,"$":8,"%":9,"&":10,"'":11,"(":12,")":13,"*":14,"+":15,",":16,"-":17,".":18,"/":19,"0":20,"1":21,"2":22,"3":23,"4":24,"5":25,"6":26,"7":27,"8":28,"9":29,":":30,";":31,"<":32,"=":33,">":34,"?":35,"@":36,"A":37,"B":38,"C":39,"D":40,"E":41,"F":42,"G":43,"H":44,"I":45,"J":46,"K":47,"L":48,"M":49,"N":50,"O":51,"P":52,"Q":53,"R":54,"S":55,"T":56,"U":57,"V":58,"W":59,"X":60,"Y":61,"Z":62,"[":63,"\\":64,"]":65,"^":66,"_":67,"`":68,"a":69,"b":70,"c":71,"d":72,"e":73,"f":74,"g":75,"h":76,"i":77,"j":78,"k":79,"l":80,"m":81,"n":82,"o":83,"p":84,"q":85,"r":86,"s":87,"t":88,"u":89,"v":90,"w":91,"x":92,"y":93,"z":94,"{":95,"|":96,"}":97,"~":98,"¡":99,"¢":100,"£":101,"¤":102,"¥":103,"¦":104,"§":105,"¨":106,"©":107,"ª":108,"«":109,"¬":110,"®":111,"¯":112,"°":113,"±":114,"²":115,"³":116,"´":117,"µ":118,"¶":119,"·":120,"¸":121,"¹":122,"º":123,"»":124,"¼":125,"½":126,"¾":127,"¿":128,"À":129,"Á":130,"Â":131,"Ã":132,"Ä":133,"Å":134,"Æ":135,"Ç":136,"È":137,"É":138,"Ê":139,"Ë":140,"Ì":141,"Í":142,"Î":143,"Ï":144,"Ð":145,"Ñ":146,"Ò":147,"Ó":148,"Ô":149,"Õ":150,"Ö":151,"×":152,"Ø":153,"Ù":154,"Ú":155,"Û":156,"Ü":157,"Ý":158,"Þ":159,"ß":160,"à":161,"á":162,"â":163,"ã":164,"ä":165,"å":166,"æ":167,"ç":168,"è":169,"é":170,"ê":171,"ë":172,"ì":173,"í":174,"î":175,"ï":176,"ð":177,"ñ":178,"ò":179,"ó":180,"ô":181,"õ":182,"ö":183,"÷":184,"ø":185,"ù":186,"ú":187,"û":188,"ü":189,"ý":190,"þ":191,"ÿ":192,"Ā":193,"ā":194,"Ă":195,"ă":196,"Ą":197,"ą":198,"Ć":199,"ć":200,"Ĉ":201,"ĉ":202,"Ċ":203,"ċ":204,"Č":205,"č":206,"Ď":207,"ď":208,"Đ":209,"đ":210,"Ē":211,"ē":212,"Ĕ":213,"ĕ":214,"Ė":215,"ė":216,"Ę":217,"ę":218,"Ě":219,"ě":220,"Ĝ":221,"ĝ":222,"Ğ":223,"ğ":224,"Ġ":225,"ġ":226,"Ģ":227,"ģ":228,"Ĥ":229,"ĥ":230,"Ħ":231,"ħ":232,"Ĩ":233,"ĩ":234,"Ī":235,"ī":236,"Ĭ":237,"ĭ":238,"Į":239,"į":240,"İ":241,"ı":242,"Ĳ":243,"ĳ":244,"Ĵ":245,"ĵ":246,"Ķ":247,"ķ":248,"ĸ":249,"Ĺ":250,"ĺ":251,"Ļ":252,"ļ":253,"Ľ":254,"ľ":255,"Ŀ":256,"ŀ":257,"Ł":258,"ł":259,"Ń":260,"in":261,"Ġt":262,"Ġa":263,"he":264,"re":265,"on":266,"ti":267,"Ġo":268,"te":269,"Ġthe":270,"en":271,"Ġs":272,"Ġc":273,"Ġof":274,"Ġp":275,"Ġin":276,"al":277,"Ġw":278,"Ġan":279,"ro":280,"ra":281,"es":282,"as":283,"ed":284,"Ġb":285,"is":286,"Ġd":287,"tion":288,"Ġm":289,"it":290,"ic":291,"Ġf":292,"or":293,"er":294,"Ġand":295,"an":296,"ar":297,"le":298,"Ġre":299,"ent":300,"ly":301,"ing":302,"Ġto":303,"Ġe":304,"at":305,"ul":306,"ate":307,"ec":308,"os":309,"us":310,"Ġh":311,"id":312,"ve":313,"Ġn":314,"ĠT":315,"Ġth":316,"ol":317,"om":318,"ation":319,"ith":320,"Ġwith":321,"Ġl":322,"ce":323,"im":324,"ll":325,"ter":326,"Ġg":327,"un":328,"ere":329,"ur":330,"ĠThe":331,"Ġwas":332,"Ġcon":333,"ta":334,"um":335,"Ġbe":336,"ph":337,"Ġ(":338,"uc":339,"th":340,"ac":341,"Ġis":342,"Ġpro":343,"Ġac":344,"if":345,"ine":346,"Ġde":347,"ig":348,"Ġby":349,"ts":350,"ted":351,"di":352,"Ġv":353,"oc":354,"Ġfor":355,"res":356,"Ġwere":357,"rom":358,"tic":359,"ity":360,"ase":361,"se":362,"ow":363,"ated":364,"Ġ1":365,"am":366,"Ġon":367,"tra":368,"ib":369,"og":370,"il":371,"čĊ":372,"od":373,"ell":374,"ut":375,"ĠA":376,"Ġas":377,"ot":378,"ati":379,"Ġex":380,"Ġres":381,"Ġthat":382,"ĠI":383,"Ġra":384,"Ġor":385,"ents":386,"tu":387,"Ġme":388,"Ġch":389,"op":390,"ir":391,"Ġsu":392,"Ġcom":393,"Ġfrom":394,"Ġcell":395,"ff":396,"tiv":397,"tr":398,"ion":399,"her":400,"ys":401,"Ġal":402,"yl":403,"tive":404,"qu":405,"ical":406,"ran":407,"ver":408,"ge":409,"Ġat":410,"Ġcomp":411,"red":412,"ĠC":413,"ia":414,"Ġare":415,"Ġdis":416,"Ġen":417,"duc":418,"Ġse":419,"yp":420,"Ġ2":421,"ration":422,"Ġwh":423,"und":424,"Ġinc":425,"nt":426,"ad":427,"ant":428,"ous":429,"pp":430,"ment":431,"Ġsp":432,"Ġpati":433,"Ġanti":434,"orm":435,"ific":436,"Ġactiv":437,"bs":438,"Ġad":439,"Ġper":440,"ĠS":441,"gen":442,"up":443,"ffec":444,"ym":445,"iz":446,"min":447,"Ġle":448,"igh":449,"ess":450,"Ġsh":451,"ay":452,"lo":453,"Ġcells":454,"lu":455,"Ġpatients":456,"Ġim":457,"Ġnot":458,"Ġpre":459,"ges":460,"ich":461,"lec":462,"tain":463,"Ġ3":464,"ular":465,"ch":466,"ble":467,"Ġhe":468,"st":469,"ri":470,"tro":471,"ence":472,"ĠP":473,"ose":474,"reas":475,"ide":476,"ore":477,"las":478,"Ġne":479,"Ġeffec":480,"ĠM":481,"Ġpres":482,"00":483,"iff":484,"ction":485,"ĠD":486,"vel":487,"Ġstu":488,"Ġwhich":489,"ĠH":490,"ding":491,"ain":492,"Ġactivity":493,"tes":494,"ĠIn":495,"ug":496,"ip":497,"Ġus":498,"ound":499,"el":500,"ary":501,"ther":502,"ved":503,"ure":504,"Ġresp":505,"ĠB":506,"ĠN":507,"Ġdiff":508,"Ġthan":509,"hen":510,"ons":511,"Ġconc":512,"de":513,"tor":514,"Ġph":515,"ten":516,"one":517,"fter":518,"hib":519,"ign":520,"em":521,"Ġ5":522,"si":523,"Ġgro":524,"Ġapp":525,"zym":526,"Ġha":527,"ally":528,"Ġthis":529,"per":530,"yd":531,"to":532,"tein":533,"Ġpo":534,"olog":535,"Ġinf":536,"Ġ4":537,"bo":538,"Ġco":539,"Ġresul":540,"Ġspec":541,"Ġit":542,"Ġshow":543,"Ġacid":544,"ros":545,"ations":546,"Ġpos":547,"tions":548,"pa":549,"Ġafter":550,"oth":551,"Ġdiffere":552,"Ġinhib":553,"duced":554,"iv":555,"Ġenzym":556,"tim":557,"mun":558,"era":559,"Ġmic":560,"Ġbut":561,"ight":562,"Ġthese":563,"ke":564,"ĠE":565,"low":566,"Ġtran":567,"sis":568,"ree":569,"ial":570,"Ġun":571,"Ġbeen":572,"ue":573,"ma":574,"Ġtre":575,"Ġsign":576,"Ġcar":577,"por":578,"pl":579,"wo":580,"ct":581,"ab":582,"ĠF":583,"ĠpH":584,"ydro":585,"ĠR":586,"The":587,"ormal":588,"we":589,"Ġca":590,"ren":591,"Ġconcent":592,"Ġstudi":593,"iti":594,"Ġag":595,"Ġhave":596,"ting":597,"Ġcor":598,"osph":599,"Ġbet":600,"Ġfound":601,"Ġprotein":602,"cy":603,"ome":604,"ied":605,"Ġall":606,"Ġtrans":607,"Ġconcentration":608,"ĠTh":609,"reased":610,").":611,"Ġrel":612,"ies":613,"tal":614,"Ġreac":615,"Ġsignific":616,"Ġgroup":617,"ween":618,"Ġno":619,"Ġser":620,"Ġsub":621,"Ġwe":622,"ases":623,"ogen":624,"Ġ6":625,"uring":626,"Ġr":627,"Ġhyp":628,"our":629,"pha":630,"Ġbetween":631,"ocy":632,"Ġass":633,"Ġsy":634,"Ġhas":635,"tan":636,"end":637,"ers":638,"ium":639,"Ġcan":640,"Ġform":641,"ara":642,"Ġimmun":643,"so":644,"all":645,"Ġpar":646,"Ġmeth":647,"ĠL":648,"Ġtwo":649,"ater":650,"Ġ0":651,"Ġk":652,"Ġobs":653,"ong":654,"Ġlevel":655,"ep":656,"Ġtes":657,"NA":658,"Ġam":659,"tained":660,"ox":661,"Ġsignificant":662,"Ġresults":663,"amin":664,"jec":665,"sion":666,"Ġdec":667,"lym":668,"ture":669,"mb":670,"Ġcy":671,"Ġhad":672,"Ġenzyme":673,"Ġchan":674,"rease":675,"Ġind":676,"Ġeffect":677,"Ġboth":678,"Ġcl":679,"ative":680,"),":681,"Ġother":682,"Ġrec":683,"ized":684,"Ġantigen":685,"ear":686,"ill":687,"ves":688,"ub":689,"inding":690,"Ġobser":691,"ost":692,"Ġev":693,"ech":694,"Ġalso":695,"ĠO":696,"atment":697,"tem":698,"ie":699,"Ġnormal":700,"ulation":701,"Ġlow":702,"ĠG":703,"uld":704,"Ġcomple":705,"Ġsug":706,"ond":707,"Ġmon":708,"Ġdeter":709,"gn":710,"Ġmay":711,"Ġst":712,"Ġ10":713,"Ġmo":714,"als":715,"Ġvar":716,"Ġsur":717,"ological":718,"ace":719,"Ġduring":720,"Ġsugges":721,"Ġ7":722,"tin":723,"ism":724,"lood":725,"cep":726,"Ġar":727,"ious":728,"tab":729,"and":730,"Ġmore":731,"Ġma":732,"Ġsim":733,"ĠW":734,"Ġy":735,"ility":736,"Ġonly":737,"ath":738,"Ġinter":739,"Ġsec":740,"Ġhigh":741,"ĠThis":742,"Ġli":743,"ucle":744,"sed":745,"Ġelec":746,"cc":747,"me":748,"ces":749,"Ġblood":750,"cin":751,"Ġpl":752,"Ġindic":753,"ins":754,"osis":755,"Ġone":756,"Ġdep":757,"Ġval":758,"Ġtreatment":759,"Ġdes":760,"hem":761,"Ġmethod":762,"Ġcontro":763,"Ġcol":764,"Ġreg":765,"Ġtheir":766,"ition":767,"Ġfol":768,"Ġgen":769,"ded":770,"ugh":771,"Ġmed":772,"Ġob":773,"ogra":774,"Ġsys":775,"ap":776,"Ġocc":777,"Ġincreased":778,"Ġserum":779,"ues":780,"Ġtyp":781,"Ġstr":782,"ist":783,"oci":784,"TP":785,"lymph":786,"Ġtim":787,"ared":788,"Ġobserved":789,"Ġmemb":790,"ors":791,"Ġsam":792,"Ġgl":793,"ne":794,"Ġstudied":795,"form":796,"Ġes":797,"raction":798,"pec":799,"ĠIt":800,"ating":801,"Ġdeg":802,"ced":803,"ix":804,"rop":805,"tent":806,"Ġdi":807,"uman":808,"nthe":809,"iss":810,"Ġdise":811,"ĠThese":812,"Ġphosph":813,"lic":814,"Ġmeas":815,"Ġdetermin":816,"Ġplas":817,"Ġsystem":818,"Ġmembran":819,"ile":820,"ible":821,"ays":822,"Ġdifferen":823,"Ġcases":824,"ery":825,"Ġlymph":826,"Ġ8":827,"Ġstim":828,"Ġacc":829,"Ġwhen":830,"Ġund":831,"Ġspecific":832,"Ġrate":833,"ates":834,"Ġdisc":835,"dy":836,"Ġab":837,"Ġcontrol":838,"erg":839,"oun":840,"Ġused":841,"Ġfollow":842,"duction":843,"velop":844,"Ġdifferent":845,"ensi":846,"Ġvir":847,"Ġshowed":848,"ited":849,"Ġlevels":850,"unction":851,"ron":852,"ven":853,"Ġcons":854,"phy":855,"Ġanal":856,"Ġsuc":857,"Ġhuman":858,"Ġincrease":859,"Ġinto":860,"onse":861,"olu":862,"Ġdr":863,"Ġmod":864,"Ġop":865,"ody":866,"hed":867,"ag":868,"Ġinhibit":869,"av":870,"Ġsubs":871,"entr":872,"ities":873,"lob":874,"mon":875,"ilar":876,"ach":877,"Ġro":878,"ast":879,"ĠK":880,"Ġmus":881,"ores":882,"Ġup":883,"Ġdevelop":884,"ite":885,"--":886,"lyc":887,"ak":888,"hydro":889,"age":890,"xim":891,"Ġmin":892,"mo":893,"dition":894,"tial":895,"Ġless":896,"Ġtiss":897,"Ġfe":898,"Ġfac":899,"tam":900,"Ġpresence":901,"Ġdem":902,"les":903,"Ġdia":904,"Ġits":905,"Ġstudy":906,"Ġsynthe":907,"Ġintra":908,"ions":909,"Ġposs":910,"Ġstra":911,"ty":912,"ked":913,"omy":914,"ization":915,"rap":916,"Ġchanges":917,"iod":918,"ory":919,"Ġtum":920,"Ġoccur":921,"Ġmy":922,"Ġnon":923,"tis":924,"Ġresponse":925,"cle":926,"Ġeffects":927,"Ġalpha":928,"oma":929,"Ġexper":930,"ified":931,"Ġdrug":932,"pos":933,"Ġobtained":934,"Ġdisease":935,"Ġqu":936,"thyl":937,"Ġhydro":938,"der":939,"Ġox":940,"Ġisol":941,"onstra":942,"ants":943,"Ġfib":944,"Ġman":945,"Ġdemonstra":946,"ever":947,"cess":948,"tig":949,"port":950,"Ġmg":951,"itro":952,"Ġthose":953,"Ġpresent":954,"ance":955,"Ġcul":956,"Ġso":957,"ocytes":958,"Ġwhe":959,"taining":960,"Ġbeta":961,"Ġthere":962,"ive":963,"cell":964,"ens":965,"gl":966,"rib":967,"rim":968,"Ġrats":969,"Ġsimilar":970,"Ġgre":971,"able":972,"ears":973,"ici":974,"Ġcaus":975,"Ġclin":976,"rel":977,"Ġnucle":978,"Ġmar":979,"ulin":980,"ni":981,"Ġplasma":982,"Ġflu":983,"tivity":984,"Ġunder":985,"Ġcould":986,"Ġdo":987,"tero":988,"Ġsupp":989,"Ġprepa":990,"Ġabo":991,"tively":992,"Ġdid":993,"Ġbas":994,"Ġwell":995,"Ġchrom":996,"Ġthree":997,"Ġfunction":998,"pt":999,"Ġ9":1000,"nal":1001,"Ġmolec":1002,"Ġconcentrations":1003,"Ġextra":1004,"ments":1005,"ram":1006,"umb":1007,"inal":1008,"tric":1009,"Ġsome":1010,"Ġsta":1011,"Ġout":1012,"Ġdete":1013,"'s":1014,"Ġradi":1015,"Ġabs":1016,"vestig":1017,"Ġcyt":1018,"Ġanim":1019,"Ġdef":1020,"Ġmembrane":1021,"Ġend":1022,"usion":1023,"Ġliver":1024,"anism":1025,"Ġtime":1026,"rent":1027,"Ġpur":1028,"Ġbi":1029,"Ġpoly":1030,"Ġcompared":1031,"Ġins":1032,"ither":1033,"endent":1034,"pro":1035,"arge":1036,"Ġdesc":1037,"Ġinvestig":1038,"Ġclinical":1039,"tration":1040,"sive":1041,"ple":1042,"owever":1043,"Ġassoci":1044,"Ġexperim":1045,"est":1046,"minis":1047,"its":1048,"Ġsame":1049,"Ġfraction":1050,"Ġhig":1051,"tabol":1052,"atter":1053,"Ġtech":1054,"ard":1055,"loc":1056,"iden":1057,"Ġvirus":1058,"ual":1059,"Ġep":1060,"Ġhyper":1061,"Ġsignificantly":1062,"Ġmost":1063,"Ġreaction":1064,"Ġantib":1065,"tid":1066,"til":1067,"cter":1068,"000":1069,"Ġmal":1070,"dies":1071,"orp":1072,"Ġbinding":1073,"ata":1074,"ns":1075,"med":1076,"eous":1077,"Ġuse":1078,"hemical":1079,"ĠDNA":1080,"cop":1081,"cted":1082,"Ġinfec":1083,"Ġcal":1084,"Ġexamin":1085,"Ġstudies":1086,"tical":1087,"amine":1088,"vid":1089,"Ġ+":1090,"Ġinte":1091,"Ġmetabol":1092,"aracter":1093,"Ġdiscus":1094,"Ġloc":1095,"Ġdays":1096,"erm":1097,"Ġelectro":1098,"bin":1099,"tors":1100,"Ġusing":1101,"rate":1102,"ĠATP":1103,"Ġperiod":1104,"ade":1105,"Ġrele":1106,"Ġover":1107,"ulated":1108,"Ġadminis":1109,"Ġcomplex":1110,"Ġsyn":1111,"tory":1112,"Ġgrow":1113,"ild":1114,"fore":1115,"anti":1116,"Ġcontra":1117,"Ġprev":1118,"Ġmicro":1119,"Ġcharacter":1120,"Ġdescrib":1121,"tre":1122,"Ġgroups":1123,"tures":1124,"Ġtissue":1125,"Ġtr":1126,"pres":1127,"ency":1128,"Ġisolated":1129,"Ġnumb":1130,"phosph":1131,"Ġaddition":1132,"out":1133,"niqu":1134,"ans":1135,"oid":1136,"Ġrespec":1137,"art":1138,"oly":1139,"trib":1140,"rome":1141,"rapy":1142,"ured":1143,"ĠU":1144,"Ġtechniqu":1145,"Ġsolu":1146,"ail":1147,"Ġsensi":1148,"ĠIg":1149,"Ġtype":1150,"Ġrespons":1151,"Ġmice":1152,"Ġrat":1153,"Ġtest":1154,"rees":1155,"Ġinv":1156,"Ġinjec":1157,"Ġdiscussed":1158,"och":1159,"Ġfir":1160,"Ġiden":1161,"tics":1162,"ute":1163,"ditions":1164,"ysis":1165,"Ġ\"":1166,"requ":1167,"rain":1168,"ob":1169,"Ġsm":1170,"Ġsc":1171,"Ġbac":1172,"ĠV":1173,"Ġpartic":1174,"ole":1175,"ral":1176,"rations":1177,"Ġdegrees":1178,"Ġanimals":1179,"Ġconditions":1180,"Ġhigher":1181,"ardi":1182,"Ġvalues":1183,"ks":1184,"Ġdata":1185,"Ġ12":1186,"Ġmech":1187,"Ġ19":1188,"Ġstruc":1189,"Ġpa":1190,"/-":1191,"Ġcat":1192,"Ġagain":1193,"Ġdiagn":1194,"li":1195,"Ġinhibition":1196,"idence":1197,"kin":1198,"rect":1199,"Ġran":1200,"Ġabout":1201,"ass":1202,"Ġshown":1203,"tance":1204,"old":1205,"Ġeither":1206,"ures":1207,"Ġfirst":1208,"Ġproduced":1209,"ior":1210,"ulf":1211,"dep":1212,"Ġgra":1213,"Ġgluc":1214,"ough":1215,"Ġequ":1216,"ography":1217,"Ġfinding":1218,"Ġweight":1219,"tribu":1220,"Ġdescribed":1221,"Ġamin":1222,"Ġprim":1223,"mic":1224,"Ġpoten":1225,"Ġsmall":1226,"ould":1227,"tamine":1228,"ise":1229,"Ġfrequ":1230,"rac":1231,"tif":1232,"ties":1233,"Ġhis":1234,"tur":1235,"Ġrem":1236,"Ġsuch":1237,"Ġcorrel":1238,"Ġdose":1239,"be":1240,"ero":1241,"itive":1242,"Ġtem":1243,"Ġpatient":1244,"act":1245,"orph":1246,"Ġmicros":1247,"Ġnumber":1248,"Ġmuc":1249,"Ġorg":1250,"Ġdetermined":1251,"ters":1252,"Ġpara":1253,"Ġagainst":1254,"10":1255,"Ġdue":1256,"Ġtotal":1257,"az":1258,"ind":1259,"Ġarter":1260,"Ġgiv":1261,"Ġsynthesis":1262,"Ġinvol":1263,"io":1264,"ented":1265,"Ġsubjec":1266,"Ġinhibited":1267,"Ġfollowing":1268,"Ġcalc":1269,"aline":1270,"dependent":1271,"Ġexc":1272,"Ġmuscle":1273,"Ġvarious":1274,"Ġdemonstrated":1275,"Ġgreater":1276,"Ġassociated":1277,"ically":1278,"Ġvitro":1279,"Ġreduced":1280,"ft":1281,"Ġmain":1282,"Ġinduced":1283,"Ġtreated":1284,"Ġ20":1285,"arly":1286,"Ġmechanism":1287,"Ġphen":1288,"Ġpath":1289,"Ġnew":1290,"yro":1291,"ished":1292,"idase":1293,"rial":1294,"ites":1295,"Ġglyc":1296,"Ġproduc":1297,"Ġdecreased":1298,"itu":1299,"cular":1300,"Ġage":1301,"Ġmeasured":1302,"entric":1303,"Ġur":1304,"Ġeach":1305,"rated":1306,"king":1307,"Ġamoun":1308,"Ġ+/-":1309,"Ġpossible":1310,"kg":1311,"sy":1312,"Ġwithin":1313,"ful":1314,"Ġsuggest":1315,"Ġu":1316,"Ġsecond":1317,"Ġantibody":1318,"ental":1319,"opro":1320,"bodies":1321,"qui":1322,"Ġpress":1323,"urther":1324,"ort":1325,"Ġ15":1326,"Ġ[":1327,"oph":1328,"Ġwithout":1329,"Ġwhile":1330,"Ġlip":1331,"rough":1332,"ily":1333,"II":1334,"tered":1335,"Ġbloc":1336,"Ġantigens":1337,"rin":1338,"Ġinflu":1339,"ov":1340,"Ġrepor":1341,"Ġsurf":1342,"fer":1343,"ules":1344,"Ġactive":1345,"lobulin":1346,"oplas":1347,"DP":1348,"Ġproteins":1349,"othe":1350,"Ġappro":1351,"Ġdos":1352,"sin":1353,"Ġgrowth":1354,"Ġstrains":1355,"bb":1356,"Ġpurified":1357,"ingle":1358,"Ġincreas":1359,"Ġcompon":1360,"Ġprol":1361,"Ġperform":1362,"ĠX":1363,"Ġdecrease":1364,"Ġbec":1365,"dium":1366,"enz":1367,"Ġaffec":1368,"Ġlower":1369,"osom":1370,"ital":1371,"Ġneu":1372,"ry":1373,"Ġpost":1374,"own":1375,"Ġlong":1376,"ĠThere":1377,"Ġelectr":1378,"Ġfindings":1379,"eration":1380,"retion":1381,"ergic":1382,"co":1383,"Ġproper":1384,"Ġprec":1385,"ĠAn":1386,"ered":1387,"Ġyears":1388,"idine":1389,"Ġir":1390,"Ġchild":1391,"Ġwee":1392,"Ġprevious":1393,"ene":1394,"Ġtemp":1395,"Ġproced":1396,"Ġj":1397,"Ġamino":1398,"Ġrabb":1399,"Ġcombin":1400,"ged":1401,"Ġsingle":1402,"Ġmolecular":1403,"Ġprocess":1404,"Ġmit":1405,"Ġcase":1406,"uk":1407,"Ġadministration":1408,"Ġ30":1409,"ately":1410,"Ġgas":1411,"Ġrequi":1412,"In":1413,"ize":1414,"Ġfour":1415,"medi":1416,"Ġgiven":1417,"Ġpatter":1418,"Ġgel":1419,"Ġformation":1420,"Ġrelease":1421,"Ġsubstra":1422,"cent":1423,"Ġreve":1424,"Ġinclu":1425,"Ġantibodies":1426,"jor":1427,"Ġaction":1428,"Ġner":1429,"Ġtumor":1430,"zed":1431,"ton":1432,"Ġtherapy":1433,"Ġindi":1434,"Ġcardi":1435,"Ġbacter":1436,"Ġhist":1437,"Ġrespectively":1438,"Ġchromat":1439,"ĠCa":1440,"ths":1441,"Ġprote":1442,"Ġlymphocytes":1443,"Ġmajor":1444,"Ġmedium":1445,"rance":1446,"omp":1447,"Ġcyc":1448,"ived":1449,"Ġphys":1450,"Ġlarge":1451,"Ġexamined":1452,"Ġthrough":1453,"pid":1454,"occ":1455,"Ġhom":1456,"ffici":1457,"alu":1458,"Ġcap":1459,"omen":1460,"Ġsever":1461,"Ġactivities":1462,"Ġlab":1463,"Ġconsis":1464,"Ġace":1465,"pecific":1466,"Ġpressure":1467,"Ġrecep":1468,"Ġthey":1469,"Ġsurface":1470,"Ġwhereas":1471,"amma":1472,"Ġhep":1473,"Ġinvestigated":1474,"Ġtechnique":1475,"ochemical":1476,"Ġstimulation":1477,"Ġrelative":1478,"ud":1479,"Ġanalysis":1480,"Ġtempera":1481,"Ġcomplete":1482,"Ġremain":1483,"Ġiniti":1484,"Ġdevelopment":1485,"ĠHowever":1486,"cellular":1487,"Ġbrain":1488,"ids":1489,"Ġappe":1490,"ently":1491,"Ġspecies":1492,"Ġ14":1493,"Ġvery":1494,"take":1495,"though":1496,"ian":1497,"Ġwho":1498,"Ġstimul":1499,"xyl":1500,"Ġem":1501,"Ġreveal":1502,"gram":1503,"amide":1504,"Ġrelated":1505,")-":1506,"ĠNa":1507,"ross":1508,"titu":1509,"rol":1510,"Ġleuk":1511,"Ġ50":1512,"Ġreported":1513,"Ġly":1514,"Ġenzymes":1515,"Ġrapid":1516,"50":1517,"yr":1518,"Ġaut":1519,"Ġbefore":1520,"Ġref":1521,"Ġevalu":1522,"tide":1523,"truc":1524,"ours":1525,"iel":1526,"ocyte":1527,"Ġmarked":1528,"ology":1529,"Ġsym":1530,"Ġany":1531,"Ġconst":1532,"Ġmade":1533,"use":1534,"rag":1535,"atic":1536,"Ġcir":1537,"Ġcaused":1538,"lass":1539,"ides":1540,"ĠNA":1541,"Ġion":1542,"Ġvol":1543,"Ġventric":1544,"Ġdifferences":1545,"Ġele":1546,"Ġcle":1547,"resp":1548,"Ġmut":1549,"MP":1550,"Ġheart":1551,"Ġhem":1552,"Ġproperties":1553,"hy":1554,"onic":1555,"Ġindicate":1556,"hes":1557,"ature":1558,"Ġchange":1559,"uration":1560,"ood":1561,"Ġchron":1562,"Ġdrugs":1563,"Ġdetected":1564,"emia":1565,"Ġles":1566,"Ġconf":1567,"Ġmaxim":1568,"Ġglucose":1569,"Ġsodium":1570,"induced":1571,"ification":1572,"Ġelectroph":1573,"Ġidentif":1574,"Ġder":1575,"ress":1576,"ĠRNA":1577,"Ġpositive":1578,"ines":1579,"Ġsurg":1580,"eral":1581,"tyl":1582,"Ġgu":1583,"xy":1584,"ethyl":1585,"Ġaden":1586,"Ġsuggested":1587,"Ġlocal":1588,"uce":1589,"Ġfree":1590,"Ġchain":1591,"oxy":1592,"atory":1593,"Ġincub":1594,"Ġcontent":1595,"Ġshould":1596,"Ġresponses":1597,"normal":1598,"erative":1599,"Ġtested":1600,"val":1601,"Ġcompound":1602,"ype":1603,"hel":1604,"Ġdistribu":1605,"ĠNo":1606,"et":1607,"Ġpul":1608,"ung":1609,"Ġsulf":1610,"trans":1611,"lor":1612,"arent":1613,"over":1614,"oprotein":1615,"Ġtub":1616,"erc":1617,"Ġacute":1618,"mit":1619,"Ġery":1620,"uth":1621,"Ġassay":1622,"Ġmonths":1623,"Ġves":1624,"anc":1625,"of":1626,"tially":1627,"Ġneur":1628,"phic":1629,"Ġsubjects":1630,"chol":1631,"ick":1632,"Ġfactor":1633,"ms":1634,"Ġul":1635,"la":1636,"Ġdoses":1637,"Ġtransport":1638,"Ġcarcin":1639,"ably":1640,"Ġmix":1641,"Ġcarri":1642,"arb":1643,"ult":1644,"Ġevidence":1645,"amm":1646,"Ġfil":1647,"Ġhorm":1648,"ococc":1649,"Ġselec":1650,"Ġdeveloped":1651,"ival":1652,"tically":1653,"Ġculture":1654,"Ġoccurred":1655,"Ġmethods":1656,"imin":1657,"Ġchildren":1658,"Ġdel":1659,"Ġnec":1660,"orb":1661,"Ġreduction":1662,"Ġprob":1663,"orption":1664,"(-":1665,"Ġquanti":1666,"Ġcharacteris":1667,"omycin":1668,"Ġseveral":1669,"Ġrevealed":1670,"Ġlead":1671,"iew":1672,"ĠOn":1673,"Ġsus":1674,"Ġcur":1675,"erase":1676,"Ġ24":1677,"Ġsl":1678,"Ġlight":1679,"Ġmean":1680,"Ġfail":1681,"ĠmM":1682,"ving":1683,"ression":1684,"taneous":1685,"Ġseen":1686,"terone":1687,"Ġsepa":1688,"Ġtemperature":1689,"ratory":1690,"Ġapparent":1691,"ule":1692,"Ġ=":1693,"Ġflow":1694,"Ġpop":1695,"Ġcontaining":1696,"Ġexpos":1697,"itis":1698,"ish":1699,"Ġrati":1700,"ateral":1701,"Ġvalue":1702,"Ġdiagnosis":1703,"Ġmeasure":1704,"Ġdirect":1705,"ĠAl":1706,"Ġste":1707,"ocardi":1708,"Ġelectron":1709,"row":1710,"Ġradio":1711,"Ġol":1712,"table":1713,"Ġmorph":1714,"Ġte":1715,"Ġgamma":1716,"Ġaff":1717,"ning":1718,"Ġtra":1719,"Ġcer":1720,"Ġ11":1721,"olar":1722,"Ġmicroscop":1723,"phosphate":1724,"Ġbeing":1725,"Ġperformed":1726,"Ġconclu":1727,"Ġbeh":1728,"Ġchronic":1729,"oresis":1730,"Ġalk":1731,"Ġpe":1732,"Ġpart":1733,"activ":1734,"vation":1735,"Ġindivid":1736,"thro":1737,"ogenic":1738,"Ġkn":1739,"Ġrever":1740,"Ġseem":1741,"ĠAt":1742,"Ġtypes":1743,"cence":1744,"Ġgene":1745,"gative":1746,"Ġrole":1747,"con":1748,"rad":1749,"Ġmul":1750,"Ġred":1751,"Ġ13":1752,"bility":1753,"Ġinjection":1754,"Ġprimary":1755,"Ġ100":1756,"Ġreactions":1757,"Ġskin":1758,"hip":1759,"Ġrelations":1760,"Ġrange":1761,"Ġweeks":1762,"sequ":1763,"ince":1764,"eren":1765,"ml":1766,"Ġtimes":1767,"lin":1768,"cer":1769,"Ġmonke":1770,"oe":1771,"Ġstrain":1772,"Ġday":1773,"Ġvas":1774,"oss":1775,"ologic":1776,"Ġcommon":1777,"Ġsynd":1778,"Ġexperiments":1779,"Ġabnormal":1780,"Ġmate":1781,"Ġlim":1782,"Ġcere":1783,"Ġresult":1784,"Ġdifference":1785,"otox":1786,"Ġuptake":1787,"Ġearly":1788,"onal":1789,"rage":1790,"Ġoptim":1791,"Ġpresented":1792,"hyd":1793,"Ġcontrast":1794,"Ġregion":1795,"amic":1796,"Ġfurther":1797,"Ġoxy":1798,"tase":1799,"Ġhowever":1800,"12":1801,"Ġimpro":1802,"Ġacids":1803,"%)":1804,"Ġav":1805,"ouse":1806,"ord":1807,"Ġrece":1808,"Ġpred":1809,"Ġpig":1810,"Ġresid":1811,"Ġsera":1812,"Ġpregn":1813,"ect":1814,"ximately":1815,"Ġphase":1816,"Ġenh":1817,"Ġvari":1818,"reg":1819,"genase":1820,"Ġpep":1821,"treated":1822,"Ġdoes":1823,"Ġheal":1824,"Ġmodel":1825,"Ġsequ":1826,"ĠMg":1827,"Ġproduction":1828,"Ġrenal":1829,"Ġeffective":1830,"tional":1831,"Ġgran":1832,"olol":1833,"portant":1834,"ex":1835,"Ġtests":1836,"ples":1837,"tinu":1838,"rine":1839,"ĠWe":1840,"Ġclass":1841,"ones":1842,"chan":1843,"ame":1844,"ause":1845,"aris":1846,"umin":1847,"Ġsal":1848,"osin":1849,"ield":1850,"yroid":1851,"olic":1852,"Ġdepend":1853,"Ġtox":1854,"ĠATPase":1855,"ae":1856,"Ġfat":1857,"Ġsuper":1858,"ĠII":1859,"Ġstaining":1860,"Ġrelationship":1861,"Ġfluores":1862,"Cl":1863,"'-":1864,"Ġinfection":1865,"eu":1866,"oglob":1867,"vement":1868,"Ġpreviously":1869,"Ġimportant":1870,"Ġsubstrate":1871,"ochond":1872,"Ġfem":1873,"Ġhal":1874,"Ġi":1875,"ice":1876,"Ġ25":1877,"Ġhours":1878,"Ġcross":1879,"tensive":1880,"Ġcontain":1881,"Ġbehav":1882,"tact":1883,"Ġfactors":1884,"Ġorig":1885,"ATP":1886,"Ġter":1887,"Ġventricular":1888,"Ġpolym":1889,"Ġcalcium":1890,"Ġtri":1891,"Ġcentr":1892,"Ġimmune":1893,"Ġ16":1894,"ĠWhen":1895,"Ġdistribution":1896,"Ġleft":1897,"Ġfollowed":1898,"Ġprocedure":1899,"Ġappears":1900,"Ġcontrols":1901,"ivo":1902,"Ġla":1903,"ipit":1904,"Ġcultures":1905,"Ġpreparations":1906,"char":1907,"other":1908,"Ġcent":1909,"tera":1910,"14":1911,"Ġsites":1912,"Ġsolution":1913,"Ġ-":1914,"ale":1915,"Ġcereb":1916,"Ġfrequency":1917,"Ġindicated":1918,"Ġtryp":1919,"methyl":1920,"Ġ197":1921,"Ġmac":1922,"tabl":1923,"Ġoxid":1924,"Ġchromatography":1925,"ĠAfter":1926,"radi":1927,"vere":1928,"Ġcirc":1929,"Ġpotential":1930,"Ġsyndrome":1931,"atase":1932,"Ġvivo":1933,"Ġinteraction":1934,"ised":1935,"line":1936,"Ġerythro":1937,"Ġel":1938,"Ġconstant":1939,"Ġdie":1940,"Ġrepres":1941,"Ġ18":1942,"anol":1943,"Ġorgan":1944,"led":1945,"ording":1946,"Ġexperimental":1947,"inity":1948,"osp":1949,"ric":1950,"Ġstrong":1951,"erum":1952,"pre":1953,"specific":1954,"Ġwater":1955,"Ġlesions":1956,"Ġwor":1957,"Ġstate":1958,"Ġhydroly":1959,"ness":1960,"ication":1961,"ave":1962,"Ġapproximately":1963,"Ġsympt":1964,"Ġhistamine":1965,"Ġdegree":1966,"icity":1967,"Ġdog":1968,"Ġcardiac":1969,"Ġsurv":1970,"idne":1971,"fold":1972,"sel":1973,"immun":1974,"ipher":1975,"Ġauth":1976,"Ġrabbit":1977,"Ġneuro":1978,"monary":1979,"Ġpattern":1980,"oles":1981,"Ġdehydro":1982,"Ġz":1983,"Ġmembranes":1984,"Ġestabl":1985,"Ġparticular":1986,"Ġupon":1987,"Ġsevere":1988,"Ġif":1989,"izing":1990,"Ġamount":1991,"Ġcorresp":1992,"Ġratio":1993,"Ġline":1994,"arance":1995,"Ġremo":1996,"tides":1997,"Ġsite":1998,"Ġ17":1999,"Ġfluid":2000,"ension":2001,"Ġagents":2002,"Ġkidne":2003,"Ġleast":2004,"Ġexhib":2005,"rose":2006,"Ġmouse":2007,"henyl":2008,"Ġslow":2009,"Ġstructure":2010,"Ġoxygen":2011,"iological":2012,"Ġabsence":2013,"ĠIgG":2014,"Ġcorrelation":2015,"Ġbody":2016,"Ġorder":2017,"Ġhealth":2018,"ability":2019,"ĠAll":2020,"Ġsple":2021,"ura":2022,"Ġconsid":2023,"Ġvis":2024,"iable":2025,"Ġ40":2026,"Ġestim":2027,"anced":2028,"Ġconfir":2029,"Ġsol":2030,"inc":2031,"Ġgeneral":2032,"Ġmaterial":2033,"Ġcr":2034,"Ġperipher":2035,"Ġcarb":2036,"Ġadren":2037,"Ġcomponents":2038,"Ġmitochond":2039,"Ġnerve":2040,"app":2041,"Ġdiss":2042,"Ġactivation":2043,"Ġtissues":2044,"eled":2045,"esis":2046,"Ġfractions":2047,"Ġlung":2048,"aly":2049,"Ġfive":2050,"Ġpossib":2051,"Ġsecretion":2052,"Ġresulted":2053,"Ġneut":2054,"Ġphosphate":2055,"Ġbone":2056,"ume":2057,"Ġmen":2058,"osa":2059,"formation":2060,"Ġsamples":2061,"Ġrates":2062,"Ġaccum":2063,"Ġinhibitor":2064,"Ġsensitive":2065,"Ġforms":2066,"ryl":2067,"Ġprobably":2068,"Ġax":2069,"ĠAs":2070,"Ġbu":2071,"gth":2072,"like":2073,"active":2074,"Ġerythrocy":2075,"Ġconcluded":2076,"ling":2077,"Ġfrag":2078,"dom":2079,"Ġappeared":2080,"Ġmeans":2081,"ands":2082,"Ġthym":2083,"ographic":2084,"Ġinfluence":2085,"Ġreduc":2086,"Ġloss":2087,"Ġknown":2088,"enic":2089,"Ġsymptom":2090,"Ġpeak":2091,"ner":2092,"onding":2093,"hydroxy":2094,"osomes":2095,"Ġelectrophoresis":2096,"Ġslight":2097,"Ġcoun":2098,"alpha":2099,"acchar":2100,"Ġcompos":2101,"Ġkine":2102,"Ġbound":2103,"Ġbasis":2104,"Ġexpl":2105,"Ġspleen":2106,"Ġinvolved":2107,"Ġsix":2108,"Ġcour":2109,"glut":2110,"Ġpercent":2111,"Ġmulti":2112,"Ġwomen":2113,"Ġincreases":2114,"tle":2115,"Ġinitial":2116,"Ġassess":2117,"Ġos":2118,"venous":2119,"Ġsubstan":2120,"tag":2121,"Ġlac":2122,"Ġcontinu":2123,"Ġ60":2124,"Ġplate":2125,"Ġadult":2126,"Ġnegative":2127,"onucle":2128,"ually":2129,"osine":2130,"Ġpreparation":2131,"orpo":2132,"cts":2133,"globulin":2134,"Ġcompounds":2135,"ressive":2136,"Ġdiagnos":2137,"sta":2138,"tural":2139,"sych":2140,".,":2141,"ator":2142,"Ġamong":2143,"Ġsize":2144,"ancy":2145,"Ġconside":2146,"Ġthen":2147,"Ġeven":2148,"Ġinhibitory":2149,"Ġmetabolism":2150,"erox":2151,"ĠSe":2152,"Ġhy":2153,"25":2154,"ressed":2155,"+-":2156,"gluc":2157,"ogenous":2158,"Ġcarbo":2159,"Ġrequired":2160,"ithel":2161,"15":2162,"Ġana":2163,"ffer":2164,"Ġadv":2165,"Ġven":2166,"Ġcarried":2167,"Ġperipheral":2168,"omas":2169,"ward":2170,"yn":2171,"opath":2172,"Ġability":2173,"Ġaffinity":2174,"Ġfix":2175,"ĠCh":2176,"omer":2177,"ump":2178,"Ġidentified":2179,"vated":2180,"Ġtak":2181,"otic":2182,"Ġblock":2183,"glutin":2184,"plo":2185,"Ġave":2186,"Ġcapac":2187,"Ġpulmonary":2188,"Ġparame":2189,"inea":2190,"Ġemb":2191,"bumin":2192,"Ġaffected":2193,"rh":2194,"Ġcontained":2195,"DH":2196,"Ġcomplic":2197,"ission":2198,"phal":2199,"Ġhormone":2200,"Ġincubation":2201,"Ġstan":2202,"Ġchemical":2203,"beta":2204,"Ġprepared":2205,"Ġsensitivity":2206,"try":2207,"Ġultra":2208,"Ġresis":2209,"Ġmuch":2210,"ulph":2211,"Ġincreasing":2212,"19":2213,"atitis":2214,"int":2215,"Ġconsidered":2216,"Ġhaem":2217,"Ġcertain":2218,"Ġmyocardi":2219,"20":2220,"mine":2221,"Ġfl":2222,"Ġincorpo":2223,"ĠWith":2224,"Ġmale":2225,"mia":2226,"arison":2227,"Ġhetero":2228,"RNA":2229,"pep":2230,"Ġbecause":2231,"Ġvolume":2232,"Ġdefin":2233,"Ġcancer":2234,"Ġprecipit":2235,"Ġtermin":2236,"zyme":2237,"Ġside":2238,"terior":2239,"gin":2240,"Ġprovid":2241,"ger":2242,"Ġinsulin":2243,"Ġmicrogram":2244,"Ġarea":2245,"Ġcourse":2246,"Ġmat":2247,"lutam":2248,"Ġurine":2249,"ĠJ":2250,"CO":2251,"Ġrev":2252,"Ġcomplement":2253,"tate":2254,"Ġplace":2255,"Ġmaximum":2256,"Ġlate":2257,"Ġperf":2258,"essen":2259,"greg":2260,"Ġamounts":2261,"loride":2262,"Ġexpres":2263,"Ġdig":2264,"Ġclose":2265,"ially":2266,"Ġhand":2267,"LA":2268,"ĠBoth":2269,"Ġthem":2270,"inary":2271,"ane":2272,"fficient":2273,"ased":2274,"eti":2275,"Ġoral":2276,"Ġtumors":2277,"ĠThus":2278,"Ġapplic":2279,"Ġeff":2280,"Ġappear":2281,"Ġsubun":2282,"ergy":2283,"Ġorigin":2284,"Ġx":2285,"rosis":2286,"Ġtechniques":2287,"Ġpopulation":2288,"Ġalthough":2289,"Ġwall":2290,"ural":2291,"uble":2292,"Ġspecificity":2293,"iety":2294,"Ġstand":2295,"Ġinactiv":2296,"Ġhighly":2297,"Ġou":2298,"Ġnecess":2299,"omin":2300,"operative":2301,"Ġcellular":2302,"Ġauthors":2303,"Ġtransfer":2304,"Ġcapacity":2305,"ring":2306,"olytic":2307,"Ġrespi":2308,"Ġantigenic":2309,"Ġallow":2310,"Ġfetal":2311,"Ġwhere":2312,"Ġmm":2313,"eding":2314,"patic":2315,"Ġcombination":2316,"Ġresistance":2317,"phyl":2318,"ferase":2319,"Ġcomponent":2320,"Ġdehydrogenase":2321,"tagon":2322,"ophil":2323,"Ġguinea":2324,"fac":2325,"100":2326,"SH":2327,"Ġdistin":2328,"BA":2329,"olip":2330,"thanol":2331,"Ġcoli":2332,"Ġhomogen":2333,"Ġdifferenti":2334,"tative":2335,"Ġconsistent":2336,"rob":2337,"Ġlact":2338,"ird":2339,"Ġprog":2340,"ife":2341,"Ġrib":2342,"Ġpor":2343,"Ġabove":2344,"Ġproble":2345,"Ġintravenous":2346,"Ġsuggests":2347,"Ġty":2348,"Ġformed":2349,"Ġsymptoms":2350,"oglobin":2351,"Ġarterial":2352,"Ġkidney":2353,"oryl":2354,"adren":2355,"arc":2356,"Ġincidence":2357,"Ġincluding":2358,"vir":2359,"Ġalone":2360,"Ġderiv":2361,"Ġdependent":2362,"Ġreceptors":2363,"Ġprop":2364,"Ġimpl":2365,"rapeu":2366,"FP":2367,"Ġinten":2368,"Ġdefici":2369,"Ġris":2370,"Ġhalf":2371,"tension":2372,"posed":2373,"Ġsystems":2374,"Ġnod":2375,"Ġuseful":2376,"%.":2377,"Ġabsorption":2378,"Ġextent":2379,"Ġlo":2380,"Ġepithel":2381,"Ġseries":2382,"uv":2383,"Ġmedi":2384,"ATPase":2385,"mac":2386,"Ġindividual":2387,"sera":2388,"omal":2389,"Ġpropor":2390,"Ġdouble":2391,"Ġmethyl":2392,"ances":2393,"Ġthus":2394,"Ġden":2395,"Ġstre":2396,"Ġrepl":2397,"Ġparameters":2398,"onate":2399,"tex":2400,"Ġvac":2401,"till":2402,"Ġcri":2403,"urs":2404,"vations":2405,"Ġsero":2406,"istant":2407,"Ġdiabe":2408,"anine":2409,"tac":2410,"Ġidentical":2411,"let":2412,"mediate":2413,"Ġprov":2414,"set":2415,"Ġsubsequ":2416,"Ġadministered":2417,"Ġlike":2418,"Ġmany":2419,"Ġmagn":2420,"Ġrelatively":2421,"Ġreceptor":2422,"Ġdon":2423,"Ġcause":2424,"Ġnitro":2425,"illin":2426,"Ġalkaline":2427,"Ġure":2428,"Ġshort":2429,"Ġcentral":2430,"roup":2431,"osomal":2432,"osterone":2433,"Ġsuccess":2434,"Ġalter":2435,"Ġstimulated":2436,"Ġwill":2437,"Ġmonkeys":2438,"Ġcharacterized":2439,"Th":2440,"Ġlys":2441,"neum":2442,"Ġessen":2443,"inf":2444,"atal":2445,"Ġnm":2446,"Ġvesic":2447,"gi":2448,"ĠCon":2449,"Ġneed":2450,"Ġmechanisms":2451,"Ġdiet":2452,"Ġour":2453,"Ġantagon":2454,"rolog":2455,"ogenesis":2456,"ĠAd":2457,"Ġreview":2458,"Ġareas":2459,"TA":2460,"ensity":2461,"Ġbo":2462,"Ġfluorescence":2463,"ax":2464,"Ġpanc":2465,"Ġlit":2466,"Ġdetermine":2467,"Ġwhole":2468,"Ġcytotox":2469,"Ġcomplexes":2470,"Ġestablished":2471,"Ġmetabolic":2472,"Ġsulfate":2473,"ĠNADP":2474,"Ġmacro":2475,"oglyc":2476,"Ġneutral":2477,"Ġaverage":2478,"ists":2479,"ulations":2480,"coh":2481,"ria":2482,"Ġsimple":2483,"Ġintact":2484,"Ġtransi":2485,"ceptor":2486,"activity":2487,"last":2488,"Ġml":2489,"Ġgastric":2490,"lasts":2491,"Ġcytoplas":2492,"Ġsecondary":2493,"Ġsince":2494,"Ġpsych":2495,"otor":2496,"Ġutil":2497,"lab":2498,"Ġfunctional":2499,"ses":2500,"Ġlymphocyte":2501,"Ġsecre":2502,"Ġbil":2503,"Ġlar":2504,"ogn":2505,"Ġterm":2506,"cept":2507,"Ġach":2508,"Ġtw":2509,"stinal":2510,"Ġdop":2511,"duce":2512,"Ġlatter":2513,"Ġrep":2514,"Ġexcretion":2515,"Ġexposure":2516,"Ġmu":2517,"sacchar":2518,"Ġmalign":2519,"Ġalte":2520,"Ġcarcinoma":2521,"+,":2522,"Ġcomparison":2523,"Ġurinary":2524,"Ġdogs":2525,"troph":2526,"round":2527,"Ġlin":2528,"Ġprosta":2529,"EA":2530,"iving":2531,"Ġcharacteristics":2532,"Ġanaly":2533,"Ġear":2534,"br":2535,"Ġwould":2536,"Ġda":2537,"Ġsto":2538,"lied":2539,"Ġwork":2540,"ontaneous":2541,"Ġexamination":2542,"Ġov":2543,"ieved":2544,"Ġ21":2545,"Ġdys":2546,"erate":2547,"itude":2548,"Ġduration":2549,"Ġelevated":2550,"Ġcompara":2551,"Ġproducts":2552,"Ġconsidera":2553,"day":2554,"ences":2555,"ortic":2556,"Ġbased":2557,"Ġrespond":2558,"rapeutic":2559,"Ġrise":2560,"otherapy":2561,"hyth":2562,"An":2563,"lex":2564,"Ġgood":2565,"Ġsurgery":2566,"Ġacetyl":2567,"Ġbase":2568,"Ġrabbits":2569,"Ġsurvival":2570,"Ġantibio":2571,"Ġdiseases":2572,"way":2573,"Ġcompletely":2574,"orn":2575,"tized":2576,"ayed":2577,"Ġneurons":2578,"Ġextracts":2579,"Ġcorrelated":2580,"ection":2581,"Ġhel":2582,"Ġnor":2583,"ibri":2584,"otrop":2585,"ĠFor":2586,"Ġpain":2587,"Ġrather":2588,"most":2589,"tus":2590,"Ġchem":2591,"omes":2592,".)":2593,"Ġproduce":2594,"Ġdistinct":2595,"Ġlay":2596,"Ġhypothe":2597,"ovine":2598,"Ġcorresponding":2599,"Ġdeterminants":2600,"Ġtole":2601,"Ġstage":2602,"ĠAlthough":2603,"Ġgon":2604,"Ġalbumin":2605,"Ġstab":2606,"onary":2607,"Ġmamm":2608,"30":2609,"Ġfer":2610,"po":2611,"Ġtranspl":2612,"RH":2613,"tral":2614,"Ġmyel":2615,"oelec":2616,"Ġbl":2617,"Ġbehavior":2618,"osome":2619,"type":2620,"Ġseems":2621,"Ġadded":2622,"ĠFurther":2623,"Ġagent":2624,"ologically":2625,"Ġsurgical":2626,"Ġreceived":2627,"Ġdensity":2628,"Ġmolecules":2629,"ochrome":2630,"Ġmust":2631,"Ġve":2632,"Ġinhibitors":2633,"transferase":2634,"Ġantis":2635,"Ġlipid":2636,"Ġrecom":2637,"rit":2638,"vers":2639,"ospital":2640,"Ġdil":2641,"Ġgradi":2642,"Ġmusc":2643,"Ġmet":2644,"ye":2645,"rosine":2646,"acryl":2647,"Ġorganism":2648,"Ġrese":2649,"Ġavail":2650,"Ġhealthy":2651,"acter":2652,"Ġalcoh":2653,"Ġminim":2654,"PA":2655,"lusion":2656,"Ġobservations":2657,"Ġpotenti":2658,"epam":2659,"Ġevaluated":2660,"lyce":2661,"Ġmarkedly":2662,"ults":2663,"Ġenergy":2664,"ocyt":2665,"utri":2666,"Ġparticles":2667,"Ġshows":2668,"erated":2669,"Ġassociation":2670,"ĠBy":2671,"Ġpatterns":2672,"lase":2673,"ulating":2674,"adi":2675,"ull":2676,"ĠEx":2677,"Ġconver":2678,"Ġmicroscopy":2679,"Ġcerebral":2680,"man":2681,"alact":2682,"Ġsoluble":2683,"hest":2684,"-(":2685,"Ġadj":2686,"Ġmight":2687,"orded":2688,"Ġoccurs":2689,"aring":2690,"Ġspontaneous":2691,"Ġmultiple":2692,"Ġcolla":2693,"Ġcombined":2694,"Ġble":2695,"Ġright":2696,"free":2697,"Ġartery":2698,"Ġmixed":2699,"ĠNe":2700,"itone":2701,"Ġhepatic":2702,"Ġinfected":2703,"Ġremained":2704,"Ġstandard":2705,"Ġlabo":2706,"Ġ37":2707,"eic":2708,"Ġcolum":2709,"Ġpneum":2710,"Ġinduction":2711,"atin":2712,"Ġresponsible":2713,"nd":2714,"Ġhydrolysis":2715,"terol":2716,"Ġexplain":2717,"Ġmyocardial":2718,"loro":2719,"Ġpers":2720,"Ġrelation":2721,"amino":2722,"pecially":2723,"oro":2724,"Ġgreat":2725,"que":2726,"term":2727,"Ġenhanced":2728,"ylate":2729,"Ġindicating":2730,"Ġlittle":2731,"assi":2732,"Ġphosphatase":2733,"NP":2734,"Ġapplied":2735,"Ġfailure":2736,"hyde":2737,"Ġbacteria":2738,"Ġfew":2739,"Ġintracellular":2740,"Ġdam":2741,"ĠTwo":2742,"Ġstructures":2743,"illus":2744,"CG":2745,"Ġions":2746,"Ġbovine":2747,"Ġpregnancy":2748,"otyp":2749,"dehyde":2750,"Ġequal":2751,"pected":2752,"Ġsupport":2753,"Ġproduct":2754,"Ġrapidly":2755,"Ġinfusion":2756,"are":2757,"assium":2758,"ulate":2759,"otassium":2760,"Ġsex":2761,"truction":2762,"Ġnucleus":2763,"raz":2764,"Ġantisera":2765,"Ġrecogn":2766,"Ġdim":2767,"ision":2768,"Ġcortex":2769,"aneous":2770,"Ġdissoci":2771,"Ġprolong":2772,"Ġderived":2773,"plas":2774,"ĠThey":2775,"Ġaccumulation":2776,"xylase":2777,"Ġcolon":2778,"Ġwhether":2779,"trum":2780,"mal":2781,"Ġfam":2782,"Ġke":2783,"Ġshe":2784,"Ġconfirmed":2785,"gra":2786,"Ġantiserum":2787,"Ġsour":2788,"ultaneous":2789,"Ġanalog":2790,"Ġtherefore":2791,"Ġstatis":2792,"40":2793,"Ġbre":2794,"Ġthrom":2795,"Ġcys":2796,"Ġhepat":2797,"Ġfatty":2798,"Ġpyr":2799,"Ġfibrin":2800,"des":2801,"rence":2802,"ias":2803,"Ġpri":2804,"%,":2805,"Ġ22":2806,"Ġprocedures":2807,"Ġaggreg":2808,"Ġprolif":2809,"Ġphot":2810,"Ġcyclic":2811,"Ġnecessary":2812,"sc":2813,"atives":2814,"Ġpartially":2815,"Ġoptimum":2816,"change":2817,"Ġaccoun":2818,"Ġcoronary":2819,"Ġoperation":2820,"Ġdaily":2821,"yc":2822,"Ġprof":2823,"imens":2824,"bly":2825,"Ġdecreas":2826,"Ġbiop":2827,"Ġinjected":2828,"enzo":2829,"Ġembry":2830,"entation":2831,"ways":2832,"Ġcare":2833,"eness":2834,"Ġprac":2835,"amp":2836,"Ġsuggesting":2837,"lus":2838,"Ġsolutions":2839,"Ġalmost":2840,"Ġsperm":2841,"ark":2842,"seud":2843,"Ġregions":2844,"ĠUn":2845,"Ġconj":2846,"Ġapplication":2847,"Ġhr":2848,"Ġnoted":2849,"Ġindependent":2850,"anth":2851,"Ġcondition":2852,"esthe":2853,"Ġresidues":2854,"Ġyoun":2855,"Ġoften":2856,"ef":2857,"Ġinform":2858,"Ġerythrocytes":2859,"acrylamide":2860,"ying":2861,"resh":2862,"Ġvascular":2863,"Ġslightly":2864,"Ġsulph":2865,"toph":2866,"Ġrespect":2867,"ranolol":2868,"ime":2869,"Ġsections":2870,"Ġrecorded":2871,"Ġleads":2872,"SA":2873,"pine":2874,"cyc":2875,"atures":2876,"Ġrespiratory":2877,"erence":2878,"overy":2879,"sing":2880,"Ġespecially":2881,"Ġnucleo":2882,"Ġphosphoryl":2883,"tidine":2884,"EC":2885,"olution":2886,"Ġaccording":2887,"Ġtherapeutic":2888,"Ġcataly":2889,"Ġmacropha":2890,"gan":2891,"phrine":2892,"lan":2893,"Ġpreven":2894,"Ġdeath":2895,"ilized":2896,"Ġ35":2897,"Ġheat":2898,"Ġmainly":2899,"Ġproposed":2900,"ĠIII":2901,"Ġmolecule":2902,"Ġanimal":2903,"Ġimpor":2904,"used":2905,"tation":2906,"ronch":2907,"Ġfemale":2908,"Ġfibers":2909,"Ġbasal":2910,"Ġmor":2911,"Ġthyroid":2912,"acetyl":2913,"Ġcomposition":2914,"Ġlen":2915,"Ġirradi":2916,"Ġstep":2917,"utaneous":2918,"Ġnuclear":2919,"Ġmeasurements":2920,"ĠOne":2921,"lamm":2922,"Ġconn":2923,"Ġpaper":2924,"Ġdispl":2925,"ĠHLA":2926,"Ġstable":2927,"Ġvesicles":2928,"Ġretic":2929,"luores":2930,"Ġnuclei":2931,"stim":2932,"Ġgave":2933,"Ġlater":2934,"turb":2935,"Ġincorporation":2936,"11":2937,"Ġmarrow":2938,"Ġtur":2939,"Ġstill":2940,"Ġcontroll":2941,"ended":2942,"Ġyield":2943,"Ġsynthes":2944,"ensitive":2945,"Ġhepatitis":2946,"Ġtetra":2947,"Ġtoward":2948,"oglobulin":2949,"Ġ80":2950,"Ġseg":2951,"ned":2952,"lets":2953,"trophy":2954,"cal":2955,"Ġchains":2956,"ctable":2957,"Ġhypoth":2958,"Ġimportance":2959,"Ġfeatures":2960,"Ġbuffer":2961,"verse":2962,"Ġexhibited":2963,"thal":2964,"put":2965,"ening":2966,"tured":2967,"itary":2968,"ĠPro":2969,"ompan":2970,"Ġrisk":2971,"estion":2972,"Ġnature":2973,"Ġbiochemical":2974,"utes":2975,"elled":2976,"Ġ48":2977,"Ġprior":2978,"otype":2979,"Ġemplo":2980,"Ġelimin":2981,"Ġplac":2982,"the":2983,"Ġtaken":2984,"ĠCO":2985,"Ġpartial":2986,"Ġfas":2987,"ĠRes":2988,"Ġestimated":2989,"actin":2990,"ominant":2991,"Ġpotassium":2992,"Ġcontinuous":2993,"Ġnorm":2994,"Ġphysiological":2995,"Ġrecip":2996,"Ġcycle":2997,"inase":2998,"Ġchol":2999,"ady":3000,"pair":3001,"Ġbasic":3002,"Ġcomplications":3003,"yed":3004,"phas":3005,"Ġ'":3006,"Ġaccompan":3007,"ĠDuring":3008,"itrate":3009,"Ġperox":3010,"Ġlig":3011,"very":3012,"arbo":3013,"Ġcate":3014,"Ġlife":3015,"Ġphospholip":3016,"tingu":3017,"arch":3018,"Ġequil":3019,"Ġsed":3020,"Ġmodified":3021,"Ġhypothesis":3022,"05":3023,"tamin":3024,"Ġproved":3025,"Ġ28":3026,"oside":3027,"enc":3028,"ascular":3029,"uch":3030,"Ġdiagnostic":3031,"Ġmalignant":3032,"ycin":3033,"Ġinfants":3034,"Ġcoup":3035,"Ġdiffer":3036,"Ġrequire":3037,"ĠOf":3038,"Ġdire":3039,"Ġprovide":3040,"Ġachieved":3041,"Ġaffect":3042,"Ġfoc":3043,"Ġsimultaneous":3044,"Ġappearance":3045,"Ġshif":3046,"Ġstrongly":3047,"Ġatr":3048,"Ġmyosin":3049,"Ġcharacteristic":3050,"Ġsequence":3051,"Ġtit":3052,"uct":3053,"Ġbronch":3054,"Ġyear":3055,"order":3056,"ĠKm":3057,"oass":3058,"Ġparticularly":3059,"rec":3060,"Ġstained":3061,"vered":3062,"Ġtrypsin":3063,"Ġvia":3064,"aemia":3065,"Ġquantitative":3066,"ages":3067,"Ġsubsequent":3068,"Ġ90":3069,"Ġinformation":3070,"Ġcann":3071,"Ġmid":3072,"anta":3073,"ulose":3074,"Ġdev":3075,"Ġdemonstrate":3076,"Ġavailable":3077,"Ġstructural":3078,"Ġphenomen":3079,"Ġreactivity":3080,"nit":3081,"Ġthird":3082,"Ġcollagen":3083,"Ġinvestigation":3084,"Ġdetermination":3085,"Ġmuscles":3086,"bic":3087,"Ġmark":3088,"Ġasc":3089,"Ġ70":3090,"ococcus":3091,"ending":3092,"Ġchloride":3093,"EG":3094,"Ġprogram":3095,"Ġsubstrates":3096,"Ġpolypep":3097,"01":3098,"Ġsubstances":3099,"Ġther":3100,"tence":3101,"Ġindicates":3102,"Ġmedia":3103,"Ġqual":3104,"Ġprocesses":3105,"Ġfiltration":3106,"ĠAMP":3107,"Ġreport":3108,"Ġstages":3109,"Ġdopamine":3110,"ĠAm":3111,"Ġexposed":3112,"alle":3113,"Ġlines":3114,"antation":3115,"Ġweak":3116,"Ġ23":3117,"Ġpersis":3118,"Ġpossess":3119,"Ġactivated":3120,"Ġtumour":3121,"leep":3122,"Ġsubc":3123,"Ġcauses":3124,"Ġbacterial":3125,"Ġoxidation":3126,"produc":3127,"Ġintens":3128,"Ġviral":3129,"more":3130,"Ġrepresent":3131,"Ġap":3132,"treatment":3133,"Ġfall":3134,"Ġanalys":3135,"Ġleukemia":3136,"ibrium":3137,"Ġsitu":3138,"Ġconcer":3139,"Ġdeficiency":3140,"Ġinduc":3141,"itation":3142,"Ġmitochondria":3143,"Ġultras":3144,"Ġcapa":3145,"renaline":3146,"Ġsusp":3147,"Ġmetabolites":3148,"17":3149,"Ġhospital":3150,"amb":3151,"ĠAFP":3152,"Ġexperi":3153,"Ġreflec":3154,"Ġadditional":3155,"Ġpossibility":3156,"ternal":3157,"ologous":3158,"cip":3159,"genic":3160,"Ġampl":3161,"Ġrecovery":3162,"Ġvessel":3163,"Ġhybr":3164,"lue":3165,"iol":3166,"60":3167,"ging":3168,"arin":3169,"armac":3170,"minal":3171,"Ġenzymatic":3172,"azine":3173,"Ġdelta":3174,"Ġdetection":3175,"ired":3176,"Ġmes":3177,"ils":3178,"Ġnutri":3179,"ynthe":3180,"Ġweek":3181,"dex":3182,"Ġsignificance":3183,"Ġconduc":3184,"Ġhaving":3185,"Ġammon":3186,"ivalent":3187,"Ġgradient":3188,"Ġaltered":3189,"Ġseven":3190,"Ġparen":3191,"Ġeight":3192,"Ġevaluation":3193,"enzyme":3194,"Ġprolonged":3195,"Ġsmo":3196,"roph":3197,"roscop":3198,"Ġtransc":3199,"Ġposition":3200,"Ġtarge":3201,"ĠAc":3202,"Ġdegrad":3203,"Ġfailed":3204,"Ġdirectly":3205,"iting":3206,"Ġ45":3207,"cepti":3208,"Ġdesign":3209,"Ġcytochrome":3210,"aem":3211,"ritis":3212,"Ġinterpre":3213,"Ġminutes":3214,"Ġiron":3215,"Ġmass":3216,"diol":3217,"HT":3218,"Ġview":3219,"Ġexp":3220,"Ġcalculated":3221,"Ġepid":3222,"Ġbetter":3223,"orrh":3224,"Ġseparated":3225,"Ġ000":3226,"Ġhypertension":3227,"Ġkinetics":3228,"teen":3229,"omatic":3230,"olysis":3231,"Ġcurrent":3232,"Ġfragments":3233,"Ġpancre":3234,"ulum":3235,"Ġmutant":3236,"itamin":3237,"illary":3238,"Ġmonit":3239,"Ġchromosome":3240,"Ġlabeled":3241,"Ġold":3242,"Ġmonkey":3243,"tality":3244,"Ġessential":3245,"Ġtoge":3246,"Ġmaximal":3247,"Ġtogether":3248,"Ġnative":3249,"ock":3250,"Ġresistant":3251,"Ġspecimens":3252,"Ġusually":3253,"Ġiso":3254,"related":3255,"Ġproblems":3256,"Ġalcohol":3257,"Ġlaboratory":3258,"Ġresulting":3259,"terase":3260,"enty":3261,"eth":3262,"tox":3263,"ected":3264,"Ġstri":3265,"viron":3266,"Ġdisturb":3267,"Ġgland":3268,"Ġauto":3269,"Ġfield":3270,"Ġstren":3271,"atis":3272,"Ġsigns":3273,"etic":3274,"Ġdiv":3275,"Ġexcess":3276,"orders":3277,"Ġbind":3278,"Ġinfections":3279,"Ġreleased":3280,"Ġrevers":3281,"Ġbile":3282,"Ġchick":3283,"emb":3284,"18":3285,"Ġyoung":3286,"Ġblocking":3287,"Ġstero":3288,"arily":3289,"Ġexis":3290,"Ġabnormalities":3291,"choline":3292,"year":3293,"enced":3294,"Ġincluded":3295,"13":3296,"Ġver":3297,"ella":3298,"Ġlitera":3299,"Ġsleep":3300,"Ġbiological":3301,"Ġvisual":3302,"Ġinterv":3303,"Ġunits":3304,"aptic":3305,"gland":3306,"idal":3307,"Ġcarbon":3308,"Ġrepe":3309,"af":3310,"ulatory":3311,"Ġbel":3312,"Ġperiods":3313,"Ġmixture":3314,"Ġalterations":3315,"Ġinj":3316,"Ġheav":3317,"omple":3318,"ofluores":3319,"ĠQ":3320,"Ġtyrosine":3321,"Ġdamage":3322,"Ġplus":3323,"ĠNADPH":3324,"Ġliterature":3325,"Ġsuppress":3326,"SF":3327,"ators":3328,"Ġprogressive":3329,"fficiency":3330,"Ġmitochondrial":3331,"oassay":3332,"Ġmanif":3333,"Ġglycoprotein":3334,"Ġmutants":3335,"ococcal":3336,"Ġproportion":3337,"ii":3338,"tiz":3339,"Ġmug":3340,"ational":3341,"uvate":3342,"teria":3343,"Ġconven":3344,"Ġgenetic":3345,"gens":3346,"Ġpotent":3347,"HA":3348,"Ġanother":3349,"Ġdimin":3350,"Ġcytotoxic":3351,"alanine":3352,"Ġwide":3353,"Ch":3354,"Ġretin":3355,"Ġmig":3356,"Ġlength":3357,"Ġspecial":3358,"Ġcollec":3359,"ulins":3360,"Ġ32":3361,"Ġcolumn":3362,"Ġfibres":3363,"Ġmortality":3364,"cine":3365,"ĠSince":3366,"positive":3367,"osyl":3368,"Ġvary":3369,"Ġcholes":3370,"Ġpoint":3371,"Ġprost":3372,"Ġmelan":3373,"LC":3374,"Ġstain":3375,"Ġimmunoglobulin":3376,"jection":3377,"Ġviruses":3378,"atus":3379,"Ġexperiment":3380,"Ġdegradation":3381,"Ġimp":3382,"Ġdiffic":3383,"aternal":3384,"Ġsystemic":3385,"Ġolig":3386,"enicillin":3387,"group":3388,"ĠFrom":3389,"Ġendogenous":3390,"adex":3391,"equ":3392,"Ġhighest":3393,"Ġfrequently":3394,"Ġren":3395,"Ġthough":3396,"ili":3397,"Ġexchange":3398,"Ġinflamm":3399,"Ġvariety":3400,"Ġanterior":3401,"Ġethanol":3402,"phadex":3403,"Ġonset":3404,"16":3405,"Ġtrac":3406,"Ġanalyzed":3407,"assive":3408,"Ġparalle":3409,"bound":3410,"raw":3411,"Ġattac":3412,"ĠPG":3413,"less":3414,"Ġbelow":3415,"Ġatten":3416,"Ġ27":3417,"Ġadenosine":3418,"uron":3419,"Ġunderg":3420,"Ġsuscepti":3421,"Ġnat":3422,"mediated":3423,"Ġinactivation":3424,"allen":3425,"ĠIgM":3426,"Ġinjections":3427,"Ġextract":3428,"kele":3429,"Ġbehavi":3430,"ora":3431,"rological":3432,"Ġhost":3433,"Ġimproved":3434,"uals":3435,"Ġpathway":3436,"Ġoxidase":3437,"oz":3438,"idi":3439,"omon":3440,"Ġasp":3441,"Ġfibrob":3442,"Ġincubated":3443,"ales":3444,"Ġdetectable":3445,"Ġcontains":3446,"Ġpropranolol":3447,"ĠPh":3448,"Ġtract":3449,"Ġactin":3450,"Ġmoderate":3451,"ored":3452,"Ġregard":3453,"Ġconjug":3454,"Ġintensity":3455,"vironment":3456,"angl":3457,"tryp":3458,"Ġselective":3459,"odec":3460,"Ġintermediate":3461,"oden":3462,"Ġher":3463,"Ġrestric":3464,"Ġlonger":3465,"Ġterms":3466,"uter":3467,"oxide":3468,"Ġlimited":3469,"Co":3470,"Ġgastro":3471,"su":3472,"Ġdisorders":3473,"Ġequilibrium":3474,"tran":3475,"Ġcomparable":3476,"den":3477,"tophan":3478,"oked":3479,"uoden":3480,"yg":3481,"Ġimprovement":3482,"Ġdeta":3483,"Ġacetate":3484,"Ġradioimmun":3485,"Ġable":3486,"aturation":3487,"Ġpolymerase":3488,"Ġcontrolled":3489,"Ġsuccessful":3490,"mission":3491,"ĠSim":3492,"Ġoff":3493,"atid":3494,"Ġcontraction":3495,"Ġhypothal":3496,"Ġperme":3497,"Ġseroton":3498,"ok":3499,"ĠZ":3500,"opha":3501,"Ġproton":3502,"Ġprecurs":3503,"Ġgranules":3504,"Ġed":3505,"Ġionic":3506,"Ġcapable":3507,"DTA":3508,"Ġindividuals":3509,"Ġsw":3510,"Ġlinear":3511,"onia":3512,"Ġmol":3513,"Ġmono":3514,"ilization":3515,"Ġdependence":3516,"Ġobservation":3517,"Ġsubstitu":3518,"Ġpeptide":3519,"ifug":3520,"umption":3521,"ticular":3522,"Ġdisapp":3523,"Ġleuc":3524,"Ġcultured":3525,"Ġgraft":3526,"Ġreag":3527,"Ġexternal":3528,"Ġspl":3529,"Ġpharmac":3530,"Ġreductase":3531,"Ġchallen":3532,"tidase":3533,"Ġrecipi":3534,"overed":3535,"ximal":3536,"Ġfav":3537,"omic":3538,"Ġenti":3539,"rip":3540,"itable":3541,"ust":3542,"ĠLH":3543,"ropri":3544,"Ġaccompanied":3545,"Ġair":3546,"Ġnitrogen":3547,"veloc":3548,"kinase":3549,"Ġderivatives":3550,"Ġindex":3551,"Ġbro":3552,"lorop":3553,"Ġoptimal":3554,"Ġelu":3555,"Ġextracellular":3556,"odecyl":3557,"Ġsubunits":3558,"Na":3559,"Ġband":3560,"urine":3561,"Ġdistingu":3562,"Ġconstitu":3563,"inus":3564,"osidase":3565,"ris":3566,"osed":3567,"Ġng":3568,"Ġthyro":3569,"Ġplacebo":3570,"Ġprot":3571,"Ġimmunological":3572,"Ġmaintained":3573,"Ġprin":3574,"saccharide":3575,"Ġpoor":3576,"Ġhypertrophy":3577,"Ġsolub":3578,"Ġill":3579,"ĠRe":3580,"binding":3581,"Ġinner":3582,"osynthe":3583,"Ġcyclase":3584,"Ġdefined":3585,"Ġlikely":3586,"Ġsynthetase":3587,"mitted":3588,"Ġsedim":3589,"Ġfood":3590,"Ġpredic":3591,"mol":3592,"erally":3593,"Ġcompeti":3594,"Ġlocated":3595,"Ġconstants":3596,"Ġattem":3597,"lier":3598,"CA":3599,"Ġtend":3600,"Ġpopulations":3601,"Ġrandom":3602,"Ġinoc":3603,"Ġdefec":3604,"tility":3605,"Ġnerv":3606,"otropic":3607,"Ġremoved":3608,"AMP":3609,"rup":3610,"Ġconformation":3611,"Ġads":3612,"Ġlarger":3613,"hythm":3614,"ĠFurthermore":3615,"Ġlactate":3616,"Ġlateral":3617,"Ġinduce":3618,"Ġrecur":3619,"We":3620,"Ġskele":3621,"alin":3622,"Ġimmunofluores":3623,"orbed":3624,"Ġenhance":3625,"Ġintestinal":3626,"sec":3627,"ack":3628,"ĠIm":3629,"ometric":3630,"Ġstrength":3631,"icial":3632,"omat":3633,"iform":3634,"Ġexerc":3635,"Ġdodecyl":3636,"Ġglut":3637,"Ġlayer":3638,"Ġdissociation":3639,"oral":3640,"oretic":3641,"Ġmeasurement":3642,"Ġhex":3643,"itoneal":3644,"Ġstatistically":3645,"Ġmacrophages":3646,"but":3647,"Ġsarc":3648,"Ġenvironment":3649,"Ġseparate":3650,"benz":3651,"Ġgangl":3652,"Ġsuppor":3653,"Ġplatelet":3654,"Ġbir":3655,"Ġadvanta":3656,"Ġclosely":3657,"Ġderm":3658,"changed":3659,"Ġremoval":3660,"dominal":3661,"Ġveloc":3662,"Ġsubstance":3663,"ĠLe":3664,"Ġprovided":3665,"75":3666,"Ġdepression":3667,"Ġrecomm":3668,"ams":3669,"Ġ26":3670,"Ġoes":3671,"Ġmotor":3672,"Ġreceiving":3673,"Ġ33":3674,"Ġcathe":3675,"Ġphysical":3676,"ided":3677,"Ġvitamin":3678,"Ġdepos":3679,"Ġtolerance":3680,"Ġbehaviour":3681,"spec":3682,"Ġsch":3683,"Ġraised":3684,"ocytic":3685,"atients":3686,"Ġapparently":3687,"Ġgranul":3688,"Ġinternal":3689,"Ġmedical":3690,"Ġepithelial":3691,"Ġcre":3692,"Ġsynthesized":3693,"Ġprincip":3694,"glyc":3695,"Ġextensive":3696,"anding":3697,"Ġfixation":3698,"Ġdecreases":3699,"Ġfar":3700,"Ġhead":3701,"Ġgenes":3702,"Ġphospho":3703,"Ġtestosterone":3704,"III":3705,"Ġindirect":3706,"adrenergic":3707,"Ġcannot":3708,"alt":3709,"opoly":3710,"Ġsubunit":3711,"Ġnervous":3712,"Ġlesion":3713,"Ġvaried":3714,"Ġsil":3715,"Ġhypox":3716,"Ġvariation":3717,"namic":3718,"Ġprevent":3719,"adder":3720,"Ġta":3721,"Ġscre":3722,"Ġcytoplasmic":3723,"Ġexcept":3724,"Ġmicrosomal":3725,"flu":3726,"odi":3727,"ĠOnly":3728,"Ġlack":3729,"Ġelic":3730,"Ġdetect":3731,"ectomy":3732,"Ġearlier":3733,"Ġinjur":3734,"Ġcoe":3735,"Ġreas":3736,"labeled":3737,"glutam":3738,"Ġspecif":3739,"Ġpolyacrylamide":3740,"Ġorganisms":3741,"ĠHB":3742,"ĠAnti":3743,"Ġkinetic":3744,"ĠSome":3745,"Ġaltern":3746,"57":3747,"Ġbrom":3748,"Ġsucrose":3749,"ropriate":3750,"Ġpancreatic":3751,"phe":3752,"Ġstar":3753,"Ġtarget":3754,"na":3755,"Ġglutam":3756,"Ġsel":3757,"ĠTRH":3758,"Ġunit":3759,"enter":3760,"ichia":3761,"Ġinfar":3762,"ĠEEG":3763,"Ġheavy":3764,"Ġblue":3765,"Ġoutput":3766,"Ġguan":3767,"Ġpercentage":3768,"Ġvag":3769,"ĠPA":3770,"Ġabol":3771,"Ġdelayed":3772,"Ġrepeated":3773,"PS":3774,"Ġpredominant":3775,"pH":3776,"Ġdeoxy":3777,"Ġunchanged":3778,"Ġgenerally":3779,"Ġlabel":3780,"Ġdifferential":3781,"ituitary":3782,"Ġaortic":3783,"Ġrare":3784,"ograph":3785,"Ġnumbers":3786,"Ġselected":3787,"Ġiod":3788,"Ġmediated":3789,"Ġvessels":3790,");":3791,"nat":3792,"scher":3793,"Ġcord":3794,"Ġstress":3795,"Ġgrown":3796,"Ġexpression":3797,"omonas":3798,"ss":3799,"ilities":3800,"ights":3801,"eric":3802,"Ġparent":3803,"Ġhistochemical":3804,"Ġinvolvement":3805,"Ġuns":3806,"Ġthymus":3807,"glutination":3808,"Ġcholesterol":3809,"Ġpron":3810,"Ġbest":3811,"Ġextre":3812,"Ġdifferentiation":3813,"Ġpref":3814,"Ġapproach":3815,"OH":3816,"abain":3817,"Ġsuspension":3818,"Ġreviewed":3819,"Ġsource":3820,"scherichia":3821,"effec":3822,"Ġten":3823,"%).":3824,"idin":3825,"Ġsmaller":3826,"containing":3827,"Ġbic":3828,"athe":3829,"Ġmetal":3830,"Ġintervals":3831,"Ġcatechol":3832,"bl":3833,"Ġthick":3834,"Ġhybrid":3835,"cardi":3836,"ĠMe":3837,"ula":3838,"Ġ200":3839,"Ġspinal":3840,"Ġprevented":3841,"Ġskeletal":3842,"dim":3843,"Ġretro":3844,"Ġsep":3845,"Ġdiabetic":3846,"Ġradioactivity":3847,"rates":3848,"Ġassessed":3849,"Ġstability":3850,"Ġthromb":3851,"ik":3852,"Ġhemo":3853,"Ġblocked":3854,"Ġbecame":3855,"Ġtoxic":3856,"ione":3857,"Ġclinically":3858,"ĠHe":3859,"Ġvenous":3860,"Ġmucosa":3861,"Ġdonor":3862,"sensitive":3863,"ĠY":3864,"Ġway":3865,"ionic":3866,"geal":3867,"This":3868,"acy":3869,"Ġwhose":3870,"galact":3871,"ang":3872,"Ġpigs":3873,"Ġmother":3874,"chrom":3875,"Ġnear":3876,"ĠEscherichia":3877,"aps":3878,"esthes":3879,"Ġtrain":3880,"tradiol":3881,"Ġsuppression":3882,"Ġconsequ":3883,"Ġplasmin":3884,"Ġchromosomes":3885,"Ġprostagland":3886,"mented":3887,"Ġaqu":3888,"Ġexten":3889,"etoprotein":3890,"Ġserotonin":3891,"Ġtransformation":3892,"ints":3893,"Ġpy":3894,"range":3895,"matic":3896,"Ġundergo":3897,"aldehyde":3898,"Ġeas":3899,"ramine":3900,"inte":3901,"Ġmaternal":3902,"Ġattribu":3903,"Ġnorad":3904,"ensitivity":3905,"Ġamplitude":3906,"Ġantic":3907,"Ġled":3908,"ystal":3909,"pose":3910,"Ġcriteria":3911,"aden":3912,"Ġuntil":3913,"Ġbirth":3914,"estation":3915,"Ġcurves":3916,"esthesia":3917,"Ġfunctions":3918,"Ġparallel":3919,"nic":3920,"Ġcurve":3921,"Ġfed":3922,"Ġdegen":3923,"lastic":3924,"Ġtypical":3925,"obarb":3926,"Ġbodies":3927,"Ġet":3928,"ogeneic":3929,"Ġglomer":3930,"Ġprolactin":3931,"isation":3932,"cephal":3933,"Ġfixed":3934,"ications":3935,"Ġpostoperative":3936,"hesus":3937,"Ġadhe":3938,"ĠGA":3939,"Ġsynthetic":3940,"Ġcarbohyd":3941,"Ġbleomycin":3942,"BC":3943,"Ġkinase":3944,"+)":3945,"Ġradiation":3946,"rous":3947,"Ġglycogen":3948,"-,":3949,"tetra":3950,"Ġduoden":3951,"Ġdeple":3952,"Ġoverall":3953,"Ġhemoglobin":3954,"oelectric":3955,"abo":3956,"Ġnow":3957,"Ġbiopsy":3958,"Ġkill":3959,"Ġminor":3960,"arbonate":3961,"sp":3962,"utine":3963,"hal":3964,"Ġti":3965,"ĠADP":3966,"Ġretur":3967,"Ġmodification":3968,"Ġmorphine":3969,"Ġcerv":3970,"Ġsheep":3971,"Ġpub":3972,"Ġaccount":3973,"Ġexercise":3974,"Ġintro":3975,"Ġprogn":3976,"001":3977,"Ġregulation":3978,"Ġpurification":3979,"Ġmorphological":3980,"Ġemployed":3981,"hydrox":3982,"Ġconsiderable":3983,"ryp":3984,"quid":3985,"Ġinvestigations":3986,"pite":3987,"Ġmil":3988,"Ġact":3989,"Ġdex":3990,"TH":3991,"ude":3992,"Ġcop":3993,"Ġroutine":3994,"Ġadrenal":3995,"Ġantibiotic":3996,"Ġrenin":3997,"ĠSephadex":3998,"Ġpersons":3999,"Ġfamily":4000,"80":4001,"Ġdied":4002,"elling":4003,"Ġdiffusion":4004,"agement":4005,"Ġdefect":4006,"Ġtrig":4007,"Ġuter":4008,"reast":4009,"ococci":4010,"DNA":4011,"Ġfact":4012,"Ġster":4013,"Ġsalt":4014,"chem":4015,"ĠInc":4016,"24":4017,"ats":4018,"lasma":4019,"Ġreverse":4020,"Ġpent":4021,"ĠCo":4022,"ĠMore":4023,"meth":4024,"Ġ125":4025,"Ġvelocity":4026,"Se":4027,"Ġthroughout":4028,"opathy":4029,"Ġphenomenon":4030,"atisfac":4031,"ĠTo":4032,"Ġcontact":4033,"Ġvariations":4034,"Ġcorrespond":4035,"Ġconventional":4036,"Ġwild":4037,"Ġwhom":4038,"Ġadap":4039,"Ġfragment":4040,"Ġdip":4041,"Ġmast":4042,"Ġvariable":4043,"Ġhelp":4044,"mature":4045,"Ġfast":4046,"Ġsuitable":4047,"Ġspectrum":4048,"Ġfemales":4049,"Ġouter":4050,"Ġspecifically":4051,"oring":4052,"bloc":4053,"Ġaspec":4054,"Ġlocalized":4055,"Ġsinus":4056,"Ġbr":4057,"associ":4058,"Ġglu":4059,"ifugation":4060,"Ag":4061,"Ġsuperior":4062,"Ġperfusion":4063,"Ġirradiation":4064,"body":4065,"Ġ.":4066,"Ġturn":4067,"ĠpK":4068,"Ġvaria":4069,"Ġtumours":4070,"tile":4071,"trin":4072,"Ġinterf":4073,"odynamic":4074,"seudomonas":4075,"Ġradioimmunoassay":4076,"ope":4077,"Ġmales":4078,"Ġurea":4079,"sulf":4080,"Ġinvolving":4081,"Ġremains":4082,"Ġaer":4083,"roglobulin":4084,"Ġbal":4085,"ĠPR":4086,"Ġavoid":4087,"ceed":4088,"Ġshor":4089,"Ġphenyl":4090,"olec":4091,"ution":4092,"Ġaged":4093,"Ġemphas":4094,"thyroid":4095,"Ġexpected":4096,"Ġoste":4097,"Ġatrial":4098,"Ġbur":4099,"Ġappropriate":4100,"Ġbreast":4101,"Ġ36":4102,"Ġfrequent":4103,"Ġminimal":4104,"EM":4105,"umed":4106,"Ġdonors":4107,"Ġproliferation":4108,"Ġben":4109,"Ġoccurring":4110,"ĠPre":4111,"Ġprimarily":4112,"Ġconsiderably":4113,"phen":4114,"Ġabdominal":4115,"Ġhistological":4116,"ilateral":4117,"Ġspectra":4118,"Ġdisappe":4119,"Ġpathological":4120,"Ġpossibly":4121,"Ġsulphate":4122,"ze":4123,"tatic":4124,"Ġremaining":4125,"ident":4126,"Ġisoelectric":4127,"ĠEC":4128,"Ġorgans":4129,"Ġalong":4130,"Ġenc":4131,"ounced":4132,"32":4133,"merc":4134,"inosa":4135,"Ġbene":4136,"ĠCl":4137,"ĠPC":4138,"Ġacidic":4139,"Ġmajority":4140,"DS":4141,"Ġmanagement":4142,"Ġvarying":4143,"Ġalways":4144,"paired":4145,"ĠWh":4146,"Ġpituitary":4147,"Ġangi":4148,"ript":4149,"ĠEDTA":4150,"Ġperformance":4151,"poly":4152,"anning":4153,"Ġ75":4154,"Ġplay":4155,"ĠThree":4156,"self":4157,"Ġnine":4158,"ape":4159,"gg":4160,"Ġ29":4161,"Ġothers":4162,"Ġovar":4163,"uginosa":4164,"oluble":4165,"Ġextraction":4166,"Ġinteractions":4167,"Ġdial":4168,"Ġset":4169,"ching":4170,"Ġfibroblasts":4171,"197":4172,"ĠSimilar":4173,"fts":4174,"rest":4175,"yst":4176,"Ġexpressed":4177,"Ġpolypeptide":4178,"Ġepiderm":4179,"Ġaeruginosa":4180,"35":4181,"Ġtension":4182,"Ġpenicillin":4183,"osamin":4184,"ĠOur":4185,"Ġtoxicity":4186,"Ġantibiotics":4187,"encies":4188,"Ġdepressed":4189,"Ġsmooth":4190,"Ġang":4191,"Ġbands":4192,"cele":4193,"otin":4194,"lux":4195,"ĠFe":4196,"Ġerythrocyte":4197,"Ġgo":4198,"ema":4199,"Ġhydrogen":4200,"Ġbecome":4201,"lying":4202,"Ġaqueous":4203,"ched":4204,"Ġnit":4205,"Ġpronounced":4206,"oxin":4207,"formed":4208,"Ġsuppressed":4209,"lycerol":4210,"Ġnatural":4211,"Ġepithelium":4212,"Ġfocus":4213,"Ġdetail":4214,"Ġtrial":4215,"Ġnons":4216,"Ġdiame":4217,"azole":4218,"ancies":4219,"erent":4220,"fetoprotein":4221,"rich":4222,"urate":4223,"Ġsens":4224,"Ġlast":4225,"ĠBac":4226,"Ġuntreated":4227,"Ġrecons":4228,"ĠIf":4229,"nel":4230,"Ġoccurrence":4231,"Ġinsu":4232,"ĠIgA":4233,"phase":4234,"idity":4235,"Ġrad":4236,"Ġneoplas":4237,"Ġlapa":4238,"acement":4239,"Ġinterfer":4240,"Ġterminal":4241,"Ġvaccin":4242,"Ġclearly":4243,"iat":4244,"Ġpool":4245,"Ġrecovered":4246,"Ig":4247,"hyp":4248,"Ġ--":4249,"Ġpap":4250,"irus":4251,"tice":4252,"Ġnet":4253,"Ġyiel":4254,"Ġjo":4255,"Ġce":4256,"iffusion":4257,"Ġhypo":4258,"Ġimmunization":4259,"Ġchemotherapy":4260,"PC":4261,"Ġmicroscopic":4262,"21":4263,"Ġer":4264,"oscop":4265,"ogram":4266,"eity":4267,"Ġmild":4268,"Ġreached":4269,"Ġmening":4270,"ĠTSH":4271,"Ġelectrophoretic":4272,"Ġlocalization":4273,"Ġtryptophan":4274,"Ġagon":4275,"Ġfetus":4276,"adily":4277,"+/-":4278,"ctive":4279,"ode":4280,"ĠComp":4281,"ads":4282,"aryn":4283,"Ġdosage":4284,"Ġsupernat":4285,"Ġpotentials":4286,"heum":4287,"Ġglobulin":4288,"Ġstimulus":4289,"linked":4290,"CoA":4291,"Ġextracted":4292,"Ġstrept":4293,"mus":4294,"Ġamyl":4295,"ceptors":4296,"Ġmagnitude":4297,"BL":4298,"Ġsample":4299,"Ġnewb":4300,"Ġblockade":4301,"Ġbreak":4302,"23":4303,"AL":4304,"Ġreticulum":4305,"ĠSta":4306,"Ġhormones":4307,"Ġtowards":4308,"Ġgive":4309,"tiveness":4310,"erating":4311,"entricular":4312,"Ġperoxidase":4313,"%),":4314,"Two":4315,"ĠCom":4316,"Ġinterval":4317,"Ġcaps":4318,"Ġbar":4319,"Ġneph":4320,"Ġcortical":4321,"inated":4322,"Ġbra":4323,"Ġexplained":4324,"reac":4325,"upp":4326,"ĠCSF":4327,"Ġshowing":4328,"ĠUsing":4329,"Ġprecipitation":4330,"opa":4331,"Ġacidosis":4332,"ilep":4333,"ĠEn":4334,"+)-":4335,"Ġpass":4336,"Ġconversion":4337,"Ġultrastruc":4338,"Ġrest":4339,"Ġpretreatment":4340,"Ġhistory":4341,"Ġstorage":4342,"Ġexperience":4343,"aw":4344,"asal":4345,"anted":4346,"Ġpyruvate":4347,"Ġpeptides":4348,"Ġpermeability":4349,"Ġimmunofluorescence":4350,"ray":4351,"urg":4352,"Ġsup":4353,"Ġconsumption":4354,"Ġtransplantation":4355,"phenyl":4356,"Ġhor":4357,"ĠNADH":4358,"by":4359,"Ġbran":4360,"olone":4361,"Ġposterior":4362,"Ġstatus":4363,"Ġconfirm":4364,"Ġfa":4365,"omized":4366,"Ġvolun":4367,"Ġadrenergic":4368,"mg":4369,"+.":4370,"pyr":4371,"Ġpassive":4372,"ĠMn":4373,"Ġmeasuring":4374,"mob":4375,"cellulose":4376,"wh":4377,"Ġadequ":4378,"ĠHg":4379,"mag":4380,"ception":4381,"Ġnormally":4382,"Ġglands":4383,"stimulated":4384,"Ġinfarction":4385,"def":4386,"Ġtesting":4387,"Ġbiosynthe":4388,"Ġinfluenced":4389,"Ġelectrical":4390,"Ġbenef":4391,"Ġcation":4392,"Ġthin":4393,"Ġsaline":4394,"Ġfro":4395,"oses":4396,"diaz":4397,"Ġevoked":4398,"ined":4399,"test":4400,"Ġgram":4401,"Ġresto":4402,"Ġisolation":4403,"ĠIgE":4404,"Ġinclude":4405,"Ġexistence":4406,"Ġneon":4407,"ompati":4408,"Ġischem":4409,"Ġye":4410,"Ġpla":4411,"Ġlocus":4412,"erous":4413,"Ġchallenge":4414,"ocin":4415,"Ġportion":4416,"Ġfeeding":4417,"Ġsequences":4418,"Ġinflammatory":4419,"Ġreser":4420,"Ġimmunized":4421,"ination":4422,"iaz":4423,"erobic":4424,"Ġcirculation":4425,"Ġbladder":4426,"izes":4427,"amines":4428,"Ġinhibits":4429,"Ġcytoplasm":4430,"aments":4431,"tub":4432,"alled":4433,"Ġrecording":4434,"Ġpair":4435,"Ġsegment":4436,"Ġself":4437,"Ġwhite":4438,"Ġouabain":4439,"Ġentire":4440,"Ġprom":4441,"opera":4442,"Ġstom":4443,"Ġclear":4444,"Ġmetast":4445,"Ġaggregation":4446,"Ġdiminished":4447,"py":4448,"ising":4449,"ĠAr":4450,"Ġrhesus":4451,"Ġarteries":4452,"Ġsymp":4453,"Ġdepends":4454,"Ġplatelets":4455,"Ġgreatly":4456,"Ġreproduc":4457,"Ġamni":4458,"itol":4459,"esthetized":4460,"Ġrecent":4461,"ucleo":4462,"Ġaround":4463,"ĠTre":4464,"Ġcortic":4465,"Ġbicarbonate":4466,"Ġsac":4467,"Ġadults":4468,"Ġ34":4469,"Ġweights":4470,"ket":4471,"Ġassays":4472,"Ġimmunity":4473,"ĠResults":4474,"rix":4475,"cyt":4476,"Ġrelax":4477,"Ġabolished":4478,"Ġ196":4479,"Ġcatal":4480,"ential":4481,"olved":4482,"amus":4483,"Ġsecretory":4484,"sh":4485,"oplasmic":4486,"othel":4487,"Ġ31":4488,"pto":4489,"Ġlabelled":4490,"Ġconclude":4491,"kn":4492,"Ġpure":4493,"asion":4494,"Ġfr":4495,"trate":4496,"Ġshock":4497,"Ġcontrac":4498,"urable":4499,"Ġdistal":4500,"Ġseiz":4501,"gesterone":4502,"Ġinfer":4503,"Ġtransient":4504,"SO":4505,"inally":4506,"hea":4507,"Ġhams":4508,"Ġallogeneic":4509,"Ġprostatic":4510,"Ġow":4511,"Ġinst":4512,"Ġfo":4513,"Ġseparation":4514,"Ġcirculating":4515,"Ġproblem":4516,"cul":4517,"vements":4518,"aces":4519,"Ġremission":4520,"trophoresis":4521,"tization":4522,"Ġhere":4523,"Ġhomologous":4524,"plasia":4525,"associated":4526,"yes":4527,"Ġeye":4528,"ollow":4529,"Ġprojec":4530,"Ġneither":4531,"Ġitself":4532,"Ġposi":4533,"Ġarth":4534,"phosphatase":4535,"ĠTherefore":4536,"Ġcrystal":4537,"Ġhour":4538,"Ġprotease":4539,"Ġcyclo":4540,"lusive":4541,"Ġbond":4542,"ocial":4543,"Ġeffic":4544,"EAE":4545,"Ġreactive":4546,"Ġreflex":4547,"Ġconnec":4548,"omit":4549,"Ġsufficient":4550,"Ġimmunod":4551,"negative":4552,"Ġpal":4553,"genital":4554,"Ġreacted":4555,"Ġintest":4556,"Ġprovides":4557,"Ġ38":4558,"abs":4559,"ĠNAD":4560,"Ġhyd":4561,"Ġestablish":4562,"Ġsatisfac":4563,"Ġdone":4564,"Ġdors":4565,"trogen":4566,"Ġorganic":4567,"ĠAg":4568,"Ġsurve":4569,"clerosis":4570,"Ġmanner":4571,"Ġalkal":4572,"Ġgonad":4573,"opic":4574,"ĠStre":4575,"Ġring":4576,"Ġcytos":4577,"Ġheterogen":4578,"Ġnucleotides":4579,"Ġmilk":4580,"Ġuni":4581,"Ġreference":4582,"obarbital":4583,"Ġnic":4584,"Ġsten":4585,"Ġpic":4586,"Ġagree":4587,"ogens":4588,"pinephrine":4589,"Ġammonium":4590,"Ġaz":4591,"Ġobjec":4592,"22":4593,"Ġparticip":4594,"Ġleukocytes":4595,"Ġopp":4596,"ĠPseudomonas":4597,"oprote":4598,"Ġnoradrenaline":4599,"LV":4600,"Ġdeli":4601,"ĠUnder":4602,"carb":4603,"Ġreadily":4604,"Ġzone":4605,"Ġclearance":4606,"200":4607,"Ġcontribu":4608,"Ġcontamin":4609,"ionine":4610,"Ġtoxin":4611,"Ġaxons":4612,"affec":4613,"Ġsqu":4614,"Ġexer":4615,"Ġsubjected":4616,"Ġidentification":4617,"Ġdirected":4618,"lav":4619,"Ġresemb":4620,"vious":4621,"Ġpow":4622,"Ġegg":4623,"mediately":4624,"Ġsuffer":4625,"70":4626,"Ġmum":4627,"Ġmucos":4628,"ometry":4629,"entral":4630,"Ġheparin":4631,"Ġpneumonia":4632,"Ġproximal":4633,"pharose":4634,"Ġisolates":4635,"otypes":4636,"Ġreversible":4637,"ened":4638,"terminal":4639,"protein":4640,"reshold":4641,"EP":4642,"yt":4643,"imen":4644,"ading":4645,"pper":4646,"Ġbenzo":4647,"organ":4648,"intestinal":4649,"Ġmurine":4650,"Ġhypers":4651,"Ġshift":4652,"Ġinjury":4653,"Ġcarbohydrate":4654,"pic":4655,"receptor":4656,"rene":4657,"Ġfresh":4658,"Ġ42":4659,"Ġtreat":4660,"Ġlymphoid":4661,"Ġmechan":4662,"affected":4663,"vi":4664,"Ġbri":4665,"Ġmicrosomes":4666,"Ġevery":4667,"Ġchanged":4668,"Ġtube":4669,"Ġratios":4670,"Ġdiabetes":4671,"Ġencephal":4672,"Ġresidue":4673,"Ġrecommended":4674,"RP":4675,"aine":4676,"inergic":4677,"lep":4678,"Ġeffectiveness":4679,"hing":4680,"Ġphage":4681,"Ġparasi":4682,"ginine":4683,"ocytosis":4684,"RS":4685,"Ġcollected":4686,"Ġglutamate":4687,"NS":4688,"Ġaccele":4689,"Ġrheum":4690,"Ġdyn":4691,"chloride":4692,"Ġmammary":4693,"Ġwa":4694,"Ġrecipients":4695,"Ġsedimentation":4696,"Ġdiameter":4697,"Ġsum":4698,"Ġsem":4699,"mentation":4700,"Ġagar":4701,"Ġregular":4702,"Ġnore":4703,"Ġallo":4704,"tri":4705,"vis":4706,"Ġconten":4707,"ibility":4708,"Ġexogenous":4709,"Ġzinc":4710,"Ġphosphorylation":4711,"Ġcm":4712,"Ġful":4713,"ify":4714,"Ġregar":4715,"rane":4716,"Ġyet":4717,"Ġback":4718,"Ġproducing":4719,"Ġdefects":4720,"perim":4721,"Ġventricle":4722,"Ġnucleotide":4723,"Ġnearly":4724,"onuclease":4725,"Ġsimultaneously":4726,"Ġbenign":4727,"dis":4728,"Ġidi":4729,"Ġdye":4730,"idation":4731,"ocar":4732,"ĠmRNA":4733,"Ġphag":4734,"Ġunaffected":4735,"Ġyeast":4736,"wise":4737,"Ġcommun":4738,"Ġepilep":4739,"Ġcats":4740,"Ġpel":4741,"Ġmorphology":4742,"Ġscreening":4743,"Ġconclusion":4744,"Ġstomach":4745,"Ġethyl":4746,"Ġrequires":4747,"ĠAddition":4748,"iveness":4749,"renol":4750,"Ġsteroid":4751,"Ġconduction":4752,"Ġaccurate":4753,"Ġassayed":4754,"uctose":4755,"Ġprostaglandin":4756,"cor":4757,"tum":4758,"Ġeth":4759,"Ġrh":4760,"Ġmatrix":4761,"Ġtransition":4762,"Ġextreme":4763,"usions":4764,"Ġthi":4765,"Ġimpaired":4766,"lim":4767,"hex":4768,"Ġabsent":4769,"Ġknow":4770,"oglobulins":4771,"acetate":4772,"Ġpregnant":4773,"ĠDe":4774,"Ġhemat":4775,"Ġconcerning":4776,"known":4777,"omitant":4778,"uli":4779,"Ġfacil":4780,"Ġderivative":4781,"glutamyl":4782,"rotid":4783,"Ġexcre":4784,"Ġupper":4785,"Ġreports":4786,"ĠmuM":4787,"Ġcatheter":4788,"function":4789,"istic":4790,"itative":4791,"arr":4792,"Ġimmob":4793,"ĠIV":4794,"Ġmovement":4795,"Ġquestion":4796,"Ġlinked":4797,"Ġnum":4798,"amycin":4799,"Ġprotection":4800,"Ġstimulating":4801,"glucose":4802,"Ġyielded":4803,"Ġintestine":4804,"avage":4805,"Ġcartil":4806,"Ġ65":4807,"Ġglutamine":4808,"luc":4809,"Ġnone":4810,"Ġreduce":4811,"Ġcervical":4812,"teral":4813,"Ġanat":4814,"osts":4815,"ificant":4816,"Ġliquid":4817,"Ġsupple":4818,"Ġinfluenz":4819,"Ġcoefficient":4820,"Ġau":4821,"Ġimpair":4822,"Ġimmediately":4823,"ĠRec":4824,"press":4825,"Ġaor":4826,"Ġpathogenesis":4827,"atidyl":4828,"ription":4829,"Ġacross":4830,"Ġevolution":4831,"ocrine":4832,"Ġpreser":4833,"Ġju":4834,"Ġreversed":4835,"Ġvein":4836,"Ġsteady":4837,"Ġcytotoxicity":4838,"zymes":4839,"Ġproduces":4840,"Ġnar":4841,"trins":4842,"Ġimmediate":4843,"Ġimmunos":4844,"Ġsugar":4845,"Ġfluorescent":4846,"Ġdigestion":4847,"Ġentero":4848,"ĠMost":4849,"Ġcav":4850,"agon":4851,"Ġlipids":4852,"razepam":4853,"ipp":4854,"Ġcations":4855,"throm":4856,"Ġvers":4857,"forming":4858,"Ġnode":4859,"Ġenhancement":4860,"HC":4861,"emic":4862,"Ġtuberc":4863,"Ġdoc":4864,"ignificant":4865,"Ġoriginal":4866,"ES":4867,"IA":4868,"ocal":4869,"ĠRh":4870,"Ġdeterminant":4871,"obacter":4872,"Ġdisturbances":4873,"Ġmigration":4874,"Ġbrief":4875,"DA":4876,"pig":4877,"Ġlas":4878,"Ġcoag":4879,"Ġimmuno":4880,"Ġunderst":4881,"Ġnerves":4882,"Ġtwice":4883,"Ġinterferon":4884,"sies":4885,"Ġobstruction":4886,"Ġventil":4887,"athetic":4888,"Ġaspects":4889,"Ġefficacy":4890,"FA":4891,"uria":4892,"Ġfollic":4893,"Ġgrad":4894,"vic":4895,"Ġresearch":4896,"VH":4897,"ĠAnal":4898,"ĠCell":4899,"Ġspace":4900,"Ġplasm":4901,"ken":4902,"oli":4903,"ips":4904,"Ġcentrifugation":4905,"Ġsuffering":4906,"tious":4907,"teb":4908,"Ġgestation":4909,"resistant":4910,"ĠSch":4911,"ĠFour":4912,"Ġopen":4913,"Ġsaliv":4914,"Ġadvanced":4915,"Ġlost":4916,"odes":4917,"tron":4918,"Ġneurolep":4919,"Ġallows":4920,"dle":4921,"ror":4922,"tudies":4923,"Ġelevation":4924,"Ġcarrier":4925,"ĠTreatment":4926,"phyll":4927,"bu":4928,"ĠCT":4929,"Ġenl":4930,"ĠSuch":4931,"ĠDEAE":4932,"Ġcorre":4933,"BP":4934,"Ġmeasures":4935,"Ġsegments":4936,"Ġexam":4937,"everal":4938,"Ġessentially":4939,"Ġdivided":4940,"ĠPatients":4941,"ĠOther":4942,"Ġmarkers":4943,"Ġdynamic":4944,"ollowing":4945,"Ġcontents":4946,"esium":4947,"Ġlum":4948,"geneic":4949,"Ġmarker":4950,"Ġvolunte":4951,"Ġpall":4952,"oline":4953,"Ġcyan":4954,"Ġseverity":4955,"iminary":4956,"gent":4957,"Ġhum":4958,"Ġsuccin":4959,"Ġhydroxylase":4960,"ract":4961,"Ġfore":4962,"Ġgenerated":4963,"his":4964,"typ":4965,"Ġinactive":4966,"Ġfinal":4967,"Ġmake":4968,"position":4969,"Ġhemoly":4970,"ese":4971,"Ġcongenital":4972,"rant":4973,"Ġtransf":4974,"tilis":4975,"Ġstimuli":4976,"hr":4977,"tone":4978,"Ġbenz":4979,"acid":4980,"Ġ55":4981,"Ġdiffered":4982,"Ġlob":4983,"ograms":4984,"Ġphysici":4985,"saccharides":4986,"lusions":4987,"Ġret":4988,"alian":4989,"Ġdiaz":4990,"Ġexclu":4991,"Ġcrude":4992,"PD":4993,"adreno":4994,"Ġelicited":4995,"ĠStrept":4996,"Ġthreshold":4997,"activated":4998,"Ġrecombin":4999,"Ġdifficult":5000,"Ġbegin":5001,"loid":5002,"acetic":5003,"Ġasym":5004,"chain":5005,"Ġmobility":5006,"Ġdiscrim":5007,"Ġelements":5008,"immune":5009,"Ġcomposed":5010,"vent":5011,"ĠNH":5012,"Ġcatalytic":5013,"Ġtop":5014,"Ġeti":5015,"tern":5016,"ĠCM":5017,"Ġrelev":5018,"Ġmanifest":5019,"SV":5020,"au":5021,"Ġdihydro":5022,"Ġsole":5023,"Ġtemperatures":5024,"rophenyl":5025,"tituted":5026,"Ġpolymer":5027,"ĠtRNA":5028,"chym":5029,"Ġreact":5030,"Ġkera":5031,"olute":5032,"otoxin":5033,"Ġsuppressor":5034,"fib":5035,"Ġandro":5036,"arts":5037,"Ġreliable":5038,"Ġformer":5039,"trinsic":5040,"CC":5041,"elec":5042,"Ġlowered":5043,"Ġrose":5044,"Ġconsisted":5045,"Ġconducted":5046,"Ġinterpreted":5047,"oic":5048,"Ġintake":5049,"asis":5050,"atu":5051,"oper":5052,"Ġpreced":5053,"virus":5054,"quin":5055,"Ġallergic":5056,"prop":5057,"Ġtach":5058,"Ġfell":5059,"Ġstates":5060,"Ġgeneration":5061,"Ġinteg":5062,"ĠAmong":5063,"Ġattributed":5064,"Ġdirection":5065,"Ġpredominantly":5066,"Ġnewborn":5067,"Ġsaf":5068,"ubation":5069,"ief":5070,"Ġartif":5071,"Ġanalges":5072,"Ġmetabolite":5073,"Ġjunction":5074,"Ġlyso":5075,"Ġanalyses":5076,"ecause":5077,"unc":5078,"ĠSerum":5079,"Ġconcomitant":5080,"Ġ500":5081,"Ġprostate":5082,"Ġsusceptibility":5083,"Ca":5084,"icated":5085,"Ġmeta":5086,"Ġarr":5087,"Ġepide":5088,"Ġsubject":5089,"mitter":5090,"oglycan":5091,"Ġfibrinogen":5092,"Ġanalysed":5093,"Ġinitially":5094,"Ġallowed":5095,"ĠImmun":5096,"aria":5097,"Ġcontrib":5098,"ĠDA":5099,"ureus":5100,"glutinin":5101,"Ġlaparoscop":5102,"flow":5103,"Ġspin":5104,"Ġassessment":5105,"ecu":5106,"Ġexist":5107,"Ġinactivated":5108,"Ġspermat":5109,"Ġbiosynthesis":5110,"Ġstem":5111,"Ġlog":5112,"Ġimmunoglobulins":5113,"infected":5114,"Ġchl":5115,"trol":5116,"Ġdorsal":5117,"Ġaccep":5118,"ĠIts":5119,"ifications":5120,"Ġsubtilis":5121,"Ġobtain":5122,"Ġsensitized":5123,"teine":5124,"para":5125,"Ġvaccine":5126,"aced":5127,"osamine":5128,"Ġger":5129,"Ġglob":5130,"Ġqualitative":5131,"Ġadequate":5132,"ventricular":5133,"wenty":5134,"tention":5135,"Ġsubcutaneous":5136,"Ġschiz":5137,"450":5138,"draw":5139,"Ġequivalent":5140,"Ġrelationships":5141,"Ġcontinued":5142,"cycline":5143,"ready":5144,"Ġefficiency":5145,"ilic":5146,"Ġchloro":5147,"max":5148,"Ġtransmission":5149,"ĠNaCl":5150,"ynaptic":5151,"ĠMoreover":5152,"ocl":5153,"Ġchond":5154,"Ġdetermining":5155,"iatric":5156,"Ġagreement":5157,"ncy":5158,"Ġmicron":5159,"Ġpreval":5160,"Ġmammalian":5161,"Ġsupernatant":5162,"',":5163,"oyl":5164,"icol":5165,"astolic":5166,"oids":5167,"Ġalteration":5168,"45":5169,"Ġcarry":5170,"Ġparts":5171,"Ġ150":5172,"Ġhomogenates":5173,"Ġwave":5174,"omers":5175,"imide":5176,"Ġsection":5177,"mean":5178,"Ġexaminations":5179,"Ġkidneys":5180,"Ġcoupling":5181,"Ġ:":5182,"Ġserious":5183,"Ġkind":5184,"Ġvalve":5185,"Ġpulse":5186,"ledge":5187,"Ġfamil":5188,"Ġdemonstration":5189,"Ġsyngeneic":5190,"Ġrecognized":5191,"altons":5192,"log":5193,"Ġchlor":5194,"ĠElec":5195,"illi":5196,"Ġester":5197,"ophren":5198,"Ġauthor":5199,"Ġstrepto":5200,"diazep":5201,"Ġcartilage":5202,"BG":5203,"Ġsocial":5204,"Ġinfil":5205,"plate":5206,"oproterenol":5207,"90":5208,"Ġclon":5209,"Ġhistidine":5210,"Ġstimulate":5211,"Ġlink":5212,"Ġprognosis":5213,"ferred":5214,"Ġdefinite":5215,"Ġmiddle":5216,"Ġmonitoring":5217,"ulus":5218,"Ġgalact":5219,"Ġspind":5220,"Ġdepending":5221,"arter":5222,"unt":5223,"Ġabsolute":5224,"Ġadvantages":5225,"Ġstenosis":5226,"Ġretained":5227,"tivation":5228,"Ġpotency":5229,"Ġtubular":5230,"Ġsources":5231,"Ġdark":5232,"ols":5233,"Ġlib":5234,"Ġ51":5235,"Ġintravenously":5236,"ĠBacillus":5237,"Ġnorepinephrine":5238,"fil":5239,"Ġ72":5240,"Ġadenine":5241,"asing":5242,"Ġalready":5243,"rials":5244,"ifferen":5245,"deoxy":5246,"tenance":5247,"Ġlysis":5248,"Ġcomputer":5249,"Ġgain":5250,"Ġperitoneal":5251,"Ġinters":5252,"Ġadenylate":5253,"ectomized":5254,"ĠHBs":5255,"Ġalle":5256,"ayer":5257,"ĠBAL":5258,"ometr":5259,"Ġmovements":5260,"Ġtrue":5261,"Ġreducing":5262,"Ġreason":5263,"dimethyl":5264,"ellar":5265,"encephal":5266,"ĠMLC":5267,"Ġdiagnosed":5268,"carbo":5269,"roc":5270,"Ġunus":5271,"Ġdeveloping":5272,"Ġfal":5273,"Ġconsecu":5274,"Ġclasses":5275,"omplete":5276,"kes":5277,"ics":5278,"ergen":5279,"Ġech":5280,"Ġexhibit":5281,"Ġamniotic":5282,"rans":5283,"chid":5284,"Ġmyelin":5285,"Ġsatisfactory":5286,"del":5287,"Ġresection":5288,"Ġcoupled":5289,"Ġquality":5290,"Ġillness":5291,"Ġturnover":5292,"Ġaureus":5293,"Ġinges":5294,"atoid":5295,"tage":5296,"uture":5297,"axis":5298,"ker":5299,"Ġfull":5300,"Ġpregnancies":5301,"come":5302,"Ġtas":5303,"rotic":5304,"Ġdaltons":5305,"Ġmature":5306,"Ġconcept":5307,"Ġasth":5308,"Ġmonth":5309,"Ġcold":5310,"Ġsubsequently":5311,"Ġunique":5312,"Ġfacilit":5313,"++":5314,"Ġprecursor":5315,"Ġvolunteers":5316,"zing":5317,"Ġpene":5318,"aged":5319,"Ġeasily":5320,"bular":5321,"oice":5322,"ĠDM":5323,"ĠGroup":5324,"ovascular":5325,"Ġadjuv":5326,"Ġbelong":5327,"Ġdelivery":5328,"Ġunknown":5329,"Ġepis":5330,"otypic":5331,"Ġcompetitive":5332,"inhib":5333,"arp":5334,"chron":5335,"Ġimmunodiffusion":5336,"Ġsafe":5337,"Ġpoints":5338,"Ġmetastases":5339,"IF":5340,"Ġregen":5341,"idol":5342,"ĠIa":5343,"athione":5344,"Ġabor":5345,"Ġcleavage":5346,"Ġcommonly":5347,"grade":5348,"Ġirradiated":5349,"gamma":5350,"ament":5351,"Ġevident":5352,"acent":5353,"Ġdespite":5354,"Ġdifferentiated":5355,"Ġcritical":5356,"da":5357,"otomy":5358,"Ġcharge":5359,"molec":5360,"Ġgastrointestinal":5361,"ru":5362,"acyl":5363,"ochem":5364,"Ġfrequencies":5365,"Ġfung":5366,"irty":5367,"Ġesopha":5368,"Ġunderw":5369,"02":5370,"SD":5371,"Ġpseud":5372,"Ġfollows":5373,"Ġgrowing":5374,"lation":5375,"Ġlamin":5376,"Ġchromatin":5377,"Ġdiges":5378,"Ġacetylcholine":5379,"Ġlayers":5380,"Ġelimination":5381,"Ġfully":5382,"itin":5383,"Ġjud":5384,"Ġconsists":5385,"Ġslowly":5386,"aturated":5387,"Ġcitrate":5388,"otal":5389,"Ġlethal":5390,"Ġnumerous":5391,"Ġ39":5392,"Ġabsorbed":5393,"Ġendothel":5394,"artment":5395,"Ġranged":5396,"oelectrophoresis":5397,"Ġdialysis":5398,"FC":5399,"vul":5400,"times":5401,"Ġcorne":5402,"Ġrhythm":5403,"Ġcarcinomas":5404,"Ġmaterials":5405,"Ġsarcoma":5406,"Ġduodenal":5407,"uma":5408,"Ġ300":5409,"Ġbilateral":5410,"yto":5411,"acin":5412,"Ġcirrh":5413,"Ġattempt":5414,"Ġpol":5415,"Ġwithdraw":5416,"Ġserological":5417,"Ġalternative":5418,"Ġtraining":5419,"Ġhypersensitivity":5420,"ĠBALB":5421,"nitro":5422,"inetic":5423,"phylaxis":5424,"Ġknowledge":5425,"itory":5426,"ĠTheir":5427,"Ġreson":5428,"poral":5429,"Ġleading":5430,"Ġresidual":5431,"Ġerror":5432,"]-":5433,"comp":5434,"Ġrepair":5435,"thym":5436,"tened":5437,"Ġhomogeneous":5438,"wor":5439,"onin":5440,"icine":5441,"Ġ43":5442,"Ġaccess":5443,"Ġfiber":5444,"Ġproteolytic":5445,"lined":5446,"Ġtranscript":5447,"Ġunderwent":5448,"pping":5449,"ĠBi":5450,"Ġpathways":5451,"Ġutilization":5452,"Ġbleeding":5453,"Ġconformational":5454,"Ġhorse":5455,"Ġplaque":5456,"PG":5457,"ĠcAMP":5458,"Ġcompe":5459,"Ġhumans":5460,"Ġrepresents":5461,"onuclear":5462,"Ġincorporated":5463,"Ġarthritis":5464,"CM":5465,"ps":5466,"Ġconsisting":5467,"organic":5468,"Ġaorta":5469,"gu":5470,"yle":5471,"revers":5472,"araldehyde":5473,"opo":5474,"Ġcorrect":5475,"Ġoptic":5476,"Ġ95":5477,"Ġfructose":5478,"Ġchar":5479,"rill":5480,"Ġope":5481,"Ġgrafts":5482,"Ġactions":5483,"ĠBecause":5484,"lycer":5485,"Ġsynap":5486,"linical":5487,"phylac":5488,"ches":5489,"Ġbund":5490,"Ġisot":5491,"tensin":5492,"Ġsyst":5493,"Ġcircum":5494,"Ġtreatments":5495,"Ġconsecutive":5496,"Nase":5497,"ek":5498,"rating":5499,"umably":5500,"Ġmedial":5501,"Ġpurpose":5502,"Ġneural":5503,"Ġlimit":5504,"Ġpeaks":5505,"Ġdistinguish":5506,"Ġpreferen":5507,"mat":5508,"Ġsial":5509,"Ġhydroxyl":5510,"Ġmaintenance":5511,"Ġbuff":5512,"ompatibility":5513,"Ġovarian":5514,"xine":5515,"Ġradioactive":5516,"Ġschizophren":5517,"Ġpolysaccharide":5518,"Ġevaluate":5519,"Ġpancreas":5520,"aminergic":5521,"Ġtechn":5522,"Ġneuronal":5523,"Ġnutrition":5524,"Ġfrac":5525,"Ġalve":5526,"ieve":5527,"Ġresponded":5528,"Ġbeginning":5529,"Ġsystolic":5530,"IC":5531,"Ġphysi":5532,"Ġphosphatidyl":5533,"Ġinhibiting":5534,"ient":5535,"orac":5536,"Ġple":5537,"ostero":5538,"Ġperm":5539,"ĠDown":5540,"ĠLi":5541,"Ġocclusion":5542,"Ġoperative":5543,"Ġdisorder":5544,"Ġhemorrh":5545,"Ġantagonist":5546,"Ġdepletion":5547,"oes":5548,"ophilic":5549,"Ġmagnesium":5550,"Ġdraw":5551,"Ġpremature":5552,"Ġkg":5553,"earing":5554,"blind":5555,"Ġuterine":5556,"Ġneonatal":5557,"com":5558,"Ġhypertensive":5559,"Ġtherm":5560,"Ġinsufficiency":5561,"glob":5562,"Ġduct":5563,"Ġdeep":5564,"Ġforce":5565,"ĠCA":5566,"ĠSc":5567,"Ġshape":5568,"Ġ44":5569,"Ġtesticular":5570,"Ġevents":5571,"Ġroset":5572,"Ġlargely":5573,"labelled":5574,"amyl":5575,"Ġ56":5576,"Ġ46":5577,"Ġgives":5578,"Ġvisc":5579,"pass":5580,"Ġduc":5581,"omorph":5582,"Ġbiopsies":5583,"iles":5584,"Ġspe":5585,"Ġperfused":5586,"Ġdeficient":5587,"Ġhypoxia":5588,"Ġdegeneration":5589,"Ġsumm":5590,"charge":5591,"Ġhemag":5592,"Ġsympathetic":5593,"Ġrheumatoid":5594,"-[":5595,"27":5596,"Ġchlorop":5597,"ystem":5598,"Ġphases":5599,"Ġleukocyte":5600,"Ġpolymorph":5601,"Ġchicken":5602,"Ex":5603,"Ġdiffuse":5604,"Ġfeed":5605,"Ġdecreasing":5606,"Ġhypothalamus":5607,"aff":5608,"base":5609,"Ġspecificities":5610,"Ġhydroph":5611,"Ġmicrograms":5612,"Ġnodes":5613,"Ġprogesterone":5614,"opep":5615,"Ġmicroscope":5616,"Ġeliminated":5617,"Ġprecursors":5618,"Ġmucosal":5619,"ĠMA":5620,"Ġarteri":5621,"oval":5622,"Ġresting":5623,"Ġoccasion":5624,"Ġprofile":5625,"grow":5626,"oman":5627,"ĠSal":5628,"Ġpower":5629,"HB":5630,"Ġglycerol":5631,"ophys":5632,"37":5633,"Ġones":5634,"Ġeffector":5635,"Ġlesser":5636,"Ġinfectious":5637,"Ġmucopoly":5638,"Ġdesigned":5639,"aemic":5640,"ozo":5641,"Ġadsorption":5642,"tatively":5643,"tually":5644,"molecular":5645,"Ġpolar":5646,"aratus":5647,"andros":5648,"Ġolder":5649,"Ġrestricted":5650,"Ġbalance":5651,"Ġmechanical":5652,"Ġperman":5653,"Ġparenteral":5654,"Ġchondro":5655,"ds":5656,"Ġbili":5657,"Ġminimum":5658,"Ġplaced":5659,"vascular":5660,"Ġara":5661,"Ġrub":5662,"Ġresponsiveness":5663,"Ġscanning":5664,"Ġtaking":5665,"Ġdin":5666,"ulosis":5667,"rier":5668,"vidence":5669,"Ġmutation":5670,"Ġrespiration":5671,"Ġdifficul":5672,"Ġultrastructural":5673,"Ġadjuvant":5674,"PR":5675,"Ġdrop":5676,"ĠSp":5677,"coplas":5678,"Ġmuta":5679,"rase":5680,"ucine":5681,"ĠSH":5682,"ĠFollowing":5683,"cells":5684,"Ġbabo":5685,"istry":5686,"time":5687,"Ġ120":5688,"spective":5689,"Ġpalli":5690,"NH":5691,"gre":5692,"Ġaug":5693,"Ġgels":5694,"Ġrecognition":5695,"Ġsusceptible":5696,"Ġsilver":5697,"Ġtake":5698,"ĠMa":5699,"Ġseemed":5700,"Ġclassified":5701,"ycardi":5702,"erin":5703,"ĠSub":5704,"ĠFc":5705,"ocyan":5706,"Ġevent":5707,"Ġquite":5708,"Ġsar":5709,"Ġreal":5710,"Ġmode":5711,"Ġstere":5712,"oglycans":5713,"Ġadjacent":5714,"Ġhypothalamic":5715,"MA":5716,"MT":5717,"ire":5718,"Ġapparatus":5719,"Ġrecently":5720,"Ġsurround":5721,"Ġhydrox":5722,"Ġfluids":5723,"Ġstriking":5724,"It":5725,"kers":5726,"Ġmas":5727,"anges":5728,"uric":5729,"ĠPlasma":5730,"Ġexplo":5731,"Ġcortis":5732,"Ġmedian":5733,"ĠKCl":5734,"Ġinvolves":5735,"Ġattemp":5736,"cers":5737,"life":5738,"Ġchannel":5739,"Ġranging":5740,"Ġequally":5741,"Ġreplacement":5742,"Ġneeded":5743,"Ġundergoing":5744,"ĠGABA":5745,"Ġtiters":5746,"lat":5747,"nis":5748,"part":5749,"Ġsaturation":5750,"omotor":5751,"Ġisop":5752,"Ġorally":5753,"ĠEach":5754,"Ġestradiol":5755,"rophy":5756,"orr":5757,"Ġglucagon":5758,"Ġpractice":5759,"rd":5760,"Ġbul":5761,"gest":5762,"uracy":5763,"ĠNeither":5764,"Ġreagent":5765,"28":5766,"38":5767,"Ġanx":5768,"Ġcombinations":5769,"Ġmyeloma":5770,"Ġdistinguished":5771,"Ġglutathione":5772,"Ġnonspecific":5773,"fix":5774,"reactive":5775,"tiated":5776,"rox":5777,"Ġmonomer":5778,"Ġintraper":5779,"iotensin":5780,"ense":5781,"erine":5782,"Ġ85":5783,"Ġsolid":5784,"Ġmyocardium":5785,"Ġlysosomal":5786,"Ġdilution":5787,"Ġsolubilized":5788,"Ġown":5789,"Ġbiliary":5790,"ecal":5791,"Ġcompens":5792,"ĠSo":5793,"Ġselection":5794,"Ġantagonists":5795,"pten":5796,"icin":5797,"ĠApp":5798,"Ġexists":5799,"Ġelectrocardi":5800,"Ġbroad":5801,"termin":5802,"Ġhydrochloride":5803,"Ġcryp":5804,"CN":5805,"atest":5806,"Ġmicrome":5807,"Ġirrevers":5808,"Ġembryo":5809,"ontinu":5810,"org":5811,"Ġuniform":5812,"Ġlymphoma":5813,"Ġinvestigate":5814,"Ġelectrode":5815,"Ġpyro":5816,"ribed":5817,"pregn":5818,"Ġimplications":5819,"ories":5820,"trated":5821,"Ġchoice":5822,"Ġapprec":5823,"Ġarginine":5824,"Ġfractionation":5825,"Ġvariants":5826,"iasis":5827,"Ġammonia":5828,"Ġmothers":5829,"Ġsensory":5830,"Ġile":5831,"ranial":5832,"ĠNeu":5833,"Ġtransformed":5834,"Ġproportional":5835,"Ġreflect":5836,"rypsin":5837,"Ġseizures":5838,"Ġinfluenza":5839,"bles":5840,"Ġcutaneous":5841,"Ġpump":5842,"Ġthal":5843,"Ġgall":5844,"Ġfibrill":5845,"olet":5846,"Ġfocusing":5847,"defici":5848,"natal":5849,"Ġintrinsic":5850,"Ġestrogen":5851,"coup":5852,"Ġsalts":5853,"ius":5854,"Ġrect":5855,"tual":5856,"Ġpresumably":5857,"Ġexclusive":5858,"Ġcarboxyl":5859,"ambda":5860,"Ġrestored":5861,"Ġtachycardi":5862,"Ġdri":5863,"Ġlipoprotein":5864,"Ġunusual":5865,"Ġtrim":5866,"Ġpec":5867,"Ġgreatest":5868,"Ġutilized":5869,"Ġganglion":5870,"Ġlabeling":5871,"Ġparental":5872,"ropath":5873,"Ġthought":5874,"anav":5875,"romy":5876,"iae":5877,"Ġhapten":5878,"Ġunrelated":5879,"Ġoccup":5880,"cellent":5881,"Ġfluor":5882,"Ġreagents":5883,"Ġglutaraldehyde":5884,"33":5885,"tives":5886,"ĠBP":5887,"sions":5888,"Ġaminotransferase":5889,"ĠWhile":5890,"Ġdisrup":5891,"Ġcoval":5892,"Ġstop":5893,"Ġvacu":5894,"Ġdeposits":5895,"Ġextremely":5896,"MG":5897,"Pro":5898,"titis":5899,"Ġcost":5900,"Ġbearing":5901,"Ġchamb":5902,"Ġlear":5903,"ĠDNP":5904,"Ġrelap":5905,"Ġnecrosis":5906,"Ġmaturation":5907,"Ġinduces":5908,"uronidase":5909,"Ġtranscriptase":5910,"olism":5911,"tach":5912,"ĠSeveral":5913,"ĠPer":5914,"ometh":5915,"Ġassumed":5916,"Ġfever":5917,"Ġdense":5918,"Ġversus":5919,"Ġintersti":5920,"zot":5921,"arm":5922,"Ġeosin":5923,"romes":5924,"Ġeffectively":5925,"ctomy":5926,"Ġaccuracy":5927,"Ġhydroxy":5928,"Ġvariant":5929,"ygous":5930,"Ġcirrhosis":5931,"taken":5932,"Ġinfant":5933,"Ġregression":5934,"Ġphospholipid":5935,"SP":5936,"bacter":5937,"ool":5938,"Ġtrop":5939,"tition":5940,"ida":5941,"Ġcorrelate":5942,"Ġpolypeptides":5943,"Ġpersistent":5944,"embrane":5945,"MR":5946,"sil":5947,"tia":5948,"Ġmolar":5949,"Ġdoub":5950,"Ġcapillary":5951,"Ġattention":5952,"GT":5953,"Ġdich":5954,"Ġisoproterenol":5955,"chloro":5956,"Ġindications":5957,"Ġchromatographic":5958,"Ġimpairment":5959,"Ġdiazepam":5960,"ĠAC":5961,"Ġinterven":5962,"Ġpartly":5963,"Ġche":5964,"Ġmill":5965,"idazole":5966,"Ġresponding":5967,"ported":5968,"Ġcalf":5969,"Ġmodels":5970,"Ġoxidative":5971,"Ġeluted":5972,"Ġphe":5973,"atch":5974,"Ġcompati":5975,"Ġdecline":5976,"Ġterminals":5977,"Ġsteps":5978,"Ġsteroids":5979,"ocarcin":5980,"Ġencoun":5981,"Ġalloanti":5982,"anavalin":5983,"Ġpu":5984,"Ġwound":5985,"ticle":5986,"ĠPCO":5987,"Ġcaud":5988,"Ġsuccessfully":5989,"urrent":5990,"pped":5991,"Ġexplan":5992,"Ġcolony":5993,"Ġdocum":5994,"ej":5995,"mod":5996,"Ġillus":5997,"Ġretention":5998,"state":5999,"Ġdistributed":6000,"Ġquantitatively":6001,"Ġsuspected":6002,"Ġclassification":6003,"hythmias":6004,"Ġimmunosupp":6005,"Ġmanifestations":6006,"rils":6007,"alysis":6008,"Ġtoo":6009,"Ġec":6010,"Ġdestruction":6011,"Ġsynaptic":6012,"ĠUV":6013,"Ġlungs":6014,"Ġflav":6015,"phylactic":6016,"henol":6017,"Ġclassical":6018,"Ġmonitored":6019,"Ġverteb":6020,"Ġhamster":6021,"Ġslic":6022,"Ġborder":6023,"ĠMS":6024,"ĠBe":6025,"Ġsupply":6026,"Ġelectroly":6027,"Ġautoradi":6028,"Ġcopper":6029,"alc":6030,"Ġdischarge":6031,"Ġending":6032,"ĠHb":6033,"Ġbehavioral":6034,"galactosidase":6035,"Ġjoint":6036,"ĠStreptococcus":6037,"Ġoperations":6038,"Ġpp":6039,"ĠTrit":6040,"Ġgerm":6041,"Ġadverse":6042,"Ġ47":6043,"Ġregimen":6044,"Ġ99":6045,"Ġcircular":6046,"Ġdisplayed":6047,"delta":6048,"mor":6049,"ĠCF":6050,"Ġcarotid":6051,"Ġglomerular":6052,"Ġprevalence":6053,"lip":6054,"Ġinorganic":6055,"idate":6056,"ĠFinally":6057,"Ġmitral":6058,"Ġwalls":6059,"Ġcholinergic":6060,"my":6061,"ush":6062,"Ġexceed":6063,"Ġhearts":6064,"ĠHis":6065,"Ġneutroph":6066,"Ġconnective":6067,"ĠAnalysis":6068,"ars":6069,"Ġthiol":6070,"ĠPi":6071,"Ġregulatory":6072,"Ġinser":6073,"Ġproliferative":6074,"Ġsupported":6075,"Ġsurvey":6076,"kground":6077,"Ġneurological":6078,"Ġselectively":6079,"ameth":6080,"etitive":6081,"otinamide":6082,"CH":6083,"ĠIs":6084,"ople":6085,"ĠHist":6086,"ogenetic":6087,"Ġaffecting":6088,"Ġrelaxation":6089,"sor":6090,"inter":6091,"Ġintensive":6092,"Ġane":6093,"Ġdivalent":6094,"olamine":6095,"Ġabsorb":6096,"ramin":6097,"Ġliving":6098,"thase":6099,"Ġexcellent":6100,"irub":6101,"Ġpostulated":6102,"Ġfilaments":6103,"pora":6104,"bearing":6105,"rele":6106,"Ġleg":6107,"Ġconverted":6108,"Ġspontaneously":6109,"Ġhepatoma":6110,"recipit":6111,"Ġradical":6112,"aus":6113,"host":6114,"Ġdown":6115,"Ġpromo":6116,"Ġlocation":6117,"Ġdiscre":6118,"riched":6119,"Ġsubstantial":6120,"Ġureth":6121,"Ġtitration":6122,"Ġfalse":6123,"26":6124,"SR":6125,"lys":6126,"uridine":6127,"ĠStudies":6128,"ĠAlso":6129,"Ġdietary":6130,"heal":6131,"ilis":6132,"opy":6133,"load":6134,"Ġunilateral":6135,"Ġnewly":6136,"Ġmixtures":6137,"Ġtendency":6138,"AT":6139,"Ġspre":6140,"Ġprel":6141,"ĠHCO":6142,"Ġquantities":6143,"Ġcounter":6144,"Ġcounts":6145,"Ġanaesthesia":6146,"Ġload":6147,"Ġtable":6148,"Ġdra":6149,"erv":6150,"Ġexception":6151,"ĠSt":6152,"Ġmodifications":6153,"Ġquin":6154,"Ġundertaken":6155,"Ġyields":6156,"Ġbronchial":6157,"Ġrecurrent":6158,"Ġdisappeared":6159,"benzo":6160,"Ġsharp":6161,"trop":6162,"ĠLD":6163,"Ġglycoproteins":6164,"Ġadvantage":6165,"34":6166,"dents":6167,"Ġanomal":6168,"opsy":6169,"ĠSix":6170,"ophore":6171,"Ġprotective":6172,"Ġneurotrans":6173,"deficient":6174,"tioned":6175,"ĠAcc":6176,"weight":6177,"Ġpairs":6178,"nucleo":6179,"Ġdiscontinu":6180,"phylococcus":6181,"Ġlysine":6182,"orrhoe":6183,"Ġimmobilized":6184,"Ġcoagulation":6185,"Ġcontribute":6186,"ejun":6187,"Ġtheory":6188,"Ġcry":6189,"Ġtestis":6190,"Ġdegra":6191,"Ġtemporal":6192,"Ġglycine":6193,"Ġregional":6194,"Ġretinal":6195,"absorption":6196,"eria":6197,"Ġchlo":6198,"Ġ41":6199,"ĠFSH":6200,"Ġcardiovascular":6201,"fficiently":6202,"Ġvariables":6203,"Ġpneumoniae":6204,"Ġexcreted":6205,"ĠTriton":6206,"nia":6207,"Ġinterest":6208,"Ġsurfaces":6209,"Ġphospholipids":6210,"Ġalveolar":6211,"here":6212,"Ġcis":6213,"Ġsometimes":6214,"Ġrequirements":6215,"Ġfamilies":6216,"Ġadi":6217,"Ġsomat":6218,"Ġcore":6219,"any":6220,"Ġgent":6221,"Ġvs":6222,"Ġ57":6223,"rosp":6224,"Ġoperated":6225,"Ġidentify":6226,"Ġbromide":6227,"zotocin":6228,"hour":6229,"lac":6230,"Ġaim":6231,"Ġfine":6232,"Ġunlike":6233,"Ġconcentrated":6234,"Ġbackground":6235,"Ġprecise":6236,"Ġbinds":6237,"adrenoceptor":6238,"Ġchlorp":6239,"Al":6240,"CT":6241,"Ġchromosomal":6242,"Ġradiotherapy":6243,"Ġabnormality":6244,"Ġcolumns":6245,"Ġprofiles":6246,"Ġcareful":6247,"Ġthickness":6248,"arose":6249,"ou":6250,"Ġserolog":6251,"ymethyl":6252,"Ġtransloc":6253,"tability":6254,"tructive":6255,"Ġaccumulated":6256,"Ġpharmacological":6257,"Ġthyroxine":6258,"55":6259,"par":6260,"Ġsk":6261,"Ġmatter":6262,"Ġeyes":6263,"Ġ1000":6264,"formations":6265,"Ġintrac":6266,"Ġendocrine":6267,"Ġcomparative":6268,"Ġinoculation":6269,"Ġefficient":6270,"ylic":6271,"Ġactivator":6272,"Ġparticulate":6273,"Ġalkyl":6274,"Ġsuperf":6275,"Ġaid":6276,"Ġlith":6277,"Ġpermit":6278,"Ġsynthase":6279,"response":6280,"macroglobulin":6281,"Ġembryos":6282,"Ġsituation":6283,"Ġcatecholamines":6284,"Ġpermits":6285,"Ġacyl":6286,"Ġassign":6287,"Ġmembers":6288,"antibody":6289,"Ġmicrob":6290,"opathic":6291,"Ġeduc":6292,"types":6293,"ari":6294,"Ġventral":6295,"romazine":6296,"Ġcommerc":6297,"Ġhair":6298,"Ġcontracep":6299,"Ġalcoholic":6300,"Ġreturned":6301,"Ġoppos":6302,"Ġtachycardia":6303,"To":6304,"no":6305,"educ":6306,"Ġfif":6307,"Ġserve":6308,"obic":6309,"Ġsched":6310,"Ġhyal":6311,"Ġefflux":6312,"Ġclo":6313,"Ġatrop":6314,"Ġindices":6315,"Ġhyperplasia":6316,"Ġcarriers":6317,"Ġdevi":6318,"Ġguanylate":6319,"oracic":6320,"rug":6321,"zol":6322,"omical":6323,"inephrine":6324,"ĠMic":6325,"ĠIntra":6326,"Ġ400":6327,"otropin":6328,"Ġmacrophage":6329,"subs":6330,"Ġcontractile":6331,"ethanol":6332,"ped":6333,"Ġspite":6334,"Ġmye":6335,"Ġcatab":6336,"Ġcomplication":6337,"Ġloop":6338,"Ġfrog":6339,"aro":6340,"brain":6341,"Ġanesthesia":6342,"ern":6343,"oprop":6344,"ĠCol":6345,"trophic":6346,"Ġorganization":6347,"Ġstatistical":6348,"Ġpicture":6349,"CP":6350,"Ġpac":6351,"Ġorth":6352,"ĠMed":6353,"Ġmuscular":6354,"toxin":6355,"ĠPGE":6356,"Ġlysozyme":6357,"Ġcas":6358,"romatic":6359,"undred":6360,"Ġrecord":6361,"Ġconsequence":6362,"Ġblast":6363,"ĠFive":6364,"Ġroute":6365,"Ġconsistently":6366,"Ġreplication":6367,"Ġligand":6368,"syst":6369,"Ġlev":6370,"Ġfibrosis":6371,"Ġcausing":6372,"Ġoxidized":6373,"Ġfocal":6374,"nitros":6375,"Ġwidely":6376,"Ġsupra":6377,"Ġpreliminary":6378,"bit":6379,"ots":6380,"oster":6381,"Ġvalu":6382,"Ġdescribes":6383,"Ġrestriction":6384,"MN":6385,"reduc":6386,"ĠDes":6387,"ĠHL":6388,"pop":6389,"rable":6390,"Ġnever":6391,"Ġimmunoelectrophoresis":6392,"ĠLPS":6393,"Ġclos":6394,"monella":6395,"Ġsuspensions":6396,"rospinal":6397,"pes":6398,"ruc":6399,"semin":6400,"iral":6401,"amicin":6402,"Ġlarv":6403,"Ġseptal":6404,"Ġdextran":6405,"operidol":6406,"ĠNone":6407,"Ġbecomes":6408,"Ġrepresented":6409,"Ġgeneralized":6410,"hydroxytryp":6411,"Ġcount":6412,"Ġventilation":6413,"Ġencountered":6414,"pon":6415,"uted":6416,"onyl":6417,"alk":6418,"Ġ(-":6419,"ocaine":6420,"abled":6421,"Ġflux":6422,"Ġprogress":6423,"Ġtwenty":6424,"operatively":6425,"Ġmumol":6426,"ocompatibility":6427,"ĠInhib":6428,"elve":6429,"Ġ52":6430,"Ġdecarbo":6431,"Ġ1974":6432,"amphe":6433,"Ġcateg":6434,"zen":6435,"icular":6436,"Ġfill":6437,"Ġect":6438,"Ġsignal":6439,"Ġlowest":6440,"Ġdetergent":6441,"Ġdescribe":6442,"Three":6443,"Ġintroduced":6444,"Ġunderstanding":6445,"back":6446,"Ġmorb":6447,"osus":6448,"osides":6449,"Ġdry":6450,"Ġparticle":6451,"Ġaxonal":6452,"Ġhumoral":6453,"Me":6454,"fol":6455,"oin":6456,"Ġnig":6457,"urys":6458,"Ġenter":6459,"Ġaryl":6460,"Ġsensitization":6461,"Ġremark":6462,"Ġanaerobic":6463,"Ġinterpretation":6464,"Ġwithdrawal":6465,"Ġinterstitial":6466,"amphetamine":6467,"48":6468,"din":6469,"Ġloci":6470,"oglyce":6471,"Ġ49":6472,"Ġdiver":6473,"Ġautologous":6474,"Ġmutations":6475,"Ġtubules":6476,"Ġtyph":6477,"effective":6478,"men":6479,"pi":6480,"Ġge":6481,"Ġribosomal":6482,"Ġsexual":6483,"Ġcod":6484,"rative":6485,"urified":6486,"ĠSP":6487,"Ġpressures":6488,"Ġthymidine":6489,"hydroxyp":6490,"androsterone":6491,"Ġsarcoplas":6492,"Ġmental":6493,"olgi":6494,"Ġminute":6495,"Ġulcer":6496,"Ġdelay":6497,"Ġlatency":6498,"Ġenvironmental":6499,"Ġepidermal":6500,"periments":6501,"lished":6502,"Ġinhal":6503,"Ġpromin":6504,"ĠEvidence":6505,"Ġindication":6506,"Ġtrials":6507,"Ġpractical":6508,"what":6509,"ĠHBsAg":6510,"Ġexclusively":6511,"irubin":6512,"65":6513,"Ġfist":6514,"Ġchor":6515,"Ġdist":6516,"Ġgenome":6517,"Ġradiological":6518,"respons":6519,"trophot":6520,"Ġphospholipase":6521,"Ġprincipal":6522,"29":6523,"atum":6524,"Ġhundred":6525,"roma":6526,"owel":6527,"Ġspectral":6528,"Ġdestro":6529,"Ġmyc":6530,"Ġneck":6531,"trypsin":6532,"Ġinferior":6533,"uro":6534,"ogas":6535,"ĠSDS":6536,"Ġroom":6537,"enstr":6538,"olarization":6539,"Ġinoculated":6540,"Ġasthma":6541,"CB":6542,"LE":6543,"Ġcontral":6544,"romolec":6545,"iring":6546,"omyel":6547,"enicill":6548,"Ġaccounted":6549,"Ġextended":6550,"Ġvaluable":6551,"brom":6552,"Ġwoman":6553,"ises":6554,"phys":6555,"Ġori":6556,"Ġunderlying":6557,"Ġmostly":6558,"Ġattached":6559,"Ġcow":6560,"ostic":6561,"Ġbypass":6562,"Ġ63":6563,"Ġaccom":6564,"Ġsimilarly":6565,"Ġphenomena":6566,"Ġnutritional":6567,"Ġdisappearance":6568,"Ġcompatible":6569,"Ġslices":6570,"otrypsin":6571,"Ġrun":6572,"Ġgradients":6573,"Ġacqui":6574,"dihydro":6575,"Ġcoinc":6576,"Ġtyping":6577,"anisms":6578,"Ġcycles":6579,"inesterase":6580,"Ġslower":6581,"Ġbarrier":6582,"Ġcytosol":6583,"cies":6584,"Ġcra":6585,"Ġenvelop":6586,"Ġforming":6587,"Ġimmunore":6588,"astom":6589,"derived":6590,"Ġinitiation":6591,"Ġstored":6592,"Ġplacental":6593,"work":6594,"500":6595,"enzymes":6596,"ert":6597,"Ġsomewhat":6598,"ibly":6599,"Ġinstrum":6600,"appa":6601,"Ġouts":6602,"Ġintense":6603,"Ġatropine":6604,"68":6605,"AFP":6606,"ulla":6607,"ulmonary":6608,"ĠECG":6609,"Ġ68":6610,"Ġdepress":6611,"Ġdeterminations":6612,"Ġdemonstrates":6613,"125":6614,"Ġimprove":6615,"ĠSepharose":6616,"Ġedema":6617,"Ġcavity":6618,"Ġenlarge":6619,"Ġonce":6620,"Ġalanine":6621,"Ġ250":6622,"Ġindicator":6623,"Ġuro":6624,"eroxidase":6625,"Ġplasminogen":6626,"Ġmicrometer":6627,"cious":6628,"Ġent":6629,"Ġanion":6630,"Ġrejection":6631,"Ġlam":6632,"Ġspi":6633,"Ġfibre":6634,"Ġoutcome":6635,"racil":6636,"ovirus":6637,"Ġadrenaline":6638,"Ġbasement":6639,"toxic":6640,"Ġtriglycer":6641,"Ġsuccinate":6642,"Ġrelevant":6643,"Ġspermatozo":6644,"human":6645,"ann":6646,"ings":6647,"ĠCor":6648,"ĠSR":6649,"ĠPHA":6650,"week":6651,"omyosin":6652,"Ġquantity":6653,"Ġrequirement":6654,"Ġsplit":6655,"ĠPRL":6656,"Ġagonist":6657,"\".":6658,"col":6659,"Ġsclerosis":6660,"orus":6661,"dia":6662,"Ġimmunologic":6663,"Ġmaintain":6664,"Ġhemodynamic":6665,"Ġhormonal":6666,"Ġhepatocytes":6667,"polyacrylamide":6668,"Ġamyloid":6669,"ĠDis":6670,"ĠHyp":6671,"urea":6672,"Ġpepsin":6673,"Ġtriphosphatase":6674,"Ġdysfunction":6675,"Ġdimethyl":6676,"LR":6677,"gal":6678,"stran":6679,"umes":6680,"endri":6681,"epi":6682,"Ġtestes":6683,"uclear":6684,"motic":6685,"Ġinvolve":6686,"ophila":6687,"ER":6688,"tomy":6689,"Ġfuture":6690,"Ġelas":6691,"ocortic":6692,"Ġcellulose":6693,"ymp":6694,"Ġshunt":6695,"Ġmob":6696,"Ġcattle":6697,"microglobulin":6698,"Ġcerebrospinal":6699,"Ġfaster":6700,"enia":6701,"oneph":6702,"Ġtransported":6703,"Ġlimits":6704,"Ġ1975":6705,"Ġstret":6706,"mann":6707,"oscopy":6708,"violet":6709,"Ġnarrow":6710,"Ġtuberculosis":6711,"Ġexample":6712,"stranded":6713,"hist":6714,"Ġbab":6715,"Ġfron":6716,"ĠPa":6717,"Ġ58":6718,"Ġepinephrine":6719,"cholate":6720,"Ġmacromolec":6721,"versity":6722,"esthetic":6723,"phasic":6724,"Ġmelanoma":6725,"muscular":6726,"42":6727,"sulph":6728,"aries":6729,"Ġmyof":6730,"Ġdopaminergic":6731,"ĠStaphylococcus":6732,"Ġischemic":6733,"Ġarrhythmias":6734,"Ġjudged":6735,"36":6736,"Ġanhyd":6737,"Ġmis":6738,"cein":6739,"Ġacne":6740,"Ġrespective":6741,"Ġsequential":6742,"factor":6743,"Ġelution":6744,"Ġreasons":6745,"Ġheterogeneity":6746,"Ġobjective":6747,"Ġcortisol":6748,"icidal":6749,"Ġonc":6750,"Ġdisulf":6751,"ĠGolgi":6752,"Ġgastrin":6753,"Ġdevelopmental":6754,"incubation":6755,"Ġattenu":6756,"Ġcatecholamine":6757,"hyper":6758,"Ġexcluded":6759,"ymph":6760,"Ġclus":6761,"ĠGVH":6762,"Ġintermedi":6763,"ogenicity":6764,"Ġartificial":6765,"gus":6766,"gel":6767,"tokinase":6768,"Ġkilled":6769,"silon":6770,"son":6771,"ste":6772,"ĠType":6773,"ifying":6774,"irc":6775,"irin":6776,"Ġmoiety":6777,"Ġcontractions":6778,"Ġischemia":6779,"Ġwaves":6780,"Ġmorbidity":6781,"Ġsarcoplasmic":6782,"Ġide":6783,"Ġgold":6784,"uronic":6785,"ĠHigh":6786,"Ġsoil":6787,"phosphamide":6788,"Ġheterolog":6789,"Ġprogressively":6790,"Ġfavo":6791,"Ġcorrection":6792,"Ġpermanent":6793,"AA":6794,"scop":6795,"Ġusual":6796,"Ġspectro":6797,"athing":6798,"Ġplant":6799,"triction":6800,"Ġcolonies":6801,"Ġpublished":6802,"Ġresonance":6803,"thel":6804,"ison":6805,"ervation":6806,"arious":6807,"Ġ67":6808,"Ġplan":6809,"Ġesterase":6810,"Ġroot":6811,"Ġdiethyl":6812,"ĠNew":6813,"Ġrecipient":6814,"Ġfetuses":6815,"Ġcorticostero":6816,"LL":6817,"chemical":6818,"haps":6819,"eces":6820,"Ġavian":6821,"Ġpneumococcal":6822,"Ġthermal":6823,"IP":6824,"dal":6825,"Ġglass":6826,"ministration":6827,"Ġtris":6828,"Ġseverely":6829,"Ġdesignated":6830,"Ġaspi":6831,"Ġepisodes":6832,"ST":6833,"jug":6834,"heme":6835,"Ġanesthetized":6836,"Ġnasal":6837,"Ġpreoperative":6838,"Ġsynchron":6839,"hydryl":6840,"Ġexhibits":6841,"Ġhelper":6842,"Ġconjugates":6843,"Ġsolvent":6844,"lorophenyl":6845,"Ġcephal":6846,"Ġagonists":6847,"Ġregarding":6848,"Ġepidem":6849,"cere":6850,"Ġathe":6851,"ĠPar":6852,"Ġneuramin":6853,"Ġjejun":6854,"Ġprotected":6855,"irds":6856,"Ġascites":6857,"Ġbundle":6858,"Ġdental":6859,"Ġacts":6860,"Ġsud":6861,"ĠSh":6862,"ĠRNase":6863,"Ġdeaths":6864,"Ġlarvae":6865,"Ġcontralateral":6866,"osity":6867,"ĠCD":6868,"ntolamine":6869,"tants":6870,"Ġimmunop":6871,"Ġimmunologically":6872,"Ġindis":6873,"Ġhistocompatibility":6874,"regular":6875,"Ġdenaturation":6876,"Ġworkers":6877,"Ġembryonic":6878,"Ġangiotensin":6879,"ĠSalmonella":6880,"Ġaneurys":6881,"46":6882,"99":6883,"bal":6884,"two":6885,"ĠmV":6886,"Ġname":6887,"Ġenzymic":6888,"Ġagglutin":6889,"Ġobvious":6890,"Ġmaln":6891,"Ġlipase":6892,"Ġleukaemia":6893,"Ġestimation":6894,"Ġcyst":6895,"Ġdetecting":6896,"Ġretrograde":6897,"Ġsterilization":6898,"Ġdetailed":6899,"cap":6900,"soluble":6901,"Ġcontin":6902,"Ġald":6903,"ctin":6904,"Ġdiastolic":6905,"plastic":6906,"Ġleucine":6907,"Ġpassage":6908,"ochemistry":6909,"Ġendothelial":6910,"anil":6911,"Ġatrophy":6912,"Ġdemonstrable":6913,"Ġtrauma":6914,"Ġgranular":6915,"Ġdisplay":6916,"Ġplacent":6917,"Ġreserpine":6918,"Ġphysician":6919,"Ġlithium":6920,"Ġheterologous":6921,"Ġchest":6922,"Ġbowel":6923,"Ġmotility":6924,"Ġclinic":6925,"Ġhaemat":6926,"Ġsuccessive":6927,"Ġdimension":6928,"Ġparents":6929,"Ġreturn":6930,"Ġages":6931,"Ġoil":6932,"Ġfund":6933,"ithin":6934,"Ġcanal":6935,"Ġsoft":6936,"Ġvariability":6937,"GG":6938,"alp":6939,"angi":6940,"Ġord":6941,"Ġserine":6942,"Ġserial":6943,"Ġsubpop":6944,"Ġ66":6945,"Ġpigment":6946,"Ġ1976":6947,"Ġribosomes":6948,"rex":6949,"Ġineffective":6950,"inger":6951,"ĠTe":6952,"Ġincomplete":6953,"Ġclones":6954,"Ġmitotic":6955,"Ġvasodi":6956,"ĠChanges":6957,"anthine":6958,"imetidine":6959,"Ġprevention":6960,"Ġneoplastic":6961,"Ġpalliative":6962,"Ġendings":6963,"dic":6964,"oag":6965,"reactivity":6966,"Ġtheore":6967,"osid":6968,"ĠPO":6969,"ĠUDP":6970,"Ġglycosamin":6971,"Ġprobable":6972,"Ġfatal":6973,"Ġstreptozotocin":6974,"Ġwt":6975,"ĠDH":6976,"month":6977,"liter":6978,"Ġmmol":6979,"Ġtetracycline":6980,"Ġdiscrimin":6981,"Ġenlargement":6982,"four":6983,"Ġchel":6984,"Ġlumb":6985,"Ġcond":6986,"Ġtransmitter":6987,"Ġstudying":6988,"Ġchemically":6989,"Ġascorb":6990,"Ġdermat":6991,"ophyll":6992,"ĠMy":6993,"parag":6994,"Ġvisible":6995,"Ġtransferred":6996,"Ġintroduction":6997,"Ġadaptation":6998,"Ġgentamicin":6999,"Ġprominent":7000,"arded":7001,"lytic":7002,"ĠAT":7003,"ĠBlood":7004,"Ġrelief":7005,"Ġmedication":7006,"Ġstaphyl":7007,"Ġpredomin":7008,"Ġbilirubin":7009,"Ġdimer":7010,"Ġcatalyzed":7011,"Ġdermatitis":7012,"Ġinstances":7013,"Ġexplanation":7014,"Ġspermatozoa":7015,"Ġfind":7016,"idium":7017,"phthal":7018,"ethylene":7019,"Ġeluc":7020,"Ġppm":7021,"RA":7022,"ier":7023,"tium":7024,"Ġreinf":7025,"Ġnitrate":7026,"apan":7027,"Ġrough":7028,"Ġfeature":7029,"Ġrefrac":7030,"Ġaxon":7031,"Ġswelling":7032,"31":7033,"len":7034,"Ġhipp":7035,"ĠSignificant":7036,"lective":7037,"Ġunable":7038,"ostatin":7039,"Ġlivers":7040,"Ġpeople":7041,"Ġinflammation":7042,"ĠZn":7043,"Ġpoorly":7044,"epiandrosterone":7045,"after":7046,"tally":7047,"ubs":7048,"independent":7049,"rophic":7050,"Ġdrain":7051,"ana":7052,"Ġsubcellular":7053,"Ġmakes":7054,"Ġapproac":7055,"Ġconnection":7056,"Ġhydrophobic":7057,"bred":7058,"ler":7059,"lig":7060,"lines":7061,"Ġflo":7062,"ĠACh":7063,"Ġconcanavalin":7064,"tified":7065,"Ġfilm":7066,"Ġnmol":7067,"Ġkept":7068,"Ġanalogues":7069,"Ġexperimentally":7070,"Ġcontribution":7071,"Ġaccelerated":7072,"Ġirreversible":7073,"Ġopposite":7074,"Ac":7075,"odg":7076,"tening":7077,"Ġgross":7078,"ĠEA":7079,"Ġpeptid":7080,"Ġhomogenate":7081,"omethacin":7082,"hab":7083,"asive":7084,"unit":7085,"Ġresolution":7086,"quit":7087,"Ġpretreated":7088,"Ġconclusions":7089,"Ġ54":7090,"Ġ59":7091,"aminase":7092,"Ġclosed":7093,"ercur":7094,"Ġheteroz":7095,"Ġphosphorylase":7096,"Ġattack":7097,"aved":7098,"xt":7099,"Ġisch":7100,"rosophila":7101,"Ġsimpl":7102,"Ġhaloperidol":7103,"Ġsurvived":7104,"Ġgonorrhoe":7105,"Ġexpon":7106,"Ġrecurrence":7107,"inyl":7108,"atine":7109,"unting":7110,"Ġvul":7111,"otroph":7112,"ĠVmax":7113,"onucleo":7114,"Ġprosthe":7115,"Ġcarrying":7116,"ester":7117,"opamine":7118,"Ġuncoup":7119,"Ġcoll":7120,"Ġirregular":7121,"Ġdeposition":7122,"SS":7123,"hood":7124,"Ġchole":7125,"ĠCEA":7126,"ession":7127,"Ġmineral":7128,"Ġhistologic":7129,"Ġconsideration":7130,"peptidase":7131,"Ġtitres":7132,"Ġcontamination":7133,"Ġgradually":7134,"cm":7135,"ld":7136,"onomic":7137,"tity":7138,"Ġinverse":7139,"Ġdendri":7140,"oric":7141,"Ġlymphob":7142,"Ġdissociated":7143,"Ġcholine":7144,"Ġetiology":7145,"Ġechocardi":7146,"cl":7147,"atured":7148,"Ġlens":7149,"Ġattach":7150,"Ġcomparing":7151,"Ġagglutination":7152,"Ġ64":7153,"ĠWhe":7154,"Ġquick":7155,"obut":7156,"Ġsustained":7157,"Ġdiffering":7158,"testosterone":7159,"thrombin":7160,"LH":7161,"down":7162,"otes":7163,"yron":7164,"Ġcenter":7165,"anyl":7166,"Ġgiving":7167,"Ġsulfhydryl":7168,"Ġtiter":7169,"Ġbenzodiazep":7170,"..":7171,"fen":7172,"iant":7173,"Ġtended":7174,"Ġmsec":7175,"Ġnurs":7176,"Ġmethionine":7177,"Ġcysteine":7178,"blocking":7179,"elles":7180,"uting":7181,"Ġcanine":7182,"phosphoryl":7183,"Ġlipopoly":7184,"Ġmentioned":7185,"rangement":7186,"Ġbonds":7187,"odgkin":7188,"nine":7189,"Ġscin":7190,"Ġfit":7191,"ley":7192,"amous":7193,"ĠPoss":7194,"effects":7195,"blast":7196,"Ġped":7197,"Ġanastom":7198,"roximately":7199,"ocular":7200,"ĠBased":7201,"Ġsubgroup":7202,"Ġdefic":7203,"ophils":7204,"Ġreplaced":7205,"dose":7206,"Ġhow":7207,"Ġprobe":7208,"Ġdisper":7209,"chlor":7210,"Ġconscious":7211,"Ġsynov":7212,"arcoma":7213,"Ġdilat":7214,"Ġprotons":7215,"Ġphosphodies":7216,"aryngeal":7217,"Ġdrawn":7218,"PP":7219,"asure":7220,"icidin":7221,"Ġhome":7222,"Ġproceed":7223,"ocamp":7224,"atient":7225,"Ġ53":7226,"Ġtransm":7227,"Ġstimulatory":7228,"producing":7229,"Ġshorter":7230,"Ġreproducible":7231,"85":7232,"gas":7233,"mium":7234,"Ġcut":7235,"Ġcalled":7236,"ĠTwenty":7237,"Ġlambda":7238,"ĠAf":7239,"Ġdiffers":7240,"Ġstric":7241,"Ġantagonized":7242,"Ġutilizing":7243,"95":7244,"leucine":7245,"ĠTrans":7246,"Ġmonos":7247,"Ġautopsy":7248,"Ġulce":7249,"Ġdeoxyrib":7250,"Ġingestion":7251,"bre":7252,"asone":7253,"ithi":7254,"ffered":7255,"ives":7256,"apto":7257,"Ġamines":7258,"Ġestimate":7259,"Ġimplanted":7260,"Ġreticul":7261,"Ġconcerned":7262,"tumor":7263,"Ġgalactose":7264,"itus":7265,"ĠCNS":7266,"Ġdischar":7267,"ĠHCl":7268,"ĠRadi":7269,"Ġrich":7270,"Ġpathology":7271,"Ġportal":7272,"Ġaggregates":7273,"Ġthrombosis":7274,"car":7275,"itch":7276,"Ġviable":7277,"Ġphenotype":7278,"Ġbacteri":7279,"Ġhomoz":7280,"Ġmatched":7281,"ĠComparison":7282,"obacterium":7283,"ĠAccording":7284,"ructokinase":7285,"Ġsudden":7286,"Ġtent":7287,"Ġaromatic":7288,"ques":7289,"ĠCH":7290,"Ġabund":7291,"GA":7292,"bac":7293,"Ġaw":7294,"Ġdominant":7295,"Ġacting":7296,"Ġperhaps":7297,"Ġlep":7298,"ĠDrosophila":7299,"Ġtempora":7300,"Ġhistologically":7301,"Ġdiets":7302,"Ġhomogeneity":7303,"Ġsalivary":7304,"Con":7305,"Ġanemia":7306,"cel":7307,"Ġchym":7308,"ĠST":7309,"izations":7310,"tances":7311,"ĠLow":7312,"Ġreveals":7313,"Ġepidermis":7314,"Ġabortion":7315,"Ġchamber":7316,"39":7317,"Cr":7318,"lact":7319,"ido":7320,"Ġtemplate":7321,"tructed":7322,"iliary":7323,"Ġspindle":7324,"Ġcorneal":7325,"CR":7326,"Ġpast":7327,"Ġmos":7328,"Ġfusion":7329,"uscular":7330,"ĠTH":7331,"Ġcompleted":7332,"tyrosine":7333,"Ġleukemic":7334,"Ġlacking":7335,"Ġneeds":7336,"Ġinducing":7337,"Ġdivision":7338,"Ġchloroplasts":7339,"zo":7340,"esides":7341,"tries":7342,"ypical":7343,"Ġinfused":7344,"Ġintramuscular":7345,"Ġlowering":7346,"ullary":7347,"Ġconductance":7348,"Ġoutside":7349,"with":7350,"iatic":7351,"ĠHospital":7352,"Ġtransferase":7353,"Ġcyto":7354,"Ġstarch":7355,"Ġoxal":7356,"Ġapproxim":7357,"Ġfemoral":7358,"Ġzones":7359,"Ġpotentiated":7360,"Ġpersisted":7361,"Ġreflected":7362,"Ġacquired":7363,"ĠAB":7364,"Ġmonol":7365,"Ġelectrodes":7366,"Ġexcit":7367,"Ġimplantation":7368,"Ġphenylalanine":7369,"Ġprojections":7370,"Ġhemagglutination":7371,"Ġanxiety":7372,"Ġaccompl":7373,"uit":7374,"Ġcros":7375,"Ġanalogue":7376,"Ġmoderately":7377,"Ġsplen":7378,"Ġdefective":7379,"Ġangiography":7380,"Ġbrady":7381,"Ġlearning":7382,"cereb":7383,"zine":7384,"Ã©":7385,"icardi":7386,"divid":7387,"oderm":7388,"Ġheme":7389,"Ġmedulla":7390,"ptomatic":7391,"Ġglycol":7392,"Ġprecipitated":7393,"Ġstains":7394,"Ġinterference":7395,"oclonal":7396,".-":7397,"itions":7398,"ocellular":7399,"Ġmenstr":7400,"ĠDep":7401,"tole":7402,"rospora":7403,"Ġ62":7404,"Ġamine":7405,"ĠGMP":7406,"Ġgreen":7407,"Ġmicroorg":7408,"Ġworking":7409,"Ġlactose":7410,"hythmic":7411,"Ġlamina":7412,"thymidine":7413,"ropathy":7414,"yronine":7415,"He":7416,"bis":7417,"land":7418,"pe":7419,"Ġ&":7420,"ica":7421,"Ġprove":7422,"Ġspores":7423,"tories":7424,"mittent":7425,"Ġafferent":7426,"Ġ1973":7427,"Ġconsider":7428,"Ġproviding":7429,"Ġganglia":7430,"Ġbriefly":7431,"77":7432,"idox":7433,"ĠCP":7434,"Ġtric":7435,"Ġcasein":7436,"Ġlactic":7437,"Ġvaginal":7438,"Ġsuperficial":7439,"ĠInhibition":7440,"Ġenvelope":7441,"Ġspectroscop":7442,"Ġneuraminidase":7443,"MS":7444,"oms":7445,"ĠMich":7446,"Ġcytochemical":7447,"Ġcontrary":7448,"Ġproline":7449,"ofructokinase":7450,"Ġsubstitution":7451,"lyl":7452,"Ġdele":7453,"Ġposts":7454,"cytes":7455,"Ġallogra":7456,"itud":7457,"Ġultraviolet":7458,"Ġconnected":7459,"Ġshifts":7460,"Ġfrozen":7461,"theless":7462,"trome":7463,"ony":7464,"inemia":7465,"Ġsyste":7466,"Ġnucleic":7467,"Ġ96":7468,"Ġhybrids":7469,"Ġlinkage":7470,"onium":7471,"Ġsph":7472,"resis":7473,"trical":7474,"Ġsimilarity":7475,"Ġmicrotub":7476,"Ġidentity":7477,"radish":7478,"Ġsalic":7479,"Ġhydrolyzed":7480,"Ġmetas":7481,"utrition":7482,"Ġinterfere":7483,"Ġbenefit":7484,"lavin":7485,"Ġretard":7486,"Ġfluoride":7487,"hydroxytryptamine":7488,"fraction":7489,"five":7490,"ontal":7491,"Ġwar":7492,"trial":7493,"ĠHRP":7494,"Ġendoplasmic":7495,"fficients":7496,"Ġemergen":7497,"Ġcarbox":7498,"atinine":7499,"ĠQu":7500,"Ġnicotinamide":7501,"Ġregarded":7502,"Ġhemorrhage":7503,"Ġspread":7504,"Ġflex":7505,"Ġphenobarbital":7506,"Ġthrombin":7507,"Ġpossessed":7508,"Ġdisturbance":7509,"66":7510,"trates":7511,"ĠAP":7512,"Ġspectrophot":7513,"Ġclot":7514,"hemat":7515,"Ġinfluences":7516,"Ġtask":7517,"Ġpreferentially":7518,"IT":7519,"haem":7520,"ls":7521,"prim":7522,"ĠCu":7523,"ĠSpec":7524,"elis":7525,"Ġtrend":7526,"Ġchanging":7527,"Ġcorrelations":7528,"Ġsplenic":7529,"ographically":7530,"Ġasymme":7531,"Using":7532,"aves":7533,"Ġdic":7534,"Ġresolved":7535,"ĠGH":7536,"Ġvirtually":7537,"hydrolase":7538,"titution":7539,"Ġreflux":7540,"Ġretina":7541,"phetamine":7542,"ĠpKa":7543,"ĠCells":7544,"Ġandrogen":7545,"lysine":7546,"Ġhippocamp":7547,"dec":7548,"ophosphate":7549,"Ġprospective":7550,"Ġenriched":7551,"inson":7552,"Ġendotoxin":7553,"Ġelder":7554,"Ġreduces":7555,"Ġactinomycin":7556,"Ġherpes":7557,"esia":7558,"Ġspor":7559,"Ġadmission":7560,"stre":7561,"Ġamb":7562,"Ġplastic":7563,"Ġminus":7564,"Ġdemonstrating":7565,"azepam":7566,"exchange":7567,"onucleic":7568,"gina":7569,"Anti":7570,"Ġveins":7571,"Ġmanifes":7572,"oreduc":7573,"Ġgonadotropin":7574,"Ġsquamous":7575,"Ġjuice":7576,"Ġneuroleptic":7577,"Ġlaparoscopy":7578,"Ġdegraded":7579,"Ġchlorpromazine":7580,"Ġpate":7581,"timal":7582,"Ġkin":7583,"Ġdrin":7584,"Ġthereby":7585,"Ġsmears":7586,"rought":7587,"Ġinflux":7588,"Ġcardiomy":7589,"Ġprednis":7590,"Ġcomplicated":7591,"Ġpersonal":7592,"Ġadsorbed":7593,"urgical":7594,"Ġcrass":7595,"Ġdilatation":7596,"Ġwid":7597,"Ġfoci":7598,"romat":7599,"phatic":7600,"hemoglobin":7601,"Ġmann":7602,"Ġavailability":7603,"Ġtrained":7604,"ĠNeurospora":7605,"Ġdecarboxylase":7606,"Ġether":7607,"olus":7608,"ocys":7609,"Ġhapl":7610,"ĠRA":7611,"Ġdeclined":7612,"istar":7613,"Ġfractionated":7614,"eroxide":7615,"Ġtakes":7616,"Ġlatent":7617,"versus":7618,"Ġfasting":7619,"osaminidase":7620,"Ġvaccination":7621,"CF":7622,"Ġcen":7623,"Ġtook":7624,"Ġlup":7625,"Ġperi":7626,"Ġunex":7627,"Ġmagnetic":7628,"Ġcurrently":7629,"Ġfoot":7630,"AD":7631,"Ad":7632,"called":7633,"Ġtotally":7634,"usal":7635,"Ġvec":7636,"semb":7637,"chicine":7638,"Ġstudents":7639,"Ġparenchym":7640,"Ġgermin":7641,"Ġileum":7642,"Ġbrought":7643,"Ġsampl":7644,"Ġpresentation":7645,"Ġvoltage":7646,"Ġresponder":7647,"Ġcontrolling":7648,"Ġcoefficients":7649,"Ġreconstituted":7650,"Ġplasmid":7651,"Ġchondroitin":7652,"Ġthre":7653,"Ġwashed":7654,"Ġproven":7655,"Ġacidification":7656,"erat":7657,"Ġdepri":7658,"Ġdioxide":7659,"Ġincludes":7660,"orbent":7661,"Ġporcine":7662,"Ġpredicted":7663,"Ġclonidine":7664,"64":7665,"dl":7666,"fusion":7667,"Ġinher":7668,"Ġassis":7669,"Ġexact":7670,"trus":7671,"chlo":7672,"Ġmaking":7673,"Ġhandic":7674,"Ġcystic":7675,"Ġprograms":7676,"Ġaspart":7677,"Ġmonoamine":7678,"Ġduodenum":7679,"ĠSimilarly":7680,"Ġspeed":7681,"BS":7682,"DL":7683,"].":7684,"Ġangina":7685,"asic":7686,"olated":7687,"ĠCBA":7688,"ĠCyt":7689,"Ġground":7690,"Ġcoord":7691,"point":7692,"nitrophenyl":7693,"pyruvate":7694,"Ġlumen":7695,"Ġdifficulties":7696,"Ġsurrounding":7697,"ĠAfric":7698,"Ġelderly":7699,"Ġcrassa":7700,"aelis":7701,"fe":7702,"yrate":7703,"Ġbed":7704,"olab":7705,"ocons":7706,"ibration":7707,"irradi":7708,"ĠSV":7709,"Ġagg":7710,"Ġagarose":7711,"Ġemp":7712,"Ġ1972":7713,"Ġemphasized":7714,"Ġentirely":7715,"Ġcyclophosphamide":7716,"Ġphentolamine":7717,"Ġnamely":7718,"ĠPossible":7719,"CD":7720,"Ġips":7721,"ĠAM":7722,"depress":7723,"Ġmodify":7724,"iodoth":7725,"Ġlabelling":7726,"oxygenase":7727,"Ġhealing":7728,"Ġzero":7729,"Ġpossibilities":7730,"Ġcarboxylase":7731,"ĠPAS":7732,"sulfate":7733,"picillin":7734,"Ġmucopolysaccharides":7735,"Ġchec":7736,"Ġadipose":7737,"67":7738,"male":7739,"Ġbeats":7740,"toid":7741,"ĠOp":7742,"Ġarticle":7743,"Ġplot":7744,"Ġfourth":7745,"Ġvolumes":7746,"Ġelement":7747,"Ġchemo":7748,"Ġhypothyroid":7749,"Ġleucocytes":7750,"adenosine":7751,"Ġepilepsy":7752,"ĠElectron":7753,"Hg":7754,"Ġsomatic":7755,"ulent":7756,"Ġislets":7757,"otrex":7758,"Ġchim":7759,"ĠDi":7760,"oxid":7761,"isseria":7762,"ĠWithin":7763,"\",":7764,"hion":7765,"hepatic":7766,"Ġcure":7767,"Ġrup":7768,"ĠOver":7769,"physe":7770,"Ġ1977":7771,"ensional":7772,"Ġpublic":7773,"Ġpositively":7774,"Ġanatomical":7775,"ogaster":7776,"onephritis":7777,"Ġpace":7778,"rocal":7779,"Ġacceptor":7780,"phage":7781,"Ġindomethacin":7782,"Ġintermittent":7783,"Ġstrand":7784,"ocarcinoma":7785,"centr":7786,"ming":7787,"phrag":7788,"Ġextension":7789,"Ġsept":7790,"ĠDifferen":7791,"ĠBut":7792,"ietic":7793,"pective":7794,"Ġvesti":7795,"Ġtranscription":7796,"Ġsupports":7797,"Ġisoprenaline":7798,"Ġintervention":7799,"Ġtranslocation":7800,"ĠDespite":7801,"03":7802,"58":7803,"galy":7804,"psych":7805,"using":7806,"urity":7807,"aca":7808,"Ġwhat":7809,"chlorophenyl":7810,"ĠEB":7811,"atively":7812,"entry":7813,"antigen":7814,"Ġhaemoglobin":7815,"ritin":7816,"Ġneuroleptics":7817,"Ġcyanide":7818,"Ġrecombination":7819,"Ġdocumented":7820,"stra":7821,"Ġtom":7822,"Ġgir":7823,"erases":7824,"ensitization":7825,"Ġinteract":7826,"Ġscores":7827,"iotic":7828,"ocardial":7829,"Ġdehydroepiandrosterone":7830,"Ġketo":7831,"Ġexperienced":7832,"Ġrarely":7833,"Ġcharged":7834,"Ġattachment":7835,"Ġexamine":7836,"ĠSD":7837,"ĠNE":7838,"Ġreacting":7839,"aped":7840,"Ġinside":7841,"rectomy":7842,"Ġinitiated":7843,"Ġstabil":7844,"Ġferric":7845,"uterine":7846,"Ġbrains":7847,"Ġtheoretical":7848,"otrexate":7849,"AP":7850,"lain":7851,"mes":7852,"uran":7853,"Ġthoracic":7854,"Ġshared":7855,"Ġarg":7856,"Ġhaemag":7857,"Ġsituations":7858,"Ġattacks":7859,"enteric":7860,"electro":7861,"Ġphosphodiesterase":7862,".).":7863,"71":7864,"Human":7865,"aned":7866,"dibular":7867,"ellow":7868,"Ġmeal":7869,"Ġdistance":7870,"Ġcorp":7871,"ietal":7872,"Ġtrich":7873,"Ġequip":7874,"Ġlongitud":7875,"uditory":7876,"otoxic":7877,"opathological":7878,"Ġtechnical":7879,"Ġfractures":7880,"La":7881,"cys":7882,"Ġbanding":7883,"Ġnal":7884,"Ġdissemin":7885,"Ġcoat":7886,"Ġuncom":7887,"Ġlive":7888,"Ġgenera":7889,"Ġoptical":7890,"aving":7891,"Ġhemis":7892,"Ġcontinuously":7893,"Ġexcessive":7894,"Ġrecommend":7895,"glycerin":7896,"Ġrecordings":7897,"Ġalkali":7898,"Ġdisulfide":7899,"ga":7900,"ltra":7901,"uous":7902,"Ġtone":7903,"Ġcimetidine":7904,"Ġecon":7905,"Ġaldehyde":7906,"Ġseminal":7907,"Ġhen":7908,"Ġregis":7909,"ximide":7910,"Ġhydrocarb":7911,"Ġirrit":7912,"Ġtransplanted":7913,"Ġfields":7914,"Ġiodine":7915,"Ġfibrillation":7916,"Ġmetastatic":7917,"CS":7918,"ĠClinical":7919,"ĠSC":7920,"ĠIns":7921,"Ġserved":7922,"Ġkary":7923,"Ġpotentially":7924,"Ġdepended":7925,"Ġsubstantially":7926,"ithelial":7927,"Ġperson":7928,"Ġanalogs":7929,"Ġmelanogaster":7930,"Ġgranulocytes":7931,"uncture":7932,"omorphine":7933,"Ġaccomplished":7934,"ĠMichaelis":7935,"orome":7936,"tead":7937,"Ġsick":7938,"Ġseas":7939,"ĠPoly":7940,"Ġoutp":7941,"Ġphenyle":7942,"Ġproperty":7943,"Ġfilter":7944,"Ġsyndromes":7945,"Ġusefulness":7946,"Ġsolubility":7947,"Ġeggs":7948,"Ġkinds":7949,"greater":7950,"Ġplacenta":7951,"yond":7952,"Ġtight":7953,"Ġdyes":7954,"ĠPe":7955,"Ġpresents":7956,"Ġimmunochemical":7957,"Ġkcal":7958,"Ġkappa":7959,"Ġ74":7960,"Ġtolerated":7961,"tinguish":7962,"Ġdepleted":7963,"Ġsialic":7964,"ĠSpecific":7965,"Ġpoin":7966,"Ġreach":7967,"Ġeviden":7968,"Ġpresenting":7969,"Ġavera":7970,"Ġtransferrin":7971,"Ġfashion":7972,"Ġuterus":7973,"vices":7974,"ovalent":7975,"Ġreinfor":7976,"Ġlupus":7977,"56":7978,"LI":7979,"MM":7980,"NO":7981,"Ġpsor":7982,"Ġimmature":7983,"Ġhearing":7984,"Ġarm":7985,"turally":7986,"Ġjust":7987,"acterial":7988,"lammatory":7989,"Ġsubstituted":7990,"ĠMean":7991,"Ġsemi":7992,"Ġoccasionally":7993,"opropyl":7994,"iodothyronine":7995,"PT":7996,"Pre":7997,"Ġsig":7998,"Ġsib":7999,"Ġpr":8000,"itals":8001,"ĠTNP":8002,"tax":8003,"Ġpresc":8004,"Ġelectric":8005,"Ġcharacterization":8006,"oprol":8007,"Ġindependently":8008,"Ġbelieved":8009,"ophageal":8010,"Sepharose":8011,"Ġpositions":8012,"comple":8013,"olym":8014,"Ġaeti":8015,"Ġcompare":8016,"Ġplays":8017,"Ġphosphofructokinase":8018,"Ġprecipitin":8019,"Ġsecreted":8020,"Ġaspirin":8021,"Ġkilling":8022,"Ġlobe":8023,"Ġatheros":8024,"Ġlipopolysaccharide":8025,"Im":8026,"VA":8027,"Ġaerobic":8028,"Ġpan":8029,"ality":8030,"ĠAb":8031,"Ġmem":8032,"Ġrig":8033,"Ġesters":8034,"Ġexcitation":8035,"peptide":8036,"cortis":8037,"ractolol":8038,"Ġmosquit":8039,".),":8040,"43":8041,"dopa":8042,"iamine":8043,"Ġflas":8044,"Ġface":8045,"Ġspectrome":8046,"Ġ86":8047,"Ġradiographic":8048,"pression":8049,"erob":8050,"Ġproteases":8051,"Ġfluc":8052,"Ġdifferentiate":8053,"Ġblack":8054,"roscopic":8055,"Ġcommunity":8056,"Ġpacema":8057,"52":8058,"Fe":8059,"GMP":8060,"PL":8061,"Ġinotropic":8062,"itre":8063,"Ġaddi":8064,"Ġcoenzyme":8065,"Ġsynerg":8066,"Ġcommercial":8067,"Ġcholera":8068,"(+)":8069,"eros":8070,"ride":8071,"hep":8072,"acron":8073,"version":8074,"ĠHz":8075,"Ġinfusions":8076,"Ġintox":8077,"Ġinstead":8078,"Ġneurones":8079,"Ġlimiting":8080,"Ġthymocytes":8081,"cyclic":8082,"Ġgramicidin":8083,"Ġhamsters":8084,"Ġstopped":8085,"Ġanomalies":8086,"tinguishable":8087,"ID":8088,"rein":8089,"Ġscle":8090,"atura":8091,"Ġproteinase":8092,"Ġ87":8093,"Ġbiphasic":8094,"Ġneurom":8095,"Ġaxis":8096,"Ġcountries":8097,"Ġlysosomes":8098,"ĠNeisseria":8099,"Ġimpul":8100,"naph":8101,"amylase":8102,"fixed":8103,"Ġdichro":8104,"ADP":8105,"asm":8106,"ĠAbo":8107,"Ġexud":8108,"Ġcomplain":8109,"Ġphyto":8110,"pared":8111,"Ġprimed":8112,"Ġbactericidal":8113,"Ġelong":8114,"Ġphoto":8115,"Ġbroth":8116,"Ġrandomly":8117,"Ġbuffers":8118,"Ġimmunosuppressive":8119,"lies":8120,"off":8121,"edded":8122,"ulates":8123,"aking":8124,"Ġtubes":8125,"Ġcomplementary":8126,"Ġconjugate":8127,"rising":8128,"Ġpreventing":8129,"Ġconsequences":8130,"Ġglomerul":8131,"Ġcapsule":8132,"Ġasymptomatic":8133,"Four":8134,"ishes":8135,"Ġdib":8136,"Ġwashing":8137,"Ġdehyd":8138,"ĠNO":8139,"ĠGram":8140,"Ġbio":8141,"Ġepsilon":8142,"ĠAss":8143,"Ġribonuclease":8144,"Ġemploying":8145,"Ġbaboons":8146,"Ġschedule":8147,"Ġmemory":8148,"Ġhar":8149,"Ġadmitted":8150,"ĠSeven":8151,"fluoro":8152,"Ġattributable":8153,"Ġcorresponds":8154,"Ġindistinguishable":8155,"Ġgonorrhoeae":8156,"Ġipsilateral":8157,"lam":8158,"leomycin":8159,"Ġ69":8160,"amination":8161,"Ġ78":8162,"Ġoxide":8163,"Ġinsoluble":8164,"accharides":8165,"Ġosmotic":8166,"Ġhorseradish":8167,"Ġcryptor":8168,"+]":8169,"ien":8170,"herent":8171,"usc":8172,"ysiological":8173,"perg":8174,"Ġhypera":8175,"allik":8176,"Ġampicillin":8177,"Ġmononuclear":8178,"Ġ73":8179,"tamol":8180,"roline":8181,"Ġconfig":8182,"ancing":8183,"Ġgenetically":8184,"Ġdestroyed":8185,"aptoethanol":8186,"Ġfluctu":8187,"ber":8188,"gths":8189,"iology":8190,"rist":8191,"Ġtail":8192,"Ġantidepress":8193,"rite":8194,"ĠDS":8195,"Ġnucleoside":8196,"Ġproportions":8197,"Ġdevoid":8198,"Ġinnervation":8199,"ucleotide":8200,"72":8201,"Ġfig":8202,"lysis":8203,"ĠMon":8204,"ipramine":8205,"Ġtreating":8206,"Ġstation":8207,"Ġmotion":8208,"ĠWistar":8209,"Ġfluoro":8210,"Ġexcision":8211,"certain":8212,"ospitals":8213,"selves":8214,"Ġcarbonic":8215,"ĠJapan":8216,"Ġthrombo":8217,"omatous":8218,"Ġprognostic":8219,"Ġfeedback":8220,"ophylline":8221,"Ġplex":8222,"umatic":8223,"throp":8224,"openia":8225,"ĠSer":8226,"ĠDD":8227,"aching":8228,"Ġisolate":8229,"Ġsuppressive":8230,"Ġdefine":8231,"Ġscale":8232,"azol":8233,"oetal":8234,"Ġxen":8235,"Ġstandardi":8236,"Ġamylase":8237,"Ġretarded":8238,"globulins":8239,"Ġcovalently":8240,"Ġrelapse":8241,"Ġaspartate":8242,"Ġpas":8243,"Ġways":8244,"Ġdent":8245,"anide":8246,"Ġenough":8247,"ĠSA":8248,"Ġdeterio":8249,"Ġeryt":8250,"Ġorganelles":8251,"Ġprotoc":8252,"hypertensive":8253,"GF":8254,"tere":8255,"itrophenyl":8256,"ices":8257,"Ġreferred":8258,"Ġelastic":8259,"olk":8260,"ichi":8261,"timulation":8262,"Ġinterrup":8263,"Ġmeasles":8264,"Ġextrasyst":8265,"Ġcalves":8266,"cotic":8267,"Ġregardless":8268,"thyroidism":8269,"Ġhypotension":8270,"Ġstreptococci":8271,"Ġintraperitoneal":8272,"releasing":8273,"IV":8274,"non":8275,"Ġole":8276,"Ġinput":8277,"Ġrequ":8278,"ĠTotal":8279,"traction":8280,"tivated":8281,"quil":8282,"lots":8283,"ĠFab":8284,"Ġ61":8285,"Ġotherwise":8286,"aging":8287,"Ġfacial":8288,"antitative":8289,"Ġflag":8290,"Ġprogression":8291,"Ġcreatinine":8292,"Ġstreptomycin":8293,"Ġregeneration":8294,"Ġviscosity":8295,"Ġrecords":8296,"54":8297,"After":8298,"Ġbot":8299,"Ġbeyond":8300,"ĠCB":8301,"ĠSw":8302,"Ġservices":8303,"tamide":8304,"ramphen":8305,"antitrypsin":8306,"kinin":8307,"Ġblocks":8308,"Ġconfined":8309,"rown":8310,"conjug":8311,"Ġtransplant":8312,"Ġepileptic":8313,"Ġorientation":8314,"Ġlumbar":8315,"ramphenicol":8316,"for":8317,"sal":8318,"Ã¶":8319,"ena":8320,"Ġput":8321,"urally":8322,"ĠEight":8323,"Ġscheme":8324,"depend":8325,"Ġglucuron":8326,"glucosidase":8327,"Ġyounger":8328,"tizing":8329,"Ġassigned":8330,"04":8331,"Ġfish":8332,"Ġlute":8333,"ĠAp":8334,"yste":8335,"ĠSec":8336,"jected":8337,"linking":8338,"Ġlimb":8339,"pread":8340,"Ġbaseline":8341,"Ġisoenzyme":8342,"Ġbrush":8343,"Ġpenetration":8344,"By":8345,"When":8346,"zard":8347,"Ġbis":8348,"igible":8349,"oglu":8350,"opres":8351,"Ġpresynaptic":8352,"Ġphages":8353,"oxidation":8354,"Ġdescription":8355,"Ġaffects":8356,"arisons":8357,"Ġvenom":8358,"Ġpsychiatric":8359,"Ġanalytical":8360,"ibrill":8361,"Ġfavora":8362,"uliar":8363,"Ġsaliva":8364,"Ġesophageal":8365,"Ġsynapt":8366,"Ġelectrolyte":8367,"Ġhomozygous":8368,"SC":8369,"glycerol":8370,"Ġauditory":8371,"receptors":8372,"odop":8373,"Ġincre":8374,"Ġglucocortic":8375,"Ġpathologic":8376,"Ġteeth":8377,"Ġinjuries":8378,"pressure":8379,"Ġbabies":8380,"Ġintermediates":8381,"Ġmicroorganisms":8382,"Ġretardation":8383,"ulative":8384,"Ġcompr":8385,"ĠSm":8386,"trogens":8387,"005":8388,"six":8389,"Ġhypother":8390,"Ġplates":8391,"Ġlymphocytic":8392,"agas":8393,"Ġpostnatal":8394,"Ġ180":8395,"inflammatory":8396,"Ġshifted":8397,"Ġcompetition":8398,"Ġheterogeneous":8399,"Ġphysicians":8400,"As":8401,"cat":8402,"mu":8403,"Ġdup":8404,"ortical":8405,"lution":8406,"ĠData":8407,"renolol":8408,"Ġaging":8409,"Ġmole":8410,"Ġsubjective":8411,"Ġprocessing":8412,"Ġphysic":8413,"Ġstimulates":8414,"activation":8415,"Ġthemselves":8416,"dimensional":8417,"IgG":8418,"Ġexert":8419,"Ġtopical":8420,"Ġstrict":8421,"Ġerythemat":8422,"KR":8423,"gia":8424,"lite":8425,"ridine":8426,"uming":8427,"three":8428,"Ġactual":8429,"ophen":8430,"trone":8431,"Ġatypical":8432,"Ġ83":8433,"exis":8434,"Ġmultipl":8435,"Ġprecipitate":8436,"Ġvege":8437,"Ġrepresenting":8438,"Ġbreakdown":8439,"reacting":8440,"Ġlasting":8441,"Ġanalgesic":8442,"For":8443,"vol":8444,"hexyl":8445,"Ġtool":8446,"iled":8447,"Ġadding":8448,"Ġpermitted":8449,"Ġheating":8450,"Ġmethanol":8451,"Ġhistone":8452,"Ġtubal":8453,"Ġreplic":8454,"ĠAdministration":8455,"Ġovulation":8456,"yclic":8457,"ĠAmeric":8458,"Ġstarted":8459,"Ġhybridization":8460,"Ġburst":8461,"Ġcircumst":8462,"modified":8463,"Am":8464,"During":8465,"bor":8466,"late":8467,"uracil":8468,"edema":8469,"idia":8470,"Ġlag":8471,"Ġradial":8472,"Ġperiodic":8473,"adequ":8474,"Ġchronically":8475,"Ġneutralization":8476,"Ġstriatum":8477,"Ġexisting":8478,"Ġpapain":8479,"Ġidiopathic":8480,"opoietic":8481,"Ġisotope":8482,"Ġcardiomyopathy":8483,"HCO":8484,"Mg":8485,"mar":8486,"Ġbip":8487,"Ġ77":8488,"Ġmycel":8489,"Ġreleasing":8490,"region":8491,"Ġseizure":8492,"Ġdynamics":8493,"Ġaveraged":8494,"from":8495,"Ġstro":8496,"Ġandros":8497,"Ġhard":8498,"iflu":8499,"ĠBo":8500,"ĠLV":8501,"ĠLa":8502,"Ġ76":8503,"Ġdiscovered":8504,"Ġionization":8505,"Ġtrace":8506,"hydraz":8507,"Ġultracentr":8508,"ographs":8509,"Ġhypotensive":8510,"Ġbranch":8511,"Ġfair":8512,"Ġparasite":8513,"Ġphagocytosis":8514,"Ġanhydrase":8515,"47":8516,"88":8517,"Ġpil":8518,"Ġmassive":8519,"Ġhospitals":8520,"thi":8521,"ĠMLR":8522,"ĠHodgkin":8523,"ĠNMR":8524,"Ġradiolab":8525,"Ġparameter":8526,"Ġtyros":8527,"Ġpeculiar":8528,"Ar":8529,"oate":8530,"uLV":8531,"ĠNor":8532,"Ġstart":8533,"Ġscar":8534,"Ġstarting":8535,"oscopic":8536,"ketts":8537,"Ġaudi":8538,"Ġseptum":8539,"%;":8540,"hn":8541,"Ġcad":8542,"Ġoffer":8543,"itonin":8544,"Ġgp":8545,"irst":8546,"Ġactivate":8547,"ĠHA":8548,"ĠNormal":8549,"Ġtranspeptidase":8550,"Ġrelia":8551,"Ġmax":8552,"Ġcolor":8553,"Ġrod":8554,"ivered":8555,"racene":8556,"Ġpathogenic":8557,"oxybenz":8558,"Ġcerebellar":8559,"Ġnodules":8560,"Ġreversal":8561,"Ġoligos":8562,"Ġpelvic":8563,"Ġlongitudinal":8564,"allikrein":8565,"itic":8566,"sub":8567,"lled":8568,"Ġspati":8569,"Ġspaces":8570,"Ġlec":8571,"oreceptor":8572,"Ġnegl":8573,"ĠHaem":8574,"lymphocyte":8575,"Ġvirions":8576,"ochondrial":8577,"Ġisoenzymes":8578,"Ġparticipation":8579,"Ġexerted":8580,"Ġpreserved":8581,"Ġrefractory":8582,"oreductase":8583,"RI":8584,"mers":8585,"ulant":8586,"otonic":8587,"Ġcompartment":8588,"uretic":8589,"Ġmonocytes":8590,"hydroxylase":8591,"Ġmarg":8592,"Ġscan":8593,"Ġconstituents":8594,"Ġtransfusion":8595,"Ġserologically":8596,"Ġstationary":8597,"icketts":8598,"Ġgiant":8599,"Ġproc":8600,"tivities":8601,"Ġatm":8602,"ĠRep":8603,"Ġrif":8604,"Ġhyperg":8605,"oblast":8606,"Ġnitroglycerin":8607,"Ġsynthesize":8608,"Ġreciprocal":8609,"Ġconjugated":8610,"Ġinfiltration":8611,"Ġbulk":8612,"Ġfrontal":8613,"Ph":8614,"cill":8615,"enes":8616,"Ġfoetal":8617,"ĠTP":8618,"dihydroxy":8619,"Ġcob":8620,"Ġcool":8621,"Ġreaching":8622,"Ġ98":8623,"Ġinteres":8624,"Ġligands":8625,"Ġseparately":8626,"Ġsupplemented":8627,"Ġkeratin":8628,"Ġabsorbance":8629,"Ġsynovial":8630,"Ġdrinking":8631,"itor":8632,"ithine":8633,"NADP":8634,"Ġamphetamine":8635,"Ġregulated":8636,"Ġdiaphrag":8637,"Ġfunctioning":8638,"Ġmitogen":8639,"Ġacetic":8640,"Ġemul":8641,"Ġsymptomatic":8642,"Ġloading":8643,"orous":8644,"Ġtargets":8645,"cytochrome":8646,"Ġcatalase":8647,"Ġcorrected":8648,"150":8649,"MV":8650,"Re":8651,"fo":8652,"Ġocular":8653,"entially":8654,"Ġplots":8655,"Ġconvul":8656,"tarate":8657,"Ġprojection":8658,"ffe":8659,"ĠNine":8660,"omegaly":8661,"Ġregimens":8662,"Ġaber":8663,"tigra":8664,"Ġprotect":8665,"Ġdistributions":8666,"Ġfibrinolytic":8667,"Ġetc":8668,"Ġpeptidoglycan":8669,"51":8670,"Gl":8671,"Ġumb":8672,"Ġbif":8673,"ostr":8674,"Ġnight":8675,"Ġ(\"":8676,"Ġcofactor":8677,"othane":8678,"ables":8679,"Ġdecay":8680,"Ġclar":8681,"Ġinsensitive":8682,"yric":8683,"idespread":8684,"Ġoffers":8685,"ĠMeasure":8686,"Ġexceeded":8687,"Ġspectroscopy":8688,"69":8689,"Ġgut":8690,"urium":8691,"acaca":8692,"ĠIr":8693,"ĠBinding":8694,"Ġdecom":8695,"Ġarch":8696,"Ġdiarr":8697,"ĠVIII":8698,"Ġulcers":8699,"erents":8700,"Ġweakly":8701,"Ġprompt":8702,"quinone":8703,"Ġrosette":8704,"Ġappreciable":8705,"Ġevidenced":8706,"41":8707,"side":8708,"vo":8709,"Ġhind":8710,"ĠCons":8711,"genesis":8712,"Ġnext":8713,"Ġ71":8714,"agic":8715,"Ġimmunofluorescent":8716,"Ġaugmented":8717,"auc":8718,"Ġrend":8719,"idym":8720,"ifferent":8721,"ĠFac":8722,"Ġarise":8723,"hydroxyl":8724,"Ġoutflow":8725,"Ġcytoch":8726,"Ġdiscussion":8727,"bino":8728,"Ġdelivered":8729,"Ġmorphologically":8730,"opeptidase":8731,"Six":8732,"Twenty":8733,"mm":8734,"water":8735,"Ġdom":8736,"imentation":8737,"riamycin":8738,"ĠFre":8739,"Ġfibrils":8740,"Ġendometr":8741,"Ġparathyroid":8742,"Ġconsist":8743,"Ġcirculatory":8744,"Ġchickens":8745,"ĠPhosph":8746,"enediamine":8747,"Ġbelonging":8748,"Ġchloramphenicol":8749,"Ġintracranial":8750,"Ġapproaches":8751,"Ġdischarges":8752,"],":8753,"eta":8754,"fed":8755,"rected":8756,"Ġpg":8757,"Ġpip":8758,"Ġborn":8759,"Ġbirds":8760,"usate":8761,"Ġgr":8762,"trac":8763,"ilical":8764,"ellum":8765,"Ġassemb":8766,"ĠPFC":8767,"ĠDO":8768,"unctional":8769,"Ġ92":8770,"ramide":8771,"Ġcycl":8772,"Ġquantif":8773,"thanolamine":8774,"Ġmalignancy":8775,"Ġdevice":8776,"Ġunstable":8777,"arynx":8778,"lactam":8779,"Ġeducation":8780,"Ġectopic":8781,"oglycerate":8782,"responsive":8783,"Ġattenuated":8784,"Ġimmunoprecipit":8785,"Ġmalnutrition":8786,"habil":8787,"cortisone":8788,"DM":8789,"Phe":8790,"ina":8791,"ont":8792,"Ġwidespread":8793,"ospor":8794,"ositol":8795,"ĠTris":8796,"Ġvi":8797,"Ġvital":8798,"Ġmonoclonal":8799,"omyces":8800,"poses":8801,"Ġpurine":8802,"ĠVarious":8803,"Ġevaluating":8804,"labo":8805,"Ġachieve":8806,"Ġtracheal":8807,"Ġpreceding":8808,"Ġerrors":8809,"amethasone":8810,"opyran":8811,"Ġinhalation":8812,"Ġvestibular":8813,"Ġextrasystoles":8814,"PO":8815,"dT":8816,"Ġentry":8817,"uccin":8818,"Ġpolyc":8819,"othiaz":8820,"Ġformaldehyde":8821,"Ġmethotrexate":8822,"Ġphenol":8823,"Ġjus":8824,"ĠExperiments":8825,"Ġpractically":8826,"Ġprostaglandins":8827,"Ġmeningitis":8828,"Ġhemolysis":8829,"Ġmanifested":8830,"BH":8831,"Gly":8832,"Ġcura":8833,"ĠAL":8834,"izable":8835,"Ġpoison":8836,"Ġindus":8837,"Ġstressed":8838,"Ġsurge":8839,"Ġlabile":8840,"Ġpotentiation":8841,"Ġfewer":8842,"Ġdisplacement":8843,"Ġviability":8844,"Ġprinciple":8845,"methionine":8846,"Ġadapted":8847,"Ġfollicular":8848,"Ġenlar":8849,"Ġspindles":8850,"Ġducts":8851,"Ġchannels":8852,"Ġtablets":8853,"LM":8854,"uts":8855,"hemag":8856,"Ġnas":8857,"Ġlu":8858,"Ġisomer":8859,"Ġactivating":8860,"Ġparietal":8861,"Ġround":8862,"Ġapprox":8863,"accharide":8864,"Ġportions":8865,"Ġdenatured":8866,"Ġreticular":8867,"Ġfibroblast":8868,"Ġexamples":8869,"Ġremarkable":8870,"49":8871,"Ala":8872,"iosis":8873,"heximide":8874,"respective":8875,"Ġobstructive":8876,"Ġantigenically":8877,"Ġcolchicine":8878,"Ġglial":8879,"Ġmanip":8880,"ensation":8881,"Ġprimate":8882,"mitters":8883,"oea":8884,"apped":8885,"Ġoscill":8886,"Ġstoichi":8887,"Ġligation":8888,"encing":8889,"ĠPGF":8890,"supp":8891,"Ġshortening":8892,"Ġfaecal":8893,"Ġresembled":8894,"Ġjunctions":8895,"Ġqualitatively":8896,"Ġschizophrenic":8897,"Ġarachid":8898,"Ġunlikely":8899,"Ġneuromuscular":8900,"DNP":8901,"ca":8902,"tRNA":8903,"Ġaf":8904,"cetyl":8905,"utum":8906,"Ġnoise":8907,"Ġwet":8908,"Ġelect":8909,"Ġphosphorus":8910,"Ġemission":8911,"Ġaccumulate":8912,"Ġcysts":8913,"Ġglutamic":8914,"Ġgradual":8915,"Ġdinucleotide":8916,"Ġcontraceptive":8917,"Ġchymotrypsin":8918,"Ġreabsorption":8919,"ayers":8920,"Ġpreferred":8921,"eli":8922,"keto":8923,"Ġnovel":8924,"Ġyolk":8925,"oflavin":8926,"Ġsurviv":8927,"Ġremove":8928,"Ġactomyosin":8929,"Ġbeneficial":8930,"Ġpreceded":8931,"ĠACTH":8932,"Ġascorbic":8933,"hol":8934,"Ġinadequ":8935,"altered":8936,"reasing":8937,"ĠrRNA":8938,"Ġassumption":8939,"Ġpartition":8940,"ĠGTP":8941,"rophenol":8942,"Ġaccord":8943,"Ġmetabolized":8944,"Ġstimulator":8945,"Ġoptima":8946,"Ġdissolution":8947,"Ġdiabetics":8948,"Ġpyridox":8949,"Ġcorresponded":8950,"Ġsupplement":8951,"Ġattempts":8952,"Ġglycosaminoglycans":8953,"Ġdichroism":8954,"aran":8955,"nes":8956,"Ġburs":8957,"acute":8958,"Ġislet":8959,"Ġcomm":8960,"Ġpreincubation":8961,"ĠMany":8962,"ĠBCG":8963,"ĠGu":8964,"Ġparad":8965,"Ġfreeze":8966,"Ġtermination":8967,"Ġphysiologic":8968,"Ġneutrophils":8969,"Ġpointed":8970,"DO":8971,"NB":8972,"Serum":8973,"Tc":8974,"rity":8975,"zes":8976,"Ġbring":8977,"trim":8978,"matically":8979,"Ġfolate":8980,"Ġ82":8981,"ensive":8982,"Ġ94":8983,"Ġprevents":8984,"Ġglycolysis":8985,"Ġautom":8986,"Ġionophore":8987,"lings":8988,"ĠProte":8989,"Ġreflects":8990,"ĠPretreatment":8991,"Ġdiscrete":8992,"maleimide":8993,"44":8994,"layer":8995,"ĠcDNA":8996,"icks":8997,"Ġgest":8998,"ĠAH":8999,"Ġantihypertensive":9000,"renergic":9001,"ĠLymph":9002,"oxone":9003,"ĠmmHg":9004,"Ġblind":9005,"Ġkey":9006,"Ġeasy":9007,"Ġanticoag":9008,"Sephadex":9009,"Ġnegligible":9010,"GTP":9011,"cus":9012,"yel":9013,"Ġiv":9014,"Ġlym":9015,"Ġfel":9016,"Ġrepro":9017,"osing":9018,"Ġbegan":9019,"Ġattained":9020,"ĠDP":9021,"ĠGluc":9022,"Ġvaries":9023,"andida":9024,"indolol":9025,"Ġslope":9026,"Ġvascul":9027,"Ġtryptic":9028,"Ġcreatine":9029,"Ġfavourable":9030,"Ġcryptorchid":9031,"Ġrequiring":9032,"dri":9033,"go":9034,"serine":9035,"tom":9036,"inv":9037,"Ġpractolol":9038,"Ġanions":9039,"Ġconges":9040,"otine":9041,"Ġheight":9042,"ĠMeth":9043,"eptide":9044,"ĠOr":9045,"avirus":9046,"Ġchildhood":9047,"tonic":9048,"Ġjuven":9049,"Ġepidemic":9050,"Ġautoradiography":9051,"Ġdeviation":9052,"Ġplexus":9053,"62":9054,"ME":9055,"Ġtheophylline":9056,"atell":9057,"tracted":9058,"ogluc":9059,"Ġadop":9060,"Ġleak":9061,"Ġconcurrent":9062,"Ġcoated":9063,"Ġequation":9064,"Ġmorphologic":9065,"Ġpsychological":9066,"Ġtwelve":9067,"Ġnaturally":9068,"Ġhemolytic":9069,"Ġclosure":9070,"BSA":9071,"nary":9072,"cha":9073,"Ġcancers":9074,"aterally":9075,"rimidine":9076,"Ġsimilarities":9077,"Ġfiring":9078,"Ġplateau":9079,"Ġprofound":9080,"Ġepididym":9081,"ĠReg":9082,"ĠCoA":9083,"ytoin":9084,"96":9085,"tte":9086,"arth":9087,"osen":9088,"phi":9089,"Ġ110":9090,"Ġantihis":9091,"ĠREM":9092,"Ġ105":9093,"Ġyellow":9094,"Ġcultivation":9095,"Ġhypertrophic":9096,"anthrene":9097,"anthracene":9098,"Ġapomorphine":9099,"Ġautoimmune":9100,"Ġadherence":9101,"HBs":9102,"ĠSubsequ":9103,"Ġrectal":9104,"Ġabundant":9105,"Ġspectrometry":9106,"73":9107,"MC":9108,"okinase":9109,"rum":9110,"wis":9111,"ister":9112,"ithe":9113,"Ġsuffered":9114,"ypro":9115,"Ġspecimen":9116,"Ġmicroc":9117,"Ġassessing":9118,"Ġapplications":9119,"Ġanalogous":9120,"ĠAcid":9121,"ĠCompared":9122,"Ġaccepted":9123,"tenedione":9124,"Ġneurotransmitter":9125,"Ġtemporary":9126,"Ġdomain":9127,"ND":9128,"Ġtro":9129,"Ġcit":9130,"ceeding":9131,"Ġactively":9132,"Ġsegreg":9133,"ĠInf":9134,"Ġhyperther":9135,"Ġboys":9136,"cyclo":9137,"Ġweekly":9138,"Ġpentobarbital":9139,"Ġneoplasms":9140,"Ġrelevance":9141,"orrhea":9142,"Ġsomatostatin":9143,"omyelitis":9144,"Ġspike":9145,"Ġstretch":9146,"Ġcircumstances":9147,"-)":9148,"fish":9149,"ril":9150,"Ġsn":9151,"Ġinbred":9152,"ulae":9153,"Ġens":9154,"rile":9155,"ĠLDH":9156,"ximum":9157,"Ġhydrolase":9158,"Ġdescending":9159,"phosphates":9160,"Ġranges":9161,"Ġgraf":9162,"Ġglycolytic":9163,"Ġprecision":9164,"Ġvector":9165,"Ġtomography":9166,"oglutarate":9167,"hosts":9168,"vanta":9169,"Ġerg":9170,"Ġsaturated":9171,"thio":9172,"Ġprophylactic":9173,"ffin":9174,"ĠRBC":9175,"oxyl":9176,"Ġdepolarization":9177,"Ġtechnic":9178,"Ġfreezing":9179,"Ġtriphosphate":9180,"ĠHeLa":9181,"Ġluminal":9182,"Ġdisruption":9183,"Ġcorticosteroids":9184,"Ġmenstrual":9185,"ĠAbout":9186,"oxybenzamine":9187,"63":9188,"iella":9189,"Ġapo":9190,"ĠTA":9191,"ĠAut":9192,"ieties":9193,"Ġfold":9194,"ĠKi":9195,"ĠUni":9196,"Ġscalp":9197,"syn":9198,"Ġreceive":9199,"ĠConc":9200,"imetic":9201,"Ġthermo":9202,"Ġverified":9203,"Ġextrem":9204,"Ġbrid":9205,"Ġbranches":9206,"Ġbaboon":9207,"Ġterat":9208,"Ġorange":9209,"Ġbases":9210,"Ġprophylaxis":9211,"Ġsea":9212,"Ġshare":9213,"renal":9214,"Ġreacts":9215,"Ġscore":9216,"ompe":9217,"Ġcapill":9218,"Ġselectivity":9219,"tactic":9220,"Ġdystrophy":9221,"Ġmammals":9222,"Ġmesenteric":9223,"Ġavoided":9224,"Ġvacuoles":9225,"UD":9226,"oy":9227,"odium":9228,"struc":9229,"Ġbarb":9230,"ĠTen":9231,"umen":9232,"Ġorn":9233,"Ġarising":9234,"ensitized":9235,"aggreg":9236,"Ġvesicle":9237,"yclo":9238,"Ġnitrite":9239,"grown":9240,"Ġattempted":9241,"Ġfistula":9242,"78":9243,"aut":9244,"ote":9245,"rp":9246,"ino":9247,"onvul":9248,"icle":9249,"Ġprogen":9250,"ĠAbs":9251,"Ġsufficiently":9252,"ĠRat":9253,"ĠRIA":9254,"insulin":9255,"Ġlymphomas":9256,"Ġ89":9257,"Ġconserv":9258,"Ġparas":9259,"Ġ1971":9260,"Ġrepetitive":9261,"Ġadjus":9262,"Ġsheath":9263,"Ġbreathing":9264,"Ġfasc":9265,"Ġultrasound":9266,"Ġillumin":9267,"Ġsummar":9268,"Ġepidemiological":9269,"psychotic":9270,"Ġphenylephrine":9271,"opressin":9272,"))":9273,"enol":9274,"Ġsizes":9275,"Ġcum":9276,"aryl":9277,"Ġeuth":9278,"dial":9279,"Ġresin":9280,"Ġsputum":9281,"Ġhered":9282,"Ġ600":9283,"oxic":9284,"Ġintravascular":9285,"Ġabscess":9286,"Ġmicrov":9287,"Ġtetan":9288,"Ġnegatively":9289,"Ġlorazepam":9290,"Ġcollection":9291,"Ġchallenged":9292,"Ġpapill":9293,"Ġphosphatidylcholine":9294,"tropin":9295,"Ġexponential":9296,"ĠWhereas":9297,"Ġpacemaker":9298,"Ġglomerulonephritis":9299,"Ġstroke":9300,"gents":9301,"glu":9302,"albumin":9303,"ĠDec":9304,"Ġmeasurable":9305,"ĠUltra":9306,"glucuronidase":9307,"Ġallowing":9308,"robial":9309,"Ġsecretin":9310,"Ġovary":9311,"Ġpolymorphonuclear":9312,"folate":9313,"Ġmicrotubules":9314,"Ġumbilical":9315,"+/":9316,"08":9317,"NE":9318,"vate":9319,"zone":9320,"Ġoval":9321,"Ġmeg":9322,"ionate":9323,"Ġalumin":9324,"ĠNon":9325,"Ġintercellular":9326,"ught":9327,"ĠKle":9328,"Ġthymic":9329,"Ġhelpful":9330,"Ġaspect":9331,"ompatible":9332,"shaped":9333,"Ġfollicles":9334,"Ġdiscrimination":9335,"enolone":9336,"ostatic":9337,"Ġmel":9338,"opyr":9339,"ĠCandida":9340,"ĠEle":9341,"andro":9342,"Ġrotation":9343,"Ġstaff":9344,"oplastic":9345,"Ġgranule":9346,"Ġconjunction":9347,"stimulating":9348,"Ġpossesses":9349,"Ġstarvation":9350,"Ġparasites":9351,"Ġaccurately":9352,"untington":9353,"Ġpostsynaptic":9354,"Ġdiarrhea":9355,"EDTA":9356,"cher":9357,"iologic":9358,"mble":9359,"isole":9360,"Ġrehabil":9361,"olub":9362,"Ġconcep":9363,"irrel":9364,"ĠPE":9365,"oxyp":9366,"reliminary":9367,"Ġ97":9368,"Ġinsec":9369,"ĠMgCl":9370,"Ġhalothane":9371,"Ġtritiated":9372,"Ġhaemodynamic":9373,"olipid":9374,"Ġferritin":9375,"plasmin":9376,"Ġnormo":9377,"Ġsystematic":9378,"Ġcenters":9379,"Ġhemisphe":9380,"Ġintoxication":9381,"naphthyl":9382,"pergillus":9383,"Ġconfiguration":9384,"conjugated":9385,"Ġfairly":9386,"psin":9387,"Ġros":9388,"Ġsul":9389,"Ġpi":9390,"aric":9391,"ocitrate":9392,"ĠMyc":9393,"othre":9394,"ĠEven":9395,"illed":9396,"Ġnuclease":9397,"ortun":9398,"Ġcarcinogenic":9399,"Ġfluorescein":9400,"Ġstronger":9401,"Ġconditioning":9402,"Ġhypoxic":9403,"ĠCTL":9404,"Ġlaparoscopic":9405,"ĠDMBA":9406,"hemagglutinin":9407,"')":9408,"nec":9409,"sized":9410,"imurium":9411,"Ġrational":9412,"Ġprep":9413,"Ġsignals":9414,"ĠReduc":9415,"NAc":9416,"Ġ88":9417,"Ġsoy":9418,"Ġpolysaccharides":9419,"Ġhistology":9420,"Ġsurgically":9421,"Ġfilament":9422,"Ġestimates":9423,"ploid":9424,"Ġperfusate":9425,"Ġdenervation":9426,"imetric":9427,"Ġcontractility":9428,"Ġresembling":9429,"Ġregularly":9430,"Ġbenzyl":9431,"Ġcategories":9432,"Ġnursing":9433,"Ġspatial":9434,"ĠUniversity":9435,"dR":9436,"Ġswe":9437,"ĠpI":9438,"Ġdro":9439,"Ġdate":9440,"ulti":9441,"idated":9442,"Ġcompression":9443,"ĠPS":9444,"ĠDL":9445,"ĠHP":9446,"Ġunaltered":9447,"lymphocytes":9448,"posure":9449,"Ġantibacterial":9450,"olem":9451,"Ġirrespective":9452,"Ġbacterio":9453,"Ġcerebellum":9454,"stage":9455,"Ġserotypes":9456,"Ġleucocyte":9457,"Ġpharmacok":9458,"Ġdegenerative":9459,"about":9460,"Ġcycloheximide":9461,"Ġdigestive":9462,"Ġpleural":9463,"Ġillustrated":9464,"Ġpacing":9465,"Ġenlarged":9466,"BM":9467,"OT":9468,"cian":9469,"Ġann":9470,"rog":9471,"ĠTBG":9472,"ineal":9473,"Ġvic":9474,"ometer":9475,"Ġimmunogenic":9476,"Ġantigenicity":9477,"mole":9478,"antibodies":9479,"oides":9480,"obenz":9481,"Ġneuron":9482,"Ġafferents":9483,"prec":9484,"hythmia":9485,"Ġschizophrenia":9486,"roxys":9487,"prenolol":9488,"isions":9489,"osoma":9490,"uccess":9491,"Ġexh":9492,"pag":9493,"Ġdetergents":9494,"Ġarrangement":9495,"Ġstatic":9496,"DPG":9497,"Ġsymme":9498,"Ġsexes":9499,"Ġmanifestation":9500,"Ġoestradiol":9501,"Ġschool":9502,"odeoxy":9503,"ĠEnzyme":9504,"Ġalleles":9505,"Ġdivertic":9506,"Ġtyphimurium":9507,"paragine":9508,"Ġhandicapped":9509,"ĠDifferences":9510,"76":9511,"Ġsonic":9512,"Ġvill":9513,"Ġantitumor":9514,"Ġgenital":9515,"synthe":9516,"Ġbacterium":9517,"Ġcarbam":9518,"Ġsubclass":9519,"chromatic":9520,"Ġdrainage":9521,"Ġequipment":9522,"Immun":9523,"Ġgestational":9524,"mas":9525,"Ġxyl":9526,"osarcoma":9527,"Ġchosen":9528,"ĠSur":9529,"ills":9530,"Ġ79":9531,"Ġopi":9532,"Ġhydrocortisone":9533,"Ġsupposed":9534,"Ġcharacterize":9535,"Ġresponsive":9536,"Ġbacilli":9537,"kinesia":9538,"Ġuridine":9539,"Ġ[(":9540,"Ġpostoperatively":9541,"Ġprobability":9542,"ĠProtein":9543,"Ġdexamethasone":9544,"Ġdisseminated":9545,"iem":9546,"inic":9547,"onine":9548,"rat":9549,"Ġretain":9550,"ĠHuntington":9551,"Ġcand":9552,"Ġplanning":9553,"Ġdepth":9554,"titude":9555,"mitochondrial":9556,"cholanthrene":9557,"Ġfilms":9558,"Ġcriter":9559,"Ġneedle":9560,"Ġantagonism":9561,"Ġconstitute":9562,"Ġsilic":9563,"bladder":9564,"Ġtrigger":9565,"Ġsetting":9566,"Ġpreservation":9567,"Ġcapillaries":9568,"06":9569,"MI":9570,"oactive":9571,"enching":9572,"rotomy":9573,"Ġhosts":9574,"ilst":9575,"irteen":9576,"Ġperin":9577,"ĠHydro":9578,"Ġrecess":9579,"anded":9580,"Ġmucous":9581,"Ġ1970":9582,"spring":9583,"perimental":9584,"Ġplasmids":9585,"Ġprosthesis":9586,"Ġgermination":9587,"Ġrupture":9588,"ffeine":9589,"Ne":9590,"ians":9591,"mM":9592,"reed":9593,"alone":9594,"Ġthio":9595,"lla":9596,"seven":9597,"ĠDHA":9598,"Ġarc":9599,"Ġ84":9600,"Ġmucus":9601,"coated":9602,"Ġgelatin":9603,"choles":9604,"Ġoxidoreductase":9605,"glucosamine":9606,"Ġnarcotic":9607,"Ġcatabolism":9608,"Ġadditive":9609,"eight":9610,"alas":9611,"Ġank":9612,"ocap":9613,"romal":9614,"ĠMar":9615,"ĠHuman":9616,"ĠBio":9617,"Ġfunctionally":9618,"phosphoglycerate":9619,"enzoate":9620,"nitol":9621,"187":9622,"urgery":9623,"Ġrestoration":9624,"Ġaux":9625,"Ġquickly":9626,"Ġscintigra":9627,"icardial":9628,"Ġcorpus":9629,"Ġinadequate":9630,"Le":9631,"light":9632,"ply":9633,"Ġcrom":9634,"ratories":9635,"iding":9636,"Ġdeform":9637,"atite":9638,"Ġindicative":9639,"Ġintrauterine":9640,"Ġendonuclease":9641,"Ġ131":9642,"otoxicity":9643,"Ġdigital":9644,"Ġaggregated":9645,"groups":9646,"ocyanin":9647,"Ġintraperitone":9648,"Ġinsertion":9649,"Ġcows":9650,"Ġanastomosis":9651,"ithiothre":9652,"physeal":9653,"Ġsurvivors":9654,"osystem":9655,"ĠnM":9656,"imb":9657,"otrophic":9658,"deg":9659,"moid":9660,"Ġfeas":9661,"Ġfibrous":9662,"Ġpathophys":9663,"raging":9664,"Ġquantit":9665,"control":9666,"Ġ160":9667,"ĠControl":9668,"Ġsecretions":9669,"Ġperoxide":9670,"Ġtitre":9671,"Ġmonophosphate":9672,"Ġsupporting":9673,"mercaptoethanol":9674,"Ġrosettes":9675,"Ġdiscrep":9676,"substituted":9677,"Ġmyelob":9678,"Ġaspiration":9679,"ithiothreitol":9680,"cens":9681,"rus":9682,"sa":9683,"sw":9684,"vity":9685,"wave":9686,"erb":9687,"Ġgyn":9688,"uthen":9689,"ĠAD":9690,"yline":9691,"Ġenerg":9692,"tene":9693,"ĠpHi":9694,"Ġopera":9695,"ramidal":9696,"arkinson":9697,"Ġascending":9698,"Ġoestrogen":9699,"Ġextensively":9700,"Ġfracture":9701,"Ġmutagenic":9702,"Ġelectrocardiographic":9703,"Ġfilling":9704,"Ġhypothermia":9705,"Ġerythematosus":9706,"74":9707,"stained":9708,"ĠcGMP":9709,"Ġms":9710,"Ġfinally":9711,"Ġna":9712,"tering":9713,"diastolic":9714,"Ġsee":9715,"Ġimidazole":9716,"ĠDacron":9717,"Ġsoon":9718,"Ġpolys":9719,"Ġsciatic":9720,"Ġdamaged":9721,"ĠIncreased":9722,"Ġcapsular":9723,"Ġultrastructure":9724,"Ġatmosp":9725,"pan":9726,"Ġantiv":9727,"roton":9728,"ĠAKR":9729,"ĠChem":9730,"ĠPur":9731,"ĠHal":9732,"Ġundes":9733,"Ġthereafter":9734,"Ġautomatic":9735,"Ġautonomic":9736,"oproteins":9737,"Ġcentre":9738,"Ġstabilized":9739,"Ġapical":9740,"osyltransferase":9741,"Ġanticonvul":9742,"Ġangle":9743,"Ġjoints":9744,"Ġpolymerization":9745,"Ġdistress":9746,"Ġtriglyceride":9747,"odopsin":9748,"300":9749,"mide":9750,"Ġefficiently":9751,"epithelial":9752,"lication":9753,"ensities":9754,"Ġinsignificant":9755,"Ġmalformations":9756,"Ġprimates":9757,"Ġadenoma":9758,"ĠAspergillus":9759,"Ġflat":9760,"tillation":9761,"Ġphosphorylated":9762,"Ġswine":9763,"angu":9764,"tetrahydro":9765,"Ġsupernatants":9766,"Ġforeign":9767,"arterial":9768,"Ġcovalent":9769,"Ġdeterioration":9770,"Ġeuthyroid":9771,"CI":9772,"hom":9773,"Ġbull":9774,"arrh":9775,"ĠCalc":9776,"ĠRel":9777,"ĠThirty":9778,"ĠLys":9779,"tinomycin":9780,"ronic":9781,"cella":9782,"yryl":9783,"Ġtetro":9784,"Ġpolymers":9785,"Ġanaphylaxis":9786,"Ġaccompanying":9787,"arteritis":9788,"Ġsafety":9789,"Ġmarginal":9790,"Ġintraperitoneally":9791,"79":9792,"ete":9793,"vice":9794,"Ġthirty":9795,"philic":9796,"directed":9797,"ocrit":9798,"Ġdisabled":9799,"Ġantimic":9800,"Ġperturb":9801,"essation":9802,"ĠMC":9803,"Ġhazard":9804,"Ġallergen":9805,"Ġsubmitted":9806,"ogenes":9807,"Ġconstructed":9808,"Ġlocomotor":9809,"Ġacetone":9810,"Ġ140":9811,"Ġultim":9812,"Ġdehydrogen":9813,"Ġreductions":9814,"Ġacceptable":9815,"Ġsubpopulations":9816,"oconstriction":9817,"Ġjuvenile":9818,"NT":9819,"dich":9820,"Ġinver":9821,"Ġdan":9822,"Ġdensities":9823,"ĠTryp":9824,"acc":9825,"ocript":9826,"ods":9827,"utral":9828,"Ġsets":9829,"Ġsearch":9830,"Ġuses":9831,"Ġcover":9832,"Ġproteinuria":9833,"Ġallergy":9834,"Ġmedullary":9835,"Ġsurviving":9836,"Ġanaesthetized":9837,"Ġserotype":9838,"Ġfermentation":9839,"iii":9840,"Ġentity":9841,"Ġairway":9842,"Ġprinciples":9843,"reaction":9844,"Ġpseudo":9845,"Ġdifficulty":9846,"ocyanate":9847,"Ġpyrophosphate":9848,"Ġchorionic":9849,"uthenium":9850,"ocriptine":9851,"oacetate":9852,"entes":9853,"Ġpes":9854,"isopropyl":9855,"ĠClin":9856,"ducing":9857,"ĠProp":9858,"ĠEG":9859,"Ġwheat":9860,"Ġphenytoin":9861,"ragment":9862,"rowth":9863,"arboxyl":9864,"Ġnutrient":9865,"Ġsediment":9866,"unctiv":9867,"Ġmicrobial":9868,"chlorophenylalanine":9869,"Lys":9870,"oration":9871,"sible":9872,"then":9873,"acrine":9874,"amples":9875,"luding":9876,"trolled":9877,"ĠPost":9878,"ĠEnd":9879,"Ġunf":9880,"ĠRa":9881,"ĠGl":9882,"Ġsuggestion":9883,"Ġabort":9884,"Ġneuros":9885,"ethylmaleimide":9886,"Ġdissolved":9887,"Ġhaemorrh":9888,"Ġdigoxin":9889,"Ġnecessity":9890,"Ġrisks":9891,"Ġtrachea":9892,"benzyl":9893,"Ġbreaks":9894,"Ġcrystals":9895,"Ġcrystalline":9896,"Ġvulg":9897,"Ġlutein":9898,"Studies":9899,"vular":9900,"venty":9901,"inomycin":9902,"alth":9903,"urons":9904,"ĠPo":9905,"Ġmonovalent":9906,"Ġsuggestive":9907,"apse":9908,"orphine":9909,"Ġtradition":9910,"Ġpropose":9911,"Ġlargest":9912,"Ġpossessing":9913,"ĠQRS":9914,"butyl":9915,"Ġadherent":9916,"Ġavoidance":9917,"Ġconnections":9918,"Ġaldosterone":9919,"dependence":9920,"Ġinteresting":9921,"Ġaflat":9922,"One":9923,"iop":9924,"tary":9925,"Ġaeros":9926,"Ġcosts":9927,"Ġinp":9928,"leb":9929,"Ġelabo":9930,"Ġvent":9931,"Ġseb":9932,"Ġcolonic":9933,"relations":9934,"Ġhypercap":9935,"Ġadenocarcinoma":9936,"Ġlinearly":9937,"Ġsolv":9938,"Ġgonococcal":9939,"Ġsquirrel":9940,"filtration":9941,"Ġcaudal":9942,"mortem":9943,"Ġdeficit":9944,"gastric":9945,"Ġemergency":9946,"Ġarachidonic":9947,"53":9948,"Ġip":9949,"ona":9950,"Ġpatch":9951,"aling":9952,"estions":9953,"anes":9954,"terin":9955,"operation":9956,"Ġantipsychotic":9957,"ĠSLE":9958,"ĠHCG":9959,"Ġgenerate":9960,"Ġaccid":9961,"ramycin":9962,"Ġmalate":9963,"Ġpaired":9964,"Ġenhances":9965,"Ġresemble":9966,"Ġtracer":9967,"Ġencephalitis":9968,"Ġflavin":9969,"Ġmacromolecules":9970,"HP":9971,"On":9972,"ulase":9973,"Ġexpec":9974,"ĠPB":9975,"ĠPreliminary":9976,"ĠMO":9977,"ĠDBA":9978,"ostasis":9979,"ĠGen":9980,"Ġplants":9981,"Ġvirion":9982,"ĠmicroM":9983,"Ġparoxys":9984,"Ġpressor":9985,"ophores":9986,"Ġteaching":9987,"Ġeffort":9988,"Ġaltering":9989,"Ġantichol":9990,"blockers":9991,"ĠPCB":9992,"Ġhoriz":9993,"Ġsampling":9994,"Ġdeprivation":9995,"ibrillar":9996,"EF":9997,"rific":9998,"Ġpin":9999,"aled":10000,"Ġbeg":10001,"Ġpropag":10002,"Ġacryl":10003,"ĠAA":10004,"Ġmap":10005,"Ġquestions":10006,"artments":10007,"lagen":10008,"Ġvasopressin":10009,"Ġtransplants":10010,"stimulation":10011,"Ġsmoking":10012,"Ġhemodi":10013,"Ġcarbohydrates":10014,"Ġinstance":10015,"Ġfacilitate":10016,"Ġhydroxide":10017,"Ġimmunoreactive":10018,"ĠFreund":10019,"RF":10020,"dine":10021,"face":10022,"mer":10023,"nucle":10024,"Ġcu":10025,"Ġpup":10026,"oming":10027,"ĠAS":10028,"Ġamph":10029,"Ġrecover":10030,"ĠGra":10031,"phyrin":10032,"Ġlytic":10033,"etween":10034,"Ġcarcinogen":10035,"Ġveh":10036,"ocytoma":10037,"Ġprolongation":10038,"Ġpersistence":10039,"Ġalkalosis":10040,"limiting":10041,"thromycin":10042,"Ġanalgesia":10043,"partum":10044,"Ġfifth":10045,"onucleotides":10046,"Ġrehabilitation":10047,"GH":10048,"Glu":10049,"Ġsatell":10050,"orns":10051,"arginine":10052,"Ġemo":10053,"thidine":10054,"adone":10055,"Ġlectin":10056,"velen":10057,"ĠBesides":10058,"Ġproteoglycan":10059,"Ġelectrophysiological":10060,"inese":10061,"Ġchemicals":10062,"Ġoffspring":10063,"Ġpreference":10064,"Ġnitros":10065,"Ġcationic":10066,"Ġcatheterization":10067,"Ġsoleus":10068,"Ġintegrity":10069,"ĠTetra":10070,"Ġempty":10071,"Ġcobalt":10072,"uccessful":10073,"stable":10074,"Ġpen":10075,"ering":10076,"ifty":10077,"ticed":10078,"Ġexchan":10079,"bsiella":10080,"lases":10081,"ĠNever":10082,"Ġpurposes":10083,"tribution":10084,"itudes":10085,"oplasm":10086,"Intra":10087,"Ġcleaved":10088,"etus":10089,"transpl":10090,"Ġredox":10091,"Ġpredis":10092,"Ġmediators":10093,"Ġcollagenase":10094,"Ġlabour":10095,"ĠUnited":10096,"calc":10097,"Ġthyrotropin":10098,"Ġalternate":10099,"Ġiodide":10100,"Ġreproductive":10101,"Ġphagocytic":10102,"arrhythmic":10103,"irradiated":10104,"Ġphytohemagglutinin":10105,"Ġcooling":10106,"alasin":10107,"400":10108,"Rec":10109,"membrane":10110,"Ġsap":10111,"Ġcall":10112,"Ġcessation":10113,"Ġpenicill":10114,"Ġfus":10115,"entgen":10116,"osulf":10117,"phil":10118,"ĠCI":10119,"Ġamen":10120,"Ġstroma":10121,"Ġarrest":10122,"phospho":10123,"Ġcorrelates":10124,"Ġcourses":10125,"tilled":10126,"Ġelicit":10127,"Ġguanidine":10128,"Ġdeoxycholate":10129,"Ġemphasis":10130,"Ġpapillary":10131,"Ġcommunication":10132,"Ġsugars":10133,"Ġsubcutaneously":10134,"Ġpreferential":10135,"Ġbuffered":10136,"Ġvertebral":10137,"alkyl":10138,"Ġmannose":10139,"Ġstandardized":10140,"precipit":10141,"Ġantimicrobial":10142,"uz":10143,"inar":10144,"icles":10145,"orts":10146,"Ġejection":10147,"Ġseed":10148,"ĠPurified":10149,"deple":10150,"temp":10151,"Ġ93":10152,"Ġaminoglyc":10153,"Ġcalcification":10154,"Ġphenoxybenzamine":10155,"Ġtubule":10156,"Ġconditioned":10157,"Ġrepresentative":10158,"embry":10159,"Ġundergone":10160,"Ġsepsis":10161,"Ġandrogens":10162,"Ġaccessory":10163,"Ġatherosclerosis":10164,"ĠAmerican":10165,"Ġabortus":10166,"ĠNevertheless":10167,"\")":10168,"ev":10169,"rays":10170,"ulgen":10171,"Ġghosts":10172,"Ġalbino":10173,"ourished":10174,"ĠGT":10175,"hydrogenase":10176,"Ġquenching":10177,"Ġendocardi":10178,"Ġexhibiting":10179,"Ġrises":10180,"Ġdilu":10181,"esthetics":10182,"omatosis":10183,"Ġpalmit":10184,"affinity":10185,"ĠMAO":10186,"Ġcontraceptives":10187,"Ġawa":10188,"Ġaggressive":10189,"Ġrendered":10190,"59":10191,"Cell":10192,"HR":10193,"Ġton":10194,"retory":10195,"Ġod":10196,"atology":10197,"Ġisomers":10198,"Ġastro":10199,"yltransferase":10200,"Ġcovered":10201,"Ġpurity":10202,"Ġinstitu":10203,"Ġhomology":10204,"Ġlabor":10205,"Ġgonococci":10206,"ĠAntibodies":10207,"Ġnicotine":10208,"growth":10209,"Ġhydroxyp":10210,"osteric":10211,"Ġmyofib":10212,"Ġlymphatic":10213,"Eq":10214,"was":10215,"yne":10216,"Ġbones":10217,"Ġ(+/-":10218,"igen":10219,"ĠIF":10220,"Ġwhilst":10221,"Ġinclusion":10222,"advanta":10223,"ĠPT":10224,"ĠPlas":10225,"Ġtransmitted":10226,"Ġkallikrein":10227,"eptidase":10228,"Ġ81":10229,"Ġhisti":10230,"Ġliposomes":10231,"Ġmitogens":10232,"Ġslides":10233,"Ġoss":10234,"Ġheld":10235,"Ġlaboratories":10236,"Ġrecognize":10237,"Ġbelieve":10238,"risk":10239,"ĠLewis":10240,"Ġproject":10241,"step":10242,"Ġheterozyg":10243,"cons":10244,"vision":10245,"rogenic":10246,"Ġbeef":10247,"optic":10248,"Ġcomparisons":10249,"ĠPV":10250,"ĠPara":10251,"ĠBleomycin":10252,"Ġmoving":10253,"Ġdiscl":10254,"Ġbasophils":10255,"Ġparaffin":10256,"Ġmaintaining":10257,"respond":10258,"cholinesterase":10259,"Ġmasses":10260,"Ġparalleled":10261,"Ġcathepsin":10262,"Ġhyaluronic":10263,"Ġtriglycerides":10264,"Ġjejunum":10265,"Ġdimensions":10266,"Ġsporulation":10267,"Ġcomprised":10268,"Ġultracentrifugation":10269,"98":10270,"bits":10271,"tations":10272,"incter":10273,"itrophenol":10274,"arith":10275,"olase":10276,"odal":10277,"adin":10278,"Ġcaffeine":10279,"tinal":10280,"metabol":10281,"Ġmedicine":10282,"Ġscatter":10283,"Ġstructurally":10284,"Ġuric":10285,"otherapeutic":10286,"Ġautosomal":10287,"Ġperiphery":10288,"Ġembedded":10289,"Ġmethylene":10290,"Ġprofession":10291,"Ġbehavioural":10292,"Ġreconstruction":10293,"pyrene":10294,"othelial":10295,"competitive":10296,"ĠSodium":10297,"Ġbenzodiazepines":10298,"enolpyruvate":10299,"Ġcriterion":10300,"mix":10301,"rone":10302,"urop":10303,"Ġsti":10304,"itance":10305,"ositive":10306,"ĠCL":10307,"Ġspine":10308,"Ġpresumed":10309,"ĠEP":10310,"Ġformalin":10311,"Ġobtaining":10312,"Ġoperating":10313,"Ġ91":10314,"Ġends":10315,"Ġpolyethylene":10316,"Ġtrin":10317,"oidal":10318,"alyzed":10319,"Ġrandomized":10320,"ographical":10321,"chromatin":10322,"Ġadhesion":10323,"Ġvaccines":10324,"Ġnewborns":10325,"Ġplaques":10326,"adrenoceptors":10327,"Ġfacilitated":10328,"nucleotidase":10329,"ĠDHEA":10330,"break":10331,"Ġnaloxone":10332,"Ġconservative":10333,"Ġhereditary":10334,"82":10335,"ED":10336,"cutaneous":10337,"rig":10338,"ĠhCG":10339,"Ġchore":10340,"Ġalg":10341,"Ġcomputed":10342,"Ġinclusions":10343,"Ġspore":10344,"izer":10345,"ĠInter":10346,"ĠBa":10347,"perm":10348,"abbit":10349,"Ġtransverse":10350,"Ġcollic":10351,"Ġcolitis":10352,"teroid":10353,"Ġmicrof":10354,"Ġquantitation":10355,"Ġfertility":10356,"ĠUnlike":10357,"Ġtendon":10358,"Ġarrhythmia":10359,"Ġchloroform":10360,"Ġcarefully":10361,"Ġexcitatory":10362,"Ġexudate":10363,"thropo":10364,"Ġrifamp":10365,"Ġornithine":10366,"ĠMycobacterium":10367,"Leu":10368,"ky":10369,"welve":10370,"Ġcig":10371,"Ġdithiothreitol":10372,"atases":10373,"ĠCro":10374,"Ġdisadvanta":10375,"Ġenabled":10376,"mental":10377,"Ġimage":10378,"Ġvalinomycin":10379,"Ġmodern":10380,"Ġoutlined":10381,"ochle":10382,"Ġerythromycin":10383,"Ġ130":10384,"Ġtriiodothyronine":10385,"wards":10386,"1975":10387,"Ġapplicable":10388,"lycero":10389,"Ġshortened":10390,"Ġparticipate":10391,"Ġhippocampus":10392,"Ġprednisone":10393,"Ġandrostenedione":10394,"Ġcumulative":10395,"07":10396,"LT":10397,"ophy":10398,"sen":10399,"imil":10400,"ereb":10401,"ocon":10402,"amel":10403,"Ġcoma":10404,"Ġsemin":10405,"ĠSO":10406,"lected":10407,"ĠMin":10408,"ĠMod":10409,"Ġunlabeled":10410,"There":10411,"Ġopin":10412,"monophosphate":10413,"Ġdevelops":10414,"ĠUp":10415,"Ġscans":10416,"Ġworld":10417,"Ġspleens":10418,"Ġanaerob":10419,"ophilia":10420,"graph":10421,"Ġdisturbed":10422,"Ġdiminution":10423,"glycine":10424,"glutamate":10425,"Ġvagotomy":10426,"Ġnetwork":10427,"23187":10428,"Ġresembles":10429,"Ġidiotype":10430,"Ġethylene":10431,"Ġrecombinant":10432,"Ġliberation":10433,"Ġmonomeric":10434,"Ġhypothyroidism":10435,"hym":10436,"inol":10437,"Ġtib":10438,"astic":10439,"omimetic":10440,"ammon":10441,"ranged":10442,"ĠHill":10443,"hene":10444,"ĠKinetic":10445,"Ġhyperplastic":10446,"ĠUpon":10447,"Ġaxoplasmic":10448,"Ġhepatocellular":10449,"Ġisozymes":10450,"Ġneonates":10451,"operativity":10452,"Ġdramatic":10453,"piratory":10454,"Ġillumination":10455,"ĠKlebsiella":10456,"je":10457,"Ġpineal":10458,"Ġgover":10459,"une":10460,"Ġcholec":10461,"Ġchief":10462,"Ġsphe":10463,"NAD":10464,"Ġmapping":10465,"Ġstrips":10466,"Ġphenothiaz":10467,"approximately":10468,"Ġlacked":10469,"rologic":10470,"Ġboy":10471,"Ġinfluenzae":10472,"Ġesophagus":10473,"Ġhence":10474,"92":10475,"Is":10476,"ether":10477,"onad":10478,"Ġotitis":10479,"Ġoedema":10480,"Ġsen":10481,"Ġintral":10482,"iso":10483,"Ġmerc":10484,"imolar":10485,"amental":10486,"ffects":10487,"essions":10488,"ĠLA":10489,"gnetic":10490,"Ġroentgen":10491,"oblastic":10492,"ĠVal":10493,"oleic":10494,"Ġtrypan":10495,"Ġanaemia":10496,"Ġphotosynthe":10497,"Ġretrospective":10498,"Ġnoradrenergic":10499,"Ġalloantigens":10500,"Ġaneurysm":10501,"Ġischaemic":10502,"Ġhydrocarbon":10503,"ĠJapanese":10504,"Ġfavorable":10505,"existing":10506,"Ġhyperthermia":10507,"Ġnormotensive":10508,"Ġrecessive":10509,"Ġantiviral":10510,"De":10511,"MB":10512,"aund":10513,"blood":10514,"dt":10515,"etal":10516,"tant":10517,"Ã¼":10518,"Ġintub":10519,"Ġdomin":10520,"Ġacqu":10521,"Ġonto":10522,"mino":10523,"ĠHence":10524,"iper":10525,"ĠED":10526,"ĠThose":10527,"Ġclone":10528,"Ġmodulation":10529,"Ġpriming":10530,"ovis":10531,"Ġproteolysis":10532,"oglobins":10533,"Ġflies":10534,"Ġnecessarily":10535,"Ġtolerant":10536,"integ":10537,"Ġpuber":10538,"Ġdiploid":10539,"Ġwavelen":10540,"ometrically":10541,"Ġgallbladder":10542,"Ġoccupational":10543,"dalton":10544,"Ġflora":10545,"Ġclotting":10546,"Ġprotocol":10547,"entesis":10548,"ĠEGTA":10549,"EB":10550,"EV":10551,"Res":10552,"aver":10553,"irable":10554,"jac":10555,"Ġbag":10556,"arum":10557,"Ġtolu":10558,"Ġconta":10559,"accin":10560,"diimide":10561,"Ġperiv":10562,"Ġprenatal":10563,"ĠHSV":10564,"Ġobese":10565,"Ġroots":10566,"Ġbiologically":10567,"tilation":10568,"Ġproteoglycans":10569,"Ġguide":10570,"ancer":10571,"Ġexpress":10572,"brid":10573,"ĠResp":10574,"Ġconvenient":10575,"ĠPhot":10576,"Ġpools":10577,"Ġsuperoxide":10578,"Ġazide":10579,"Ġfungi":10580,"Ġendothelium":10581,"Ġsynapses":10582,"Ġthermos":10583,"Ġneurotransmitters":10584,"Ġcoding":10585,"Ġelastin":10586,"Ġdeoxyribonucleic":10587,"Ġmonolayer":10588,"Ġsphincter":10589,"Ġhaplotype":10590,"Ġsolvents":10591,")]":10592,"Pi":10593,"ares":10594,"Ġtonic":10595,"ulator":10596,"Ġenco":10597,"Ġenables":10598,"ĠPPD":10599,"ĠEMG":10600,"tinction":10601,"Ġmyocl":10602,"uresis":10603,"Ġdefinition":10604,"oglycate":10605,"Ġmonitor":10606,"tryptophan":10607,"Ġsacrific":10608,"filaments":10609,"MTV":10610,"Ġthalamic":10611,"Ġallograft":10612,"Ġsalicylate":10613,"Ġaetiology":10614,"Ġvulgaris":10615,"Pa":10616,"pent":10617,"Ġworm":10618,"rame":10619,"Ġforward":10620,"Ġadoles":10621,"determin":10622,"erable":10623,"Ġunless":10624,"Ġrule":10625,"Ġkne":10626,"Ġmouth":10627,"Ġinfectivity":10628,"Ġadenomas":10629,"Ġconfirms":10630,"Ġcounting":10631,"Ġconsiderations":10632,"Ġriboflavin":10633,"Ġreplace":10634,"Ġcomparatively":10635,"Ġdistinctly":10636,"Ġketone":10637,"Ġfalls":10638,"Ġgranulocyte":10639,"ĠIncubation":10640,"methoxy":10641,"Ġlimitations":10642,"ĠLike":10643,"Ġstaphylococcal":10644,"Ġoxalate":10645,"Ġcrossed":10646,"Ġwidth":10647,"Ġunexpected":10648,"Ġanticonvuls":10649,"Ġcigare":10650,"drug":10651,"rystal":10652,"sur":10653,"tit":10654,"rae":10655,"itogenic":10656,"Ġisocitrate":10657,"ĠStra":10658,"Ġimpregn":10659,"oretically":10660,"ĠEarly":10661,"Ġricketts":10662,"ĠWor":10663,"Ġbiologic":10664,"Ġhyperb":10665,"coplasma":10666,"Ġoverl":10667,"Ġpulp":10668,"Ġfailures":10669,"Ġimplicated":10670,"trophoretic":10671,"Ġpyridine":10672,"Ġhrs":10673,"gangl":10674,"Ġexpan":10675,"iformis":10676,"Ġgoat":10677,"Ġsympath":10678,"parative":10679,"Ġchemotactic":10680,"Ġradiolabeled":10681,"Ġassembly":10682,"Ġpestic":10683,"uan":10684,"zer":10685,"Ġmot":10686,"Ġalive":10687,"ĠPhen":10688,"Ġinfra":10689,"Ġallosteric":10690,"apatite":10691,"tigmine":10692,"Ġinvestigators":10693,"Ġepi":10694,"Ġcombining":10695,"Ġfilters":10696,"Ġoriginally":10697,"Ġcholinesterase":10698,"Ġequilib":10699,"Ġsubstitute":10700,"Ġsolely":10701,"cerebral":10702,"Ġharves":10703,"84":10704,"IO":10705,"Ia":10706,"born":10707,"uary":10708,"Ġmell":10709,"Ġrear":10710,"tazol":10711,"amate":10712,"iesis":10713,"onsequ":10714,"Ġroles":10715,"Ġtrun":10716,"coag":10717,"Ġventricles":10718,"Ġhypotheses":10719,"adian":10720,"Ġpancreatitis":10721,"Ġoligomycin":10722,"ĠPCPA":10723,"carbox":10724,"Ġthalamus":10725,"Ġelastase":10726,"Ġmosquitoes":10727,"Ġdiaphragm":10728,"depleted":10729,"Elec":10730,"rection":10731,"Ġinability":10732,"Ġdual":10733,"Ġmim":10734,"Ġexcep":10735,"ĠSS":10736,"ĠBiol":10737,"ĠBru":10738,"ĠRem":10739,"Ġdepolar":10740,"prote":10741,"Ġanaphylactic":10742,"Ġkeep":10743,"Ġsituated":10744,"Ġexperiences":10745,"Ġcarbonyl":10746,"ĠPhys":10747,"Ġsarcolem":10748,"Ġemphasize":10749,"Ġestablishing":10750,"butamol":10751,"romyces":10752,"Ġregistered":10753,"agastrin":10754,"Five":10755,"Several":10756,"TRH":10757,"aim":10758,"Ġcranial":10759,"alton":10760,"Ġanionic":10761,"Ġmong":10762,"osum":10763,"uminal":10764,"thy":10765,"Ġvin":10766,"tract":10767,"operated":10768,"Ġantithrombin":10769,"vels":10770,"weed":10771,"Ġrural":10772,"Ġgenic":10773,"Ġgenus":10774,"Ġdiarrh":10775,"Ġseconds":10776,"Ġguanosine":10777,"Ġhistochemically":10778,"half":10779,"Ġcervix":10780,"Ġsemen":10781,"Ġlaser":10782,"Ġlasted":10783,"Ġhydroxylation":10784,"Ġinversely":10785,"Ġkinin":10786,"Ġketoacid":10787,"81":10788,"LD":10789,"mut":10790,"zation":10791,"enzym":10792,"Ġsound":10793,"amil":10794,"Ġalb":10795,"ĠCer":10796,"izers":10797,"Ġimpos":10798,"Ġneigh":10799,"ĠMT":10800,"Ġphi":10801,"Ġspectinomycin":10802,"ĠLong":10803,"dyle":10804,"proline":10805,"Ġphenotypes":10806,"ĠAnother":10807,"opathies":10808,"Ġstriatal":10809,"Ġdetails":10810,"Ġbenefits":10811,"obacteria":10812,"Ġfollicle":10813,"Ġgained":10814,"Ġcompensatory":10815,"Ġdoubt":10816,"Ġneutrophil":10817,"complex":10818,"Ġfigures":10819,"arances":10820,"iemsa":10821,"dig":10822,"fl":10823,"gthen":10824,"lich":10825,"oh":10826,"hema":10827,"ref":10828,"alac":10829,"isis":10830,"leuk":10831,"Ġproto":10832,"ĠAV":10833,"tudy":10834,"antoin":10835,"Ġheated":10836,"ĠDifferent":10837,"ĠHC":10838,"ĠHem":10839,"maximal":10840,"Ġsubacute":10841,"mber":10842,"Ġregulating":10843,"Ġoutbreak":10844,"Ġexclusion":10845,"centrations":10846,"Ġhydrolytic":10847,"Ġanaesthetic":10848,"lastosis":10849,"labile":10850,"Ġultrasonic":10851,"Ġindirectly":10852,"obarbitone":10853,"Ġtrigg":10854,"Ġlaparotomy":10855,"Ġhyaluronidase":10856,"Ġdendritic":10857,"Ġmonospecific":10858,"ĠSmall":10859,"Ġparadox":10860,"83":10861,"FR":10862,"kling":10863,"molar":10864,"pred":10865,"Ġzym":10866,"Ġtan":10867,"Ġtherapeu":10868,"Ġfeces":10869,"ori":10870,"Ġrein":10871,"ostigmine":10872,"omies":10873,"action":10874,"diab":10875,"Ġspo":10876,"ĠMN":10877,"ĠMIF":10878,"ĠDR":10879,"ained":10880,"ĠEs":10881,"Ġaller":10882,"Ġservice":10883,"Ġpars":10884,"Ġplane":10885,"Ġgray":10886,"Ġhistones":10887,"titute":10888,"Ġenhancing":10889,"taminase":10890,"Ġsuspended":10891,"Ġcompetitively":10892,"butyrate":10893,"Ġangiographic":10894,"Ġinserted":10895,"olymer":10896,"Ġpassed":10897,"invasive":10898,"Ġadjusted":10899,"From":10900,"ders":10901,"iton":10902,"Ġfuc":10903,"Ġejac":10904,"ospecific":10905,"Ġgm":10906,"thre":10907,"acing":10908,"ĠCS":10909,"tenolol":10910,"Ġidentifying":10911,"Ġtriple":10912,"incub":10913,"ĠHealth":10914,"Ġinsufficient":10915,"phenylalanine":10916,"Ġestablishment":10917,"ifferentiated":10918,"Ġallele":10919,"Ġoccasional":10920,"ĠStates":10921,"phosphorylation":10922,"Ġcromoglycate":10923,"Ġendocarditis":10924,"horm":10925,"Ġsorb":10926,"Ġciliary":10927,"roder":10928,"cement":10929,"igenic":10930,"ĠCal":10931,"Ġdisability":10932,"Ġincon":10933,"ades":10934,"Ġsham":10935,"oreceptors":10936,"site":10937,"ologist":10938,"ologists":10939,"erazine":10940,"ĠFraction":10941,"oxo":10942,"aminobut":10943,"Ġgrew":10944,"Ġbiom":10945,"Ġhyperp":10946,"Ġprimer":10947,"controlled":10948,"Ġlosses":10949,"Ġblockers":10950,"Ġmaturity":10951,"Ġefferent":10952,"Ġresponders":10953,"Ġweaker":10954,"roscopy":10955,"ĠSimultaneous":10956,"Ġthickening":10957,"Ġacceleration":10958,"guan":10959,"Ġbundles":10960,"Ġfundamental":10961,"Ġsubpopulation":10962,"Ġheterozygous":10963,"Ġcongestive":10964,"Ġsummarized":10965,"Ġhorizontal":10966,"His":10967,"lator":10968,"rons":10969,"rehen":10970,"Ġanesthetic":10971,"atectomy":10972,"ĠTes":10973,"accha":10974,"oting":10975,"Ġcompli":10976,"ĠCR":10977,"ĠConsequ":10978,"ĠPMN":10979,"Ġcooperative":10980,"Ġacidity":10981,"Ġreaches":10982,"Ġvalidity":10983,"Ġestrogens":10984,"Ġquad":10985,"Ġoverload":10986,"Ġparotid":10987,"liquid":10988,"Ġdeline":10989,"Ġslide":10990,"Ġtele":10991,"Ġnodosa":10992,"Ġsimplex":10993,"Ġpsychotropic":10994,"Ġligament":10995,"Ġatrium":10996,"Ġatrio":10997,"Ġprogramme":10998,"Ġamplitudes":10999,"olecular":11000,"which":11001,"Ġimmobilization":11002,"affin":11003,"Ġcaudate":11004,"ĠMedical":11005,"Ġremarkably":11006,"Ġcontinue":11007,"ercurib":11008,"Ġinherited":11009,"Ġeconomic":11010,"Ġhyperac":11011,"Ġreliability":11012,"Ġautomated":11013,"olubilized":11014,"Ġquantitated":11015,"Ġdehydrogenases":11016,"embryonic":11017,"urope":11018,")--":11019,"Plasma":11020,"Ser":11021,"Ġmosa":11022,"Ġmessen":11023,"trating":11024,"ĠCul":11025,"ĠPD":11026,"ĠIniti":11027,"itidis":11028,"Ġrumen":11029,"ostomy":11030,"Ġintern":11031,"Ġintercon":11032,"Ġassociations":11033,"bean":11034,"Ġaceto":11035,"Ġlysed":11036,"factory":11037,"Ġstandards":11038,"cycl":11039,"Ġcatalyzes":11040,"Ġhospitalized":11041,"ygdal":11042,"Ġdermal":11043,"Ġurethral":11044,"Ġsharply":11045,"Ġclusters":11046,"Ġbarbitu":11047,"ultiple":11048,"Ġperinatal":11049,"Ġparoxysmal":11050,"gic":11051,"ience":11052,"wt":11053,"Ġoct":11054,"oste":11055,"Ġhorn":11056,"Ġforces":11057,"opulmonary":11058,"Ġadriamycin":11059,"ĠPF":11060,"ĠRats":11061,"Ġoblig":11062,"Ġfractional":11063,"Ġdiscuss":11064,"Ġmitogenic":11065,"ĠChinese":11066,"Ġdyskinesia":11067,"ĠIncreasing":11068,"ĠAdditional":11069,"Ġimmunoads":11070,"propyl":11071,"Ġlogarith":11072,"Ġasthmatic":11073,"Experiments":11074,"Ġrubella":11075,"Ġdisrupted":11076,"Ġskull":11077,"oprolol":11078,"ĠMeasurements":11079,"94":11080,"AS":11081,"CSF":11082,"path":11083,"Ġot":11084,"Ġinex":11085,"Ġfu":11086,"osal":11087,"Ġacridine":11088,"ĠSyn":11089,"demethyl":11090,"Ġcooperativity":11091,"ĠRT":11092,"Ġmonomers":11093,"ĠAnim":11094,"Ġhistopath":11095,"Ġremainder":11096,"Ġpulses":11097,"Ġcruz":11098,"static":11099,"glucuron":11100,"Ġdefinitive":11101,"Ġdiluted":11102,"Ġdimers":11103,"graphic":11104,"Ġpractition":11105,"Ġbronchodi":11106,"ĠFeulgen":11107,"hrlich":11108,"Ġreasonable":11109,"Ġmutagen":11110,"ĠMaximum":11111,"pregnant":11112,"romyosin":11113,"Ġinstrument":11114,"Ġamyloidosis":11115,"Ġtrisomy":11116,"Ġapproximate":11117,"Ġpoisoning":11118,"Ġcruzi":11119,"gue":11120,"tiary":11121,"Ġhip":11122,"Ġgap":11123,"irs":11124,"quine":11125,"ĠComple":11126,"Ġuncertain":11127,"Ġintraocular":11128,"Ġmutans":11129,"Ġpolymerases":11130,"Ġconjugation":11131,"Ġcontaminated":11132,"viruses":11133,"Ġintegrated":11134,"Ġchlorophyll":11135,"Ġisotonic":11136,"Ġuniformly":11137,"ĠSRBC":11138,"Ġtentatively":11139,"dividual":11140,"ĠBohr":11141,"ĠConsequently":11142,")/":11143,"AC":11144,"Km":11145,"cAMP":11146,"kinetic":11147,"va":11148,"tiamide":11149,"Ġsoci":11150,"Ġpat":11151,"Ġpuncture":11152,"Ġsporo":11153,"pable":11154,"Ġrelating":11155,"sover":11156,"ĠLip":11157,"Ġobste":11158,"ondyl":11159,"Ġvalid":11160,"Ġmangan":11161,"Ġmannitol":11162,"Ġdetec":11163,"Ġhyperthyroidism":11164,"Ġgrade":11165,"Ġjaund":11166,"rague":11167,"Ġmediator":11168,"Ġcritically":11169,"Ġovaries":11170,"Ġowing":11171,"IAA":11172,"Ġingested":11173,"Ġtasks":11174,"Ġhemorrhagic":11175,"rdU":11176,"Ġbenzodiazepine":11177,"primed":11178,"Ġtraditional":11179,"mTc":11180,"idone":11181,"ocortical":11182,"selective":11183,"ormally":11184,"ĠHep":11185,"key":11186,"ĠEv":11187,"acetamide":11188,"Ġundete":11189,"Ġcultivated":11190,"Ġmargin":11191,"Ġcytological":11192,"Ġmalaria":11193,"Ġinvasive":11194,"requency":11195,"rinary":11196,"Ġprocessed":11197,"Ġprecipitating":11198,"Ġprecipitates":11199,"Ġdistinction":11200,"Ġstabilization":11201,"uchsin":11202,"Ġapart":11203,"Ġglandular":11204,"embran":11205,"Ġinjured":11206,"Ġimpact":11207,"iliac":11208,"propranolol":11209,"encephalic":11210,"Ġischaemia":11211,"Ġdendrites":11212,"Ġproceeds":11213,"Ġlecithin":11214,"oxylin":11215,"++-":11216,"Ġson":11217,"Ġwk":11218,"asc":11219,"Ġbin":11220,"Ġtooth":11221,"ulous":11222,"Ġhyste":11223,"Ġcontex":11224,"ysed":11225,"ĠBr":11226,"rosta":11227,"plicated":11228,"Ġnormals":11229,"kinje":11230,"Ġcharacterised":11231,"Ġcerevis":11232,"Ġblocker":11233,"Ġeliminate":11234,"Ġbromocriptine":11235,"cardia":11236,"Ġroutinely":11237,"Ġrings":11238,"ĠSchiff":11239,"Ġexclude":11240,"ĠCML":11241,"Ġidea":11242,"Ġelucidate":11243,"blastine":11244,"Ġindustrial":11245,"Ġcompliance":11246,"Ġcerevisiae":11247,"61":11248,"Hydro":11249,"HTP":11250,"berg":11251,"stic":11252,"tine":11253,"Ġsessions":11254,"estradiol":11255,"Ġframe":11256,"triol":11257,"heric":11258,"Ġatoms":11259,"ĠEhrlich":11260,"ophysis":11261,"Ġcarcinogens":11262,"trophied":11263,"hythms":11264,"Ġacetylcholinesterase":11265,"Ġmelanin":11266,"Ġrepeatedly":11267,"aryng":11268,"ĠEntero":11269,"Ġsegmental":11270,"Ġenteroc":11271,"pigs":11272,"Ġresonances":11273,"ĠApproximately":11274,"Ġanomalous":11275,"Ġphysicochemical":11276,"Ġtetanus":11277,"Ġluteinizing":11278,"Ġanticholinergic":11279,"tazolamide":11280,"accharomyces":11281,"./":11282,"TC":11283,"field":11284,"lorp":11285,"onent":11286,"Ġsut":11287,"Ġcocaine":11288,"Ġnoc":11289,"omiting":11290,"Ġbeam":11291,"ocentesis":11292,"ĠCd":11293,"Ġleaf":11294,"ĠMal":11295,"ĠHig":11296,"ĠGc":11297,"Ġplayed":11298,"Ġinvasion":11299,"ĠVII":11300,"micro":11301,"Ġinfluencing":11302,"Ġsulfur":11303,"Ġrepression":11304,"infection":11305,"versely":11306,"nitine":11307,"Ġvisualized":11308,"Ġsolubilization":11309,"Ġfoods":11310,"Ġpredict":11311,"Ġinfertility":11312,"Ġopportun":11313,"quinoline":11314,"Ġaneurysms":11315,"odermal":11316,"Ġcarboxymethyl":11317,"Ġparenchyma":11318,"ĠAfrican":11319,"Ġvegetative":11320,"Ġhypercapnia":11321,"ĠCrohn":11322,".\"":11323,"IH":11324,"Tyr":11325,"where":11326,"iness":11327,"Ġanth":11328,"isteria":11329,"Ġfin":11330,"arial":11331,"lyox":11332,"Ġdeals":11333,"ĠSubs":11334,"chn":11335,"ĠDia":11336,"peritoneal":11337,"Ġtransform":11338,"Ġnoticed":11339,"ventilation":11340,"icians":11341,"Ġutero":11342,"Ġolfactory":11343,"glucosaminidase":11344,"ornavirus":11345,"Ġconjunctiv":11346,"Ġatria":11347,"oassays":11348,"Ġascribed":11349,"Ġinterview":11350,"Ġswim":11351,"Ġfavour":11352,"Ġundergoes":11353,"Ġ1969":11354,"inhibition":11355,"Ġcorrectly":11356,"Ġhaemagglutination":11357,"Ġtightly":11358,"Ġconcepts":11359,"Ġexpansion":11360,"Ġketoacidosis":11361,"domen":11362,"nm":11363,"Ġbeads":11364,"Ġacros":11365,"Ġdisk":11366,"ĠEm":11367,"Ġruthenium":11368,"ĠLab":11369,"Ġamygdal":11370,"Ġintraventricular":11371,"Ġcentres":11372,"omestic":11373,"Ġadjust":11374,"Ġunsaturated":11375,"sulfatase":11376,"Ġpooled":11377,"Ġrhin":11378,"Ġfamilial":11379,"Ġregenerating":11380,"Ġeventually":11381,"Ġmyeloid":11382,"Ġfilled":11383,"hydroxyphenyl":11384,"ympan":11385,"Ġelongation":11386,"Ġaccordance":11387,"ĠBrucella":11388,"):":11389,"93":11390,"cape":11391,"night":11392,"ongest":11393,"Ġtheta":11394,"Ġsuture":11395,"rogen":11396,"Ġmach":11397,"ervated":11398,"ulence":11399,"Ġhors":11400,"Ġconv":11401,"trained":11402,"Ġatopic":11403,"Ġenrich":11404,"Ġadduc":11405,"luded":11406,"ĠEurope":11407,"ĠFirst":11408,"Ġtransaminase":11409,"Ġmethadone":11410,"ongue":11411,"ieving":11412,"Ġyr":11413,"Ġintrader":11414,"Ġstratum":11415,"Ġbiotin":11416,"Ġbactere":11417,"Ġerythropo":11418,"Ġtermed":11419,"Ġoriginating":11420,"Ġvesicular":11421,"aminoethyl":11422,"Ġvisualization":11423,"Ġoffered":11424,"Ġthrombocyt":11425,"oloney":11426,"Ġdihydrotestosterone":11427,"Ġdigested":11428,"Ġsplitting":11429,"lactate":11430,"ĠEBV":11431,"Ġfluctuations":11432,"Ġdiarrhoea":11433,"Hb":11434,"MW":11435,"high":11436,"right":11437,"sensitivity":11438,"Ġ%":11439,"inities":11440,"Ġtroph":11441,"ĠpCO":11442,"Ġpmol":11443,"Ġpindolol":11444,"Ġintim":11445,"Ġfores":11446,"Ġantiarrhythmic":11447,"ĠStr":11448,"Ġeffectors":11449,"Ġcorn":11450,"Ġvirulent":11451,"Ġpreparative":11452,"ophilus":11453,"Ġprovoked":11454,"Ġpreventive":11455,"Ġreversibly":11456,"Ġtauro":11457,"Ġpyrimidine":11458,"block":11459,"Ġbright":11460,"Ġfoetus":11461,"triphosphate":11462,"Ġvisceral":11463,"Ġquinacrine":11464,"Ġdistant":11465,"Ġseason":11466,"Ġopinion":11467,"hymena":11468,"Ġmellitus":11469,"Ġvinblastine":11470,"86":11471,"HO":11472,"MO":11473,"MLC":11474,"band":11475,"banding":11476,"oke":11477,"Ġq":11478,"Ġcos":11479,"Ġbuc":11480,"Ġlic":11481,"Ġlid":11482,"imotor":11483,"Ġgases":11484,"tuin":11485,"ystag":11486,"Ġeng":11487,"ĠSupp":11488,"Ġlect":11489,"ĠBLM":11490,"rosy":11491,"Ġrhythms":11492,"ĠOs":11493,"apine":11494,"tism":11495,"tiserum":11496,"Ġsupplied":11497,"Ġendo":11498,"itherto":11499,"Ġcalculation":11500,"ĠExtra":11501,"graphy":11502,"Ġinducible":11503,"Ġgangli":11504,"Ġprincipally":11505,"Ġpentagastrin":11506,"Ġreserve":11507,"Ġquestionna":11508,"Ġkerat":11509,"fibrin":11510,"Ġanalgesics":11511,"Ġstreptokinase":11512,"Ġputative":11513,"sulphate":11514,"unitrazepam":11515,"Ġgirl":11516,"Ġpsoriasis":11517,"ĠDDT":11518,"HCl":11519,"HRP":11520,"PB":11521,"ncies":11522,"rong":11523,"Ġophthal":11524,"Ġinherent":11525,"Ġbig":11526,"isition":11527,"itated":11528,"ato":11529,"Ġhouse":11530,"trically":11531,"ĠComplete":11532,"ypeptidase":11533,"Ġspot":11534,"ureth":11535,"ĠBlue":11536,"ĠRo":11537,"rences":11538,"Ġassimil":11539,"Ġformula":11540,"ĠGel":11541,"nea":11542,"asthen":11543,"Ġnonc":11544,"Ġhypertonic":11545,"Ġmalt":11546,"ochrom":11547,"Ġdosages":11548,"Ġsequel":11549,"Ġdependency":11550,"Ġcentrifug":11551,"Ġcompositions":11552,"Ġmedias":11553,"Ġneutralizing":11554,"ĠActivity":11555,"ĠAntibody":11556,"ikes":11557,"ĠStatis":11558,"opausal":11559,"Ġglobulins":11560,"Ġ(-)-":11561,"Ġmyofibrillar":11562,"Ġimpulse":11563,"Ġcomplaints":11564,"Ġgrafting":11565,"LPS":11566,"TNP":11567,"Ġtip":11568,"enchym":11569,"Ġcef":11570,"Ġmercur":11571,"aning":11572,"ulinemia":11573,"unted":11574,"iline":11575,"Ġextinction":11576,"Ġrating":11577,"Ġmetiamide":11578,"Ġcomprising":11579,"ĠInd":11580,"Ġhypophys":11581,"ĠGM":11582,"tably":11583,"Ġvaline":11584,"Ġvalvular":11585,"Ġoccas":11586,"Ġphosphates":11587,"Ġabdomen":11588,"Ġdemand":11589,"teroides":11590,"occi":11591,"Ġ1978":11592,"Ġimplies":11593,"Ġimplants":11594,"Ġaccounts":11595,"Ġreflexes":11596,"Ġcontributed":11597,"Ġbulb":11598,"Ġcorticosteroid":11599,"Ġstaphylococci":11600,"Ġechocardiography":11601,"ĠPeak":11602,"Ġfaecalis":11603,"Ġaflatoxin":11604,"Ġmessenger":11605,"Ġcontext":11606,"Ġlectins":11607,"ET":11608,"LP":11609,"With":11610,"ban":11611,"fr":11612,"tases":11613,"Ġment":11614,"ĠmEq":11615,"Ġread":11616,"ections":11617,"ĠTrich":11618,"Ġging":11619,"ache":11620,"Ġpropos":11621,"traumatic":11622,"trig":11623,"abdominal":11624,"cyte":11625,"oxamine":11626,"ĠOx":11627,"Ġdepressive":11628,"Ġconstriction":11629,"Ġintragastric":11630,"Ġcalor":11631,"Ġovercome":11632,"ickel":11633,"Ġsymptomatology":11634,"Ġexplants":11635,"Ġmediate":11636,"Ġprotoplas":11637,"defined":11638,"Ġencephalomyelitis":11639,"Ġidiotypic":11640,"matched":11641,"Ġelectrocardiogram":11642,"Ġelectrolytes":11643,"Ġcrossover":11644,"ĠQuantitative":11645,"Ġcolliculus":11646,"Ġmotone":11647,"CPA":11648,"Some":11649,"ota":11650,"inate":11651,"enten":11652,"Ġcypro":11653,"Ġante":11654,"Ġbrown":11655,"erved":11656,"entanyl":11657,"attered":11658,"Ġchoro":11659,"opes":11660,"operoxidase":11661,"ylated":11662,"ĠThat":11663,"oxia":11664,"ĠGS":11665,"Ġdiverse":11666,"erged":11667,"ensory":11668,"antile":11669,"ardiac":11670,"Ġbacteriological":11671,"Ġelevations":11672,"Ġmaximally":11673,"Ġsalbutamol":11674,"Ġoxygenation":11675,"Ġmediating":11676,"Ġshortly":11677,"ĠConversely":11678,"Ġadjun":11679,"Ġaggregate":11680,"Ġmorning":11681,"Ġmetals":11682,"chromat":11683,"ĠGAT":11684,"ĠPrevious":11685,"reactions":11686,"Ġcircumf":11687,"ĠMaximal":11688,"Ġmillion":11689,"Ġdiscontinued":11690,"Ġtransmembrane":11691,"Ġuncomplicated":11692,"Ġcytochromes":11693,"Ġpyridoxal":11694,"Ġintubation":11695,"Ġimpossible":11696,"Ġhorses":11697,"fuc":11698,"oti":11699,"var":11700,"Ġtons":11701,"Ġcochle":11702,"Ġdomestic":11703,"Ġmating":11704,"anal":11705,"artic":11706,"third":11707,"acerb":11708,"Ġextr":11709,"ĠMan":11710,"ipital":11711,"ogene":11712,"ĠOH":11713,"Ġarticular":11714,"Ġindicators":11715,"Ġcollo":11716,"apeptide":11717,"Ġmodes":11718,"modium":11719,"Ġmyoglobin":11720,"Ġredis":11721,"Ġpregnenolone":11722,"linear":11723,"umps":11724,"Ġdysplasia":11725,"Ġpractic":11726,"Ġenzymatically":11727,"Ġisozyme":11728,"Ġvertical":11729,"Ġphosphoenolpyruvate":11730,"Ġexplored":11731,"onucleotide":11732,"Ġasymmetric":11733,"Ġsynergistic":11734,"ristine":11735,"salic":11736,"Ġglucuronide":11737,"ĠSecond":11738,"Ġemulsion":11739,"Ġhemisphere":11740,"Ġsatellite":11741,"aortic":11742,"ingly":11743,"Ġhol":11744,"ĠTest":11745,"erens":11746,"inetics":11747,"ilt":11748,"atidyle":11749,"Ġali":11750,"Ġwhy":11751,"ĠSera":11752,"ĠStimulation":11753,"ĠProl":11754,"Ġeffected":11755,"ignant":11756,"Ġrelatives":11757,"Ġarranged":11758,"avail":11759,"Ġhypertrophied":11760,"Ġadenovirus":11761,"Ġdifferentiating":11762,"Thirty":11763,"Ġoligo":11764,"species":11765,"Ġvaccinated":11766,"Ġpellet":11767,"Ġventilatory":11768,"Ġaugmentation":11769,"latation":11770,"Ġlipoproteins":11771,"Ġcommercially":11772,"Ġcoded":11773,"Ġbradykinin":11774,"Ġgirls":11775,"Previous":11776,"Ġdehydration":11777,"Ġemotional":11778,"etalol":11779,"Ġcontacts":11780,"HIAA":11781,"PV":11782,"cNAc":11783,"ele":11784,"fusal":11785,"Ġatenolol":11786,"ensis":11787,"Ġantin":11788,"ulas":11789,"uled":11790,"Ġconce":11791,"Ġvomiting":11792,"ellae":11793,"Ġende":11794,"eling":11795,"Ġmicrop":11796,"pler":11797,"Ġnovo":11798,"Ġdiuretic":11799,"Ġopening":11800,"Ġexcised":11801,"Ġtertiary":11802,"methylcholanthrene":11803,"Ġlatencies":11804,"Ġpneumococci":11805,"bicans":11806,"Ġconstituent":11807,"Ġoesopha":11808,"Ġbalanced":11809,"awley":11810,"Ġcrypt":11811,"Ġtrimester":11812,"Ġserologic":11813,"Ġmonolayers":11814,"Ġbradycardia":11815,"Ġdropped":11816,".--":11817,"91":11818,"PI":11819,"Sch":11820,"cg":11821,"normally":11822,"obs":11823,"Ġts":11824,"Ġsides":11825,"alanyl":11826,"Ġdalton":11827,"Ġmer":11828,"Ġhitherto":11829,"iferative":11830,"ĠCross":11831,"ichoic":11832,"ĠPrim":11833,"ĠDrug":11834,"ĠBl":11835,"ĠBSA":11836,"tens":11837,"Ġrecru":11838,"ĠGas":11839,"Ġcompletion":11840,"Ġdiphosphate":11841,"Ġgraded":11842,"Ġglucosamine":11843,"tification":11844,"Ġmitosis":11845,"Ġmeaning":11846,"Ġaffinities":11847,"Ġgenerations":11848,"120":11849,"Ġdiagnoses":11850,"Ġheterochromatin":11851,"Ġlining":11852,"Ġstores":11853,"Ġmesh":11854,"Ġvagal":11855,"1976":11856,"Ġstreptococcal":11857,"Ġrestore":11858,"Ġenterotoxin":11859,"Ġliberated":11860,"Ġchloroplast":11861,"ĠSHR":11862,"ĠSouth":11863,"nitrosamine":11864,"Ġjejunal":11865,"chloric":11866,"Ġoutpatient":11867,"LISA":11868,"Ġantidepressants":11869,"Ġconvulsions":11870,"Ġbacteriophage":11871,"Ġscintigraphy":11872,"ĠTrypan":11873,"Ġchorea":11874,"NG":11875,"duoden":11876,"tw":11877,"total":11878,"uly":11879,"wing":11880,"ylyl":11881,"Ġsense":11882,"istent":11883,"issive":11884,"olig":11885,"ocation":11886,"sep":11887,"Ġexacerb":11888,"Ġcomb":11889,"iably":11890,"Ġperik":11891,"uper":11892,"ĠHy":11893,"ĠNR":11894,"Ġinfrequ":11895,"othal":11896,"timum":11897,"omethyl":11898,"Ġhypog":11899,"Ġregulate":11900,"ociation":11901,"Ġfacts":11902,"omyce":11903,"Ġhydrolases":11904,"ician":11905,"Ġradius":11906,"pleen":11907,"ards":11908,"Ġlocally":11909,"ildren":11910,"obium":11911,"Ġcalcitonin":11912,"centration":11913,"heses":11914,"Ġnecrop":11915,"glutinating":11916,"Ġterminated":11917,"Ġdeficiencies":11918,"Ġlysates":11919,"polym":11920,"dense":11921,"Ġstarved":11922,"Ġseptic":11923,"Ġreproducibility":11924,"Ġdeliver":11925,"Ġencephalitogenic":11926,"Ġethylenediamine":11927,"Ġunderstood":11928,"Ġdispersed":11929,"Ġulcerative":11930,"Ġleprosy":11931,"Ġkaryotype":11932,"marrow":11933,"androst":11934,"ammonium":11935,"ercuribenzoate":11936,"Ġmosaic":11937,"Ġjaundice":11938,"TSH":11939,"nem":11940,"sate":11941,"Ġtongue":11942,"enal":11943,"eryl":11944,"ecretory":11945,"idases":11946,"Ġwash":11947,"Ġ(+)-":11948,"iron":11949,"Ġalbicans":11950,"ĠCN":11951,"ĠCs":11952,"ĠSRS":11953,"ĠMIC":11954,"kephal":11955,"ĠForm":11956,"ĠRinger":11957,"ĠOut":11958,"ĠObs":11959,"Ġroutes":11960,"Ġchromatid":11961,"Ġelectrostatic":11962,"transformed":11963,"Ġmixing":11964,"Ġprobes":11965,"Ġmaca":11966,"Ġcircuit":11967,"Ġefforts":11968,"Ġbronchi":11969,"Ġdevised":11970,"Ġanatomy":11971,"umarol":11972,"Ġphysiology":11973,"Ġdeficits":11974,"Ġspectrophotometric":11975,"Ġcurative":11976,"Ġantihistamin":11977,"Ġprogeny":11978,"Ġovalbumin":11979,"Ġhydroxyproline":11980,"diabetic":11981,"atidylethanolamine":11982,"BF":11983,"pin":11984,"ald":11985,"Ġfen":11986,"anesthetized":11987,"Ġhot":11988,"Ġlies":11989,"atile":11990,"Ġspher":11991,"Ġspikes":11992,"Ġactivators":11993,"Ġadd":11994,"deed":11995,"Ġuninfected":11996,"Ġproteinases":11997,"ĠLy":11998,"Ġdesensitization":11999,"Ġcolour":12000,"Ġdifferently":12001,"Ġendoscopic":12002,"Ġinstability":12003,"Ġmicroelectro":12004,"Ġeleven":12005,"hydrate":12006,"Ġhyaline":12007,"olipids":12008,"Ġtransitions":12009,"Ġexisted":12010,"ĠPAH":12011,"Ġsterile":12012,"Ġcatalysis":12013,"limited":12014,"Ġwounds":12015,"Ġnigra":12016,"Ġcondensation":12017,"...":12018,"Ġatrioventricular":12019,"Ġperikary":12020,",\"":12021,"DR":12022,"ping":12023,"Ġpili":12024,"ras":12025,"Ġthyl":12026,"omata":12027,"urn":12028,"Ġdeaminase":12029,"trations":12030,"ĠCar":12031,"Ġleth":12032,"0000":12033,"iphenyl":12034,"Ġimmunogenicity":12035,"oxan":12036,"achol":12037,"clerotic":12038,"Ġelectrochemical":12039,"indane":12040,"Ġcarcinogenesis":12041,"Ġindividually":12042,"incristine":12043,"Ġcontinuing":12044,"Ġmalignancies":12045,"Ġmetoprolol":12046,"Ġperoxidation":12047,"Ġimped":12048,"Ġserotonergic":12049,"Ġthyrotoxic":12050,"idinium":12051,"iazol":12052,"Ġcorticosterone":12053,"Ġrheumatic":12054,"Ġexploration":12055,"Ġappreciably":12056,"Ġcategory":12057,"Ġlambs":12058,"Ġoncornavirus":12059,"Ġstrands":12060,"Ġincrement":12061,"Ġaberrations":12062,"ĠGlucose":12063,"Ġmicrovilli":12064,"ĠTetrahymena":12065,"eal":12066,"Ġansw":12067,"Ġfati":12068,"ingomyel":12069,"ecl":12070,"idyl":12071,"omaly":12072,"ury":12073,"Ġproges":12074,"Ġacous":12075,"Ġdemethyl":12076,"ocated":12077,"yses":12078,"Ġneg":12079,"ĠMoloney":12080,"Ġinfantile":12081,"Ġkil":12082,"Ġdecision":12083,"ĠGlu":12084,"tinence":12085,"Ġdepartment":12086,"Ġglauc":12087,"Ġpotencies":12088,"indole":12089,"Ġphenolic":12090,"Ġmitomycin":12091,"Ġaxial":12092,"Ġembolism":12093,"Ġdenervated":12094,"Ġtwitch":12095,"Ġhexokinase":12096,"Ġselen":12097,"ĠCombin":12098,"Ġconfirming":12099,"Ġbiosynthetic":12100,"Ġfreshly":12101,"nucleotide":12102,"ĠPaCO":12103,"Ġmacromolecular":12104,"Ġdeletion":12105,"Ġinheritance":12106,"Ġaerosol":12107,"Ġacrylamide":12108,"Ġmimic":12109,"Ġgeniculate":12110,"incubated":12111,"PHA":12112,"fast":12113,"Ġfloc":12114,"ulo":12115,"Ġnam":12116,"Ġacted":12117,"ticles":12118,"Ġcomprehen":12119,"Ġenamel":12120,"Ġincision":12121,"Ġtremor":12122,"ĠFib":12123,"phages":12124,"Ġsimian":12125,"Ġdiph":12126,"Ġmembranous":12127,"Ġextrac":12128,"Ġinfective":12129,"Ġcatara":12130,"actant":12131,"occus":12132,"Ġmaxima":12133,"ĠRNAs":12134,"transf":12135,"Ġsubstantia":12136,"Ġcarboxy":12137,"Ġfertil":12138,"Ġmesenchym":12139,"Ġrepeat":12140,"Ġglomeruli":12141,"Ġpromising":12142,"dimethylbenz":12143,"encephalon":12144,"Ġarteriography":12145,"Although":12146,"osidases":12147,"Ġreinforcement":12148,"Ġcadmium":12149,"Ġimmunoprecipitation":12150,"Ġstoichiometry":12151,"Ġinsectic":12152,"ĠPurkinje":12153,"87":12154,"Hz":12155,"tocin":12156,"Ġshed":12157,"Ġpyl":12158,"Ġantac":12159,"Ġanomaly":12160,"estern":12161,"Ġdyne":12162,"Ġfecal":12163,"olation":12164,"Ġactually":12165,"ocine":12166,"ĠAus":12167,"Ġexceeding":12168,"lore":12169,"lection":12170,"Ġhapt":12171,"othi":12172,"Ġtranslation":12173,"ĠThy":12174,"Ġhypoglyce":12175,"ĠLac":12176,"Ġcausative":12177,"Ġdeferens":12178,"Ġcomplexity":12179,"oblasts":12180,"Ġmucin":12181,"Ġresultant":12182,"terases":12183,"Ġnodular":12184,"Ġcatalyze":12185,"Ġdisplaced":12186,"luorescence":12187,"Ġcornea":12188,"Ġpowerful":12189,"ĠSprague":12190,"ĠCFU":12191,"diagn":12192,"Ġallografts":12193,"Ġpatency":12194,"Ġsiblings":12195,"catalyzed":12196,"Ġstrictly":12197,"eliac":12198,"Ġoccasions":12199,"600":12200,"bi":12201,"iratory":12202,"pul":12203,"sue":12204,"uate":12205,"Ġcured":12206,"Ġbath":12207,"Ġreading":12208,"tazone":12209,"Ġbear":12210,"amisole":12211,"tropic":12212,"ĠMo":12213,"Ġsubfraction":12214,"illance":12215,"ergide":12216,"Ġmodal":12217,"Ġequival":12218,"Ġhandling":12219,"atinum":12220,"efici":12221,"Ġlengths":12222,"Ġpharmacologic":12223,"molality":12224,"butolol":12225,"Ġvelocities":12226,"Ġextend":12227,"hydroxys":12228,"Ġyielding":12229,"Ġcytostatic":12230,"Ġpector":12231,"Ġchambers":12232,"Ġpersonnel":12233,"Arg":12234,"Ġhyperglyce":12235,"lactamase":12236,"panze":12237,"At":12238,"Val":12239,"bec":12240,"zid":12241,"isomer":12242,"Ġmere":12243,"acids":12244,"Ġisometric":12245,"ifteen":12246,"Ġresorption":12247,"Ġraphe":12248,"Ġmeromyosin":12249,"ighteen":12250,"ĠPres":12251,"ĠPCA":12252,"lasting":12253,"ĠMr":12254,"ĠMorph":12255,"ĠMethyl":12256,"ĠFri":12257,"aternary":12258,"ĠGrowth":12259,"Ġdegran":12260,"Ġprevail":12261,"Ġfirm":12262,"Ġscattered":12263,"ĠVirus":12264,"oplasty":12265,"Ġperforming":12266,"Ġ111":12267,"1210":12268,"Ġincreasingly":12269,"Ġinnervated":12270,"Ġmetastasis":12271,"ĠStreptomyces":12272,"Ġstereotyp":12273,"Ġautoradiographic":12274,"loaded":12275,"Ġhaplotypes":12276,"ĠDirect":12277,"cysteine":12278,"Ġuncommon":12279,"ĠInstitute":12280,"Ġbursts":12281,"ĠAbsorption":12282,"Ġexhaus":12283,"Ġaccidents":12284,"'.":12285,"Per":12286,"bands":12287,"lers":12288,"Ġtherap":12289,"Ġwarm":12290,"usp":12291,"Ġnickel":12292,"olateral":12293,"urb":12294,"Ġdead":12295,"Ġascer":12296,"Ġatom":12297,"Ġdistilled":12298,"Ġleaving":12299,"ĠParkinson":12300,"ĠInte":12301,"ĠBu":12302,"ĠEF":12303,"Ġimmunizing":12304,"ĠGre":12305,"ĠGiemsa":12306,"Ġescape":12307,"Ġstraight":12308,"Ġfibros":12309,"Ġcytosine":12310,"Ġaminopeptidase":12311,"Ġacetazolamide":12312,"oxygen":12313,"Ġpige":12314,"Ġpeptic":12315,"Ġfragilis":12316,"Ġembol":12317,"Ġregards":12318,"galactose":12319,"tetracycline":12320,"Ġcrystall":12321,"Ġazo":12322,"Ġpowder":12323,"diazepoxide":12324,"Ġprosthetic":12325,"strain":12326,"Ġflash":12327,"ostridium":12328,"Ġrostral":12329,"graphs":12330,"Ġacquisition":12331,"Ġenrichment":12332,"Ġthylak":12333,"Dawley":12334,"ai":12335,"cortic":12336,"xide":12337,"tised":12338,"Ġtobac":12339,"Ġvig":12340,"ĠActin":12341,"oppler":12342,"ylon":12343,"Ġdisinteg":12344,"ously":12345,"Ġimages":12346,"ĠBetween":12347,"Ġunresponsive":12348,"Ġrelate":12349,"Ġserves":12350,"Ġobsc":12351,"eps":12352,"Ġamide":12353,"Ġcolloid":12354,"ĠKre":12355,"Ġflurazepam":12356,"prol":12357,"Ġneurologic":12358,"Ġionized":12359,"Ġpercentages":12360,"ĠJan":12361,"Ġwhereby":12362,"Ġimply":12363,"Ġunsuccessful":12364,"acytidine":12365,"Ġnephritis":12366,"Ġbranched":12367,"Ġadequately":12368,"Ġamniocentesis":12369,"Ġthiamine":12370,"Ġtuberculin":12371,"Ġimmunohist":12372,"Ġaccessible":12373,"Ġcephalospor":12374,"ĠEAE":12375,"ĠOptimal":12376,"Ġmycelium":12377,"Com":12378,"MuLV":12379,"Nine":12380,"Of":12381,"nam":12382,"Ġavid":12383,"onus":12384,"enec":12385,"Ġsa":12386,"Ġfum":12387,"Ġtol":12388,"Ġasial":12389,"Ġraise":12390,"luent":12391,"ĠMit":12392,"sities":12393,"Ġuncle":12394,"ĠLC":12395,"ĠGC":12396,"Ġsimply":12397,"Ġdiseased":12398,"tidyl":12399,"Ġcontras":12400,"isease":12401,"eraldehyde":12402,"Ġlimbs":12403,"Ġappearing":12404,"Ġloose":12405,"ĠAden":12406,"Ġturb":12407,"Ġmesang":12408,"Ġdiminish":12409,"Ġscreened":12410,"atisfactory":12411,"Ġexerts":12412,"Ġpolymorphism":12413,"Ġrectum":12414,"Ġpromote":12415,"Ġsubgroups":12416,"ĠTPN":12417,"rostagland":12418,"250":12419,"89":12420,"EE":12421,"PE":12422,"bies":12423,"iter":12424,"muc":12425,"Ġcot":12426,"arse":12427,"dione":12428,"genes":12429,"ĠBA":12430,"ĠNS":12431,"dehyd":12432,"tobac":12433,"Ġunequ":12434,"endothelial":12435,"Ġcytoph":12436,"Ġmonoxide":12437,"aceous":12438,"meter":12439,"erythro":12440,"Ġconsumed":12441,"Ġrods":12442,"ĠKM":12443,"Ġperiodontal":12444,"Ġequimolar":12445,"ĠCaCl":12446,"valent":12447,"Ġ240":12448,"Ġlimitation":12449,"Ġcarbonate":12450,"razosin":12451,"Ġalcohols":12452,"ĠAntisera":12453,"hydroxyd":12454,"1974":12455,"Ġerup":12456,"Ġfungus":12457,"Ġmucopolysaccharide":12458,"Ġeducational":12459,"Ġideal":12460,"Ġpediatric":12461,"Ġhippocampal":12462,"romatosis":12463,"chlorom":12464,"Ġmultiplication":12465,"Ġfeline":12466,"ystagmus":12467,"GL":12468,"zary":12469,"head":12470,"Ġsat":12471,"Ġsister":12472,"Ġbud":12473,"odys":12474,"ranul":12475,"ĠIndi":12476,"ĠRF":12477,"Ġnotice":12478,"Ġmodif":12479,"Ġpresently":12480,"identical":12481,"obi":12482,"Ġarteritis":12483,"Ġhistopathological":12484,"Ġelectrophoretically":12485,"oflu":12486,"Ġmethylation":12487,"Ġbilayer":12488,"Ġdilated":12489,"Ġcapability":12490,"Ġreflecting":12491,"Ġovari":12492,"1973":12493,"Ġpalliation":12494,"Ġcompensation":12495,"substrate":12496,"Ġloops":12497,"reduction":12498,"Ġcollateral":12499,"Ġglucocorticoid":12500,"ifluoro":12501,"Ġmyeloblastosis":12502,"Ab":12503,"Fig":12504,"Group":12505,"LS":12506,"Methyl":12507,"Ġpolic":12508,"edial":12509,"omuc":12510,"urnal":12511,"see":12512,"odon":12513,"oded":12514,"odic":12515,"ysergide":12516,"Ġ2000":12517,"sodium":12518,"Ġabrup":12519,"Ġvirulence":12520,"ĠVI":12521,"Ġhisto":12522,"aza":12523,"Ġbecoming":12524,"coal":12525,"grams":12526,"titudes":12527,"Ġsymb":12528,"Ġorganized":12529,"Ġvena":12530,"ĠCompound":12531,"reacted":12532,"ĠArr":12533,"glutamyltransferase":12534,"Ġcyanogen":12535,"Ġtroponin":12536,"systolic":12537,"Ġordinary":12538,"oyant":12539,"ĠPropranolol":12540,"Ġdisclosed":12541,"Ġknee":12542,"Ġtriggered":12543,"ĠAnimals":12544,"IB":12545,"Mic":12546,"ba":12547,"fragment":12548,"ira":12549,"lambda":12550,"ttes":12551,"Ġdust":12552,"Ġmom":12553,"Ġfentanyl":12554,"oride":12555,"phth":12556,"ucl":12557,"Ġforty":12558,"ows":12559,"Ġont":12560,"ĠSurgical":12561,"Ġleaves":12562,"rium":12563,"ĠBur":12564,"ĠBrdU":12565,"Ġallotype":12566,"Ġabnormally":12567,"Ġfacilities":12568,"Ġoverla":12569,"Ġhepatectomy":12570,"Ġchronotropic":12571,"hydantoin":12572,"ĠMgATP":12573,"Ġelse":12574,"Ġneurophys":12575,"including":12576,"robenz":12577,"Ġlarval":12578,"Ġtracts":12579,"Ġiodo":12580,"Ġdialy":12581,"otinic":12582,"Ġvaccinia":12583,"Ġfungal":12584,"ĠBiochem":12585,"Ġrubrum":12586,"Ġurethra":12587,"Ġdeviations":12588,"responsiveness":12589,"irculation":12590,"Ġprednisolone":12591,"Ġoligosaccharides":12592,"yclohexyl":12593,"cholesterol":12594,"Ġgynec":12595,"+),":12596,"En":12597,"class":12598,"dent":12599,"density":12600,"mouse":12601,"top":12602,"ĠpO":12603,"Ġwool":12604,"Ġ(=":12605,"Ġacceptors":12606,"ĠIX":12607,"Ġcome":12608,"redoxin":12609,"Ġspasm":12610,"ĠMor":12611,"elan":12612,"sives":12613,"ologies":12614,"ĠLarge":12615,"ostat":12616,"Ġregurg":12617,"Ġstrip":12618,"Ġcausal":12619,"Ġelectronic":12620,"Ġincubating":12621,"Ġcircadian":12622,"Ġremoving":12623,"Ġcapacities":12624,"Ġeffusion":12625,"Ġdistinctive":12626,"Ġimplant":12627,"Ġtwin":12628,"Ġmuscul":12629,"ĠExamination":12630,"Ġmidbrain":12631,"Ġautoantibodies":12632,"rousal":12633,"ĠClostridium":12634,"Ġanatomic":12635,"nitroso":12636,"Ġscleroder":12637,"Ġantidepressant":12638,"Ġendometrial":12639,"Ġvehicle":12640,"Ġexchanges":12641,"tempts":12642,"Ġtobacco":12643,"ĠKrebs":12644,"Ġabrupt":12645,"cnem":12646,"eg":12647,"gar":12648,"orough":12649,"pensive":12650,"urations":12651,"yanide":12652,"enriched":12653,"Ġbesides":12654,"Ġdeduc":12655,"iment":12656,"Ġram":12657,"Ġatres":12658,"Ġdisodium":12659,"ĠSK":12660,"ĠPM":12661,"lastoid":12662,"ĠHR":12663,"ĠListeria":12664,"Ġphosphatases":12665,"Ġmyx":12666,"Ġmyasthen":12667,"identified":12668,"Ġarterio":12669,"Ġmicroscopically":12670,"Ġ133":12671,"Ġcereus":12672,"Ġvariance":12673,"Ġneuroblast":12674,"ĠChronic":12675,"Ġxanthine":12676,"Ġnitrous":12677,"Ġnitrogenase":12678,"Ġferro":12679,"Ġdilute":12680,"Ġemploy":12681,"Ġabolish":12682,"ĠRecent":12683,"Ġtransfusions":12684,"Ġthermodynamic":12685,"Ġarabin":12686,"ĠHyper":12687,"Ġmobilities":12688,"stream":12689,"aturase":12690,"ĠProteus":12691,"arboxylic":12692,"Ġoverlap":12693,"Ġmanganese":12694,"ĠTrypanosoma":12695,"09":12696,"Un":12697,"nor":12698,"notic":12699,"pal":12700,"pulmonary":12701,"sim":12702,"saturated":12703,"olin":12704,"ilia":12705,"Ġspiral":12706,"ĠSaccharomyces":12707,"oreal":12708,"ĠMuLV":12709,"ĠNig":12710,"Ġspecially":12711,"ctal":12712,"renin":12713,"Ġsubtypes":12714,"Ġvaric":12715,"Ġmedic":12716,"Ġ800":12717,"Ġopac":12718,"Ġendoc":12719,"Ġurtic":12720,"Ġaminoacyl":12721,"Ġphysically":12722,"ancre":12723,"immunized":12724,"ipheral":12725,"Ġhaemodi":12726,"Ġeffusions":12727,"Ġlysyl":12728,"ĠContra":12729,"tussis":12730,"Ġchemotherapeutic":12731,"Ġprostheses":12732,"Ġinoculum":12733,"spectively":12734,"glutamic":12735,"Ġdextro":12736,"Ġdiphenyl":12737,"Ġmucosubs":12738,"histidine":12739,"Ġintegration":12740,"ĠApparent":12741,"auscher":12742,"menopausal":12743,"Ġdepressant":12744,"Ġparenchymal":12745,"hepta":12746,"Ġleakage":12747,"Ġundesc":12748,"Ġencou":12749,"Ġlidocaine":12750,"Ġdynein":12751,"-.":12752,"Macaca":12753,"system":12754,"onge":12755,"Ġcam":12756,"Ġcyl":12757,"Ġinn":12758,"erge":12759,"antable":12760,"arma":12761,"ĠTum":12762,"Ġproxim":12763,"ĠIC":12764,"ĠCr":12765,"ĠSero":12766,"lora":12767,"rior":12768,"ĠMacaca":12769,"ĠFAD":12770,"ĠGSH":12771,"Ġsought":12772,"Ġlocations":12773,"antigens":12774,"Ġsmear":12775,"Ġscien":12776,"ĠVari":12777,"Ġequals":12778,"tific":12779,"Ġconflic":12780,"Ġcarcino":12781,"Ġimproving":12782,"Ġtried":12783,"Ġneurofib":12784,"Ġcarbenicillin":12785,"Ġosmium":12786,"Ġutilize":12787,"Ġlinoleic":12788,"Ġbreed":12789,"Ġbreeding":12790,"Ġheavily":12791,"Ġspecialized":12792,"oniazid":12793,"Ġvoluntary":12794,"Ġ1968":12795,"limb":12796,"Ġmetachromatic":12797,"ĠBefore":12798,"Ġcoordination":12799,"Ġchimpanze":12800,"ĠSCE":12801,"ĠSubsequent":12802,"Ġhemodialysis":12803,"Ġrifampicin":12804,"Ġphotosynthetic":12805,"kephalin":12806,"Ġacoustic":12807,"025":12808,"dys":12809,"iens":12810,"xia":12811,"Ġ<":12812,"erule":12813,"imid":12814,"imidazole":12815,"Ġchalone":12816,"Ġcompact":12817,"Ġcompartments":12818,"Ġdisposition":12819,"Ġspondyl":12820,"ĠHS":12821,"aryotic":12822,"rosal":12823,"paran":12824,"Ġtranquil":12825,"ĠRed":12826,"Ġformulation":12827,"Ġimmunoelec":12828,"Ġindole":12829,"ĠGerm":12830,"pressive":12831,"olysin":12832,"Ġsurfactant":12833,"Ġstimulant":12834,"Ġsulfated":12835,"Ġfails":12836,"Ġerythroid":12837,"Ġcarbachol":12838,"Ġoriginate":12839,"arinic":12840,"ethop":12841,"Ġcatheters":12842,"Ġgonadotroph":12843,"Ġpelvis":12844,"Ġsurrounded":12845,"zolium":12846,"Ġarylsulfatase":12847,"angiography":12848,"Ġdispersion":12849,"Ġpanel":12850,"ĠReduction":12851,"Ġcandid":12852,"Ġdilutions":12853,"Ġanticonvulsant":12854,"BB":12855,"yrosine":12856,"Ġtympan":12857,"orib":12858,"anoic":12859,"atta":12860,"atous":12861,"atching":12862,"idis":12863,"olate":12864,"Ġconformations":12865,"Ġconidia":12866,"thin":12867,"Ġenable":12868,"ĠSF":12869,"ĠHo":12870,"Ġusers":12871,"henius":12872,"ĠFree":12873,"ocyc":12874,"Ġamorph":12875,"Ġmonocyt":12876,"Ġmoieties":12877,"ograp":12878,"Ġquaternary":12879,"ĠDNAs":12880,"Ġcontraind":12881,"Ġshoulder":12882,"Ġradioiod":12883,"Ġsuperim":12884,"Ġlaw":12885,"Ġmathema":12886,"Ġantagonistic":12887,"Ġsecrete":12888,"ozide":12889,"Ġherni":12890,"Ġpredictive":12891,"Ġrecurrences":12892,"Ġconsequently":12893,"ĠBacteroides":12894,"Ġcapsules":12895,"Ġpassages":12896,"ipple":12897,"Ġcloned":12898,"Ġcompetence":12899,"Ġdistinguishable":12900,"Ġecz":12901,"amethonium":12902,"bromo":12903,"Ġobviously":12904,"Ġulceration":12905,"Ġrigid":12906,"aturating":12907,"synaptic":12908,"Ġatmosphere":12909,"ĠRemoval":12910,"Ġundetectable":12911,"Ġbacteremia":12912,"Ġtaurocholate":12913,"based":12914,"Ġ;":12915,"Ġanten":12916,"Ġantral":12917,"asia":12918,"itting":12919,"Ġfinger":12920,"Ġlaryngeal":12921,"Ġ([":12922,"Ġproof":12923,"diphosphate":12924,"amn":12925,"ystole":12926,"Ġimaging":12927,"ĠPTH":12928,"ĠMus":12929,"Ġrecall":12930,"ĠGlyc":12931,"issue":12932,"Ġphosphatidylethanolamine":12933,"Ġmanu":12934,"relation":12935,"Ġradiographs":12936,"lock":12937,"Ġcalculations":12938,"Ġappearances":12939,"Ġteam":12940,"Ġimprovements":12941,"Ġclassic":12942,"Ġbuoyant":12943,"Ġpsychomotor":12944,"Ġearlies":12945,"Ġsynthesizing":12946,"Ġdevices":12947,"Ġtrache":12948,"idiotypic":12949,"IgE":12950,"Ġlobes":12951,"Ġalkylation":12952,"Ġfluxes":12953,"Ġurokinase":12954,"collagen":12955,"Ġimmunoperoxidase":12956,"Ġmalnourished":12957,"Ġdiscriminate":12958,"Ġascorbate":12959,"Ġthreonine":12960,"ĠFactor":12961,"Ġgrise":12962,"Ġfeasible":12963,"Ġmyofibrils":12964,"Ġdisadvantages":12965,"Ġsacrificed":12966,"Ġsequelae":12967,"Ġmentally":12968,"Ġspherical":12969,"Ġascertained":12970,"cnemius":12971,"BT":12972,"CEA":12973,"Met":12974,"Ġtel":12975,"Ġtax":12976,"tiation":12977,"Ġinosine":12978,"Ġanesthetics":12979,"Ġhous":12980,"verage":12981,"Ġnude":12982,"Ġlis":12983,"ceu":12984,"Ġvocal":12985,"Ġentered":12986,"ĠSr":12987,"ĠPhe":12988,"Ġapplying":12989,"plates":12990,"Ġclaim":12991,"Ġstated":12992,"Ġstones":12993,"Ġtiming":12994,"Ġdemyel":12995,"tilb":12996,"pressed":12997,"ardive":12998,"turition":12999,"Ġmultic":13000,"Ġuremic":13001,"Ġproliferating":13002,"imetry":13003,"Ġcouples":13004,"cytoplasmic":13005,"Ġdefinitely":13006,"Ġtablet":13007,"ouabain":13008,"Ġcatabolic":13009,"ympathetic":13010,"Ġtricyclic":13011,"strept":13012,"anediol":13013,"Ġsurgeon":13014,"Ġmanipulation":13015,"Ġoscillations":13016,"DOPA":13017,"Ġextremities":13018,"Ġfilamentous":13019,"Ġopiate":13020,"Ġbegins":13021,"Ġhyperactivity":13022,"Ġinexpensive":13023,"Ġmercury":13024,"availability":13025,"Ġglaucoma":13026,"armaceu":13027,"Ġearliest":13028,"97":13029,"cre":13030,"vival":13031,"aspart":13032,"Ġmiss":13033,"anum":13034,"Ġreapp":13035,"Ġrejected":13036,"Ġnylon":13037,"acting":13038,"utyryl":13039,"ĠAF":13040,"ĠIU":13041,"Ġchicks":13042,"Ġdistor":13043,"Ġdismut":13044,"ĠMc":13045,"Ġnote":13046,"ĠLSD":13047,"Ġgli":13048,"roprus":13049,"Ġmodest":13050,"ensit":13051,"Ġnucleolar":13052,"Ġcontracted":13053,"requis":13054,"Ġsmallest":13055,"oplasmin":13056,"Ġelectrically":13057,"Inc":13058,"Ġneurogenic":13059,"Ġcountry":13060,"Ġtwins":13061,"Ġpainful":13062,"Ġoesophageal":13063,"Ġhypoxanthine":13064,"cardiac":13065,"hexane":13066,"Ġprevalent":13067,"icoll":13068,"carboxyl":13069,"Ġpenetrate":13070,"Ġpatent":13071,"Ġsoybean":13072,"Ġscattering":13073,"Ġparadoxical":13074,"chnoid":13075,"Ġmaltose":13076,"Ġdiphther":13077,"enecid":13078,"Ġmonocytogenes":13079,"GVH":13080,"gulation":13081,"esity":13082,"Ġbolus":13083,"Ġthaw":13084,"Ġgalac":13085,"aman":13086,"ĠAmino":13087,"Ġraising":13088,"Ġmeiotic":13089,"adap":13090,"Ġpercutaneous":13091,"ĠPositive":13092,"ĠMultiple":13093,"elle":13094,"Ġtransl":13095,"Ġgrouped":13096,"ourse":13097,"arate":13098,"Ġimmunotherapy":13099,"ĠLight":13100,"Ġobserve":13101,"Ġ104":13102,"Ġarsen":13103,"Ġtyped":13104,"Ġnucleoli":13105,"aluation":13106,"Ġ115":13107,"average":13108,"Ġhyalin":13109,"omeric":13110,"Ġinducer":13111,"Ġmigrated":13112,"Ġcreated":13113,"Ġphosphohydrolase":13114,"Ġmeningitidis":13115,"muscle":13116,"Ġconfirmation":13117,"diazepam":13118,"Ġmetaphase":13119,"carbodiimide":13120,"ĠLiver":13121,"Ġdried":13122,"Ġdoubled":13123,"Ġordered":13124,"feeding":13125,"borne":13126,"Ġjustif":13127,"Ġdomains":13128,"Ġpharmacokinetic":13129,"Ġaminoglycoside":13130,"Ġredistribution":13131,"Ġhaptoglobin":13132,"hydroxydopamine":13133,"Ġmathematical":13134,"mid":13135,"yx":13136,"Ġtor":13137,"Ġtun":13138,"Ġbathing":13139,"antagon":13140,"Ġrefer":13141,"Ġemin":13142,"Ġnystagmus":13143,"ĠTri":13144,"Ġthorough":13145,"omo":13146,"imozide":13147,"unts":13148,"ift":13149,"Ġvoid":13150,"ogether":13151,"ĠSG":13152,"ĠShe":13153,"Ġimmers":13154,"Ġpremed":13155,"ĠNK":13156,"ĠNGF":13157,"sian":13158,"totic":13159,"Ġparalysis":13160,"ĠLocal":13161,"Ġgln":13162,"Ġlymphocyt":13163,"Ġelectroencephal":13164,"Ġrespects":13165,"ĠVH":13166,"Ġageing":13167,"Ġamounted":13168,"Ġcleft":13169,"Ġlocalisation":13170,"Ġtraumatic":13171,"Ġslowing":13172,"ĠAsc":13173,"258":13174,"Ġribonucle":13175,"Ġmigrating":13176,"Ġhernia":13177,"Ġbarium":13178,"Ġpalm":13179,"Ġforebrain":13180,"deoxyuridine":13181,"Ġdriven":13182,"Ġeosinophils":13183,"Ġtropomyosin":13184,"ĠBeta":13185,"Ġcastrated":13186,"Ġcluster":13187,"Ġexcitability":13188,"ĠAfrica":13189,"Ġstabilizing":13190,"Ġimpulses":13191,"Ġanticoagulant":13192,"Ġpuberty":13193,"AN":13194,"High":13195,"Meth":13196,"dotoxin":13197,"prising":13198,"rs":13199,"xiety":13200,"teg":13201,"Ġinositol":13202,"Ġwinter":13203,"anamycin":13204,"idae":13205,"Ġnose":13206,"ĠTN":13207,"imal":13208,"iry":13209,"ffic":13210,"ĠStudy":13211,"essary":13212,"chnic":13213,"ĠMay":13214,"uretics":13215,"ĠRhesus":13216,"allergic":13217,"Ġinterrelations":13218,"Ġliter":13219,"Ġdesaturase":13220,"Ġcolos":13221,"Ġmodifying":13222,"Ġmandibular":13223,"Ġinvestigating":13224,"Ġequine":13225,"Ġinitiate":13226,"ressor":13227,"Ġacutely":13228,"Ġtrait":13229,"Ġresidents":13230,"rosemide":13231,"alytic":13232,"ĠAsp":13233,"Ġflap":13234,"Ġribonucleic":13235,"Ġintensities":13236,"Ġreviews":13237,"Ġtransitional":13238,"Ġpsychotic":13239,"malignant":13240,"atisf":13241,"Ġfavor":13242,"Ġconstitutive":13243,"Ġadsorb":13244,"Ġinfarct":13245,"effect":13246,"THC":13247,"Ġreconstitution":13248,"Ġinterfering":13249,"Ġobject":13250,"BGG":13251,"Ġpollen":13252,"Ġstrikingly":13253,"anilide":13254,"ĠAChE":13255,"Ġlymphoblastic":13256,"Ġsynaptosomes":13257,"ĠRepe":13258,"Ġdecomposition":13259,"Ġreproduction":13260,"ompetence":13261,"structural":13262,"ĠPlasmodium":13263,"ĠEnterobacter":13264,"Ġquestionnaire":13265,"Ġnecropsy":13266,"Ġunclear":13267,"ĠArrhenius":13268,"Ġatresia":13269,"Ġneuroblastoma":13270,"Ġamorphous":13271,"case":13272,"uation":13273,"Ġtree":13274,"Ġprazosin":13275,"ĠTak":13276,"diphosphoglycerate":13277,"Ġforced":13278,"amidase":13279,"ĠCC":13280,"Ġincons":13281,"Ġactivates":13282,"loon":13283,"ĠMice":13284,"ĠInjection":13285,"erature":13286,"Ġsubnormal":13287,"Ġmethysergide":13288,"ĠGene":13289,"Ġarms":13290,"Ġgenotype":13291,"Ġintole":13292,"icially":13293,"orptive":13294,"Ġsensitizing":13295,"xygen":13296,"values":13297,"ĠAlpha":13298,"orporation":13299,"Ġadvance":13300,"Ġlactation":13301,"ĠForty":13302,"Ġsedation":13303,"Ġsuspic":13304,"Ġrender":13305,"Ġdermis":13306,"tetraacetic":13307,"Ġdiameters":13308,"Ġcatalep":13309,"Ġcontributing":13310,"Ġanxi":13311,"myel":13312,"Ġrunning":13313,"histone":13314,"Ġroughly":13315,"Ġrecommendations":13316,"Ġprescribed":13317,"liteal":13318,"Ġemptying":13319,"ĠCertain":13320,"Ġallergens":13321,"Ġsorbitol":13322,"Ġregurgitation":13323,"roprusside":13324,"diss":13325,"foc":13326,"Ġnational":13327,"Ġvibration":13328,"romycin":13329,"amy":13330,"ilizing":13331,"rank":13332,"Ġspring":13333,"Ġsplan":13334,"Ġpertussis":13335,"ĠSto":13336,"ĠSystem":13337,"Ġimipramine":13338,"ĠDoppler":13339,"perme":13340,"Ġarri":13341,"Ġdiurnal":13342,"Ġopson":13343,"Ġrodents":13344,"Ġexamining":13345,"Ġscales":13346,"azam":13347,"ords":13348,"Ġsequentially":13349,"Ġcerebro":13350,"Ġdissection":13351,"Ġosmolality":13352,"Ġdigit":13353,"Ġacetyltransferase":13354,"plasma":13355,"Ġketamine":13356,"Ġtetrahydro":13357,"orax":13358,"Ġairways":13359,"Ġconstituted":13360,"Ġsurveillance":13361,"chymotrypsin":13362,"Ġjunctional":13363,"Ġdistinguishing":13364,"Ġfifty":13365,"Ġorders":13366,"Ġglycosaminoglycan":13367,"peak":13368,"Ġvasculitis":13369,"Ġstiff":13370,"bital":13371,"ining":13372,"Ġcran":13373,"anoate":13374,"ucas":13375,"Ġvincristine":13376,"ĠCarb":13377,"ĠSEM":13378,"reases":13379,"ĠMet":13380,"ĠDHT":13381,"ĠNational":13382,"Ġapply":13383,"plications":13384,"Ġreactivation":13385,"Ġclonal":13386,"ĠWest":13387,"Ġgenesis":13388,"Ġdiuresis":13389,"dynamic":13390,"Ġinstillation":13391,"ĠUse":13392,"ĠUrinary":13393,"ĠIgD":13394,"Ġinvaria":13395,"Ġnecro":13396,"links":13397,"ausea":13398,"Ġhydrolysed":13399,"Ġsurvive":13400,"hydroxybutyrate":13401,"Ġfixative":13402,"Ġpropionate":13403,"Ġrising":13404,"Ġmacroglobulin":13405,"ĠExposure":13406,"acetylglucosamine":13407,"Ġhospitalization":13408,"Ġtranscrip":13409,"Ġprotonation":13410,"Ġanticip":13411,"Ġkiller":13412,"ĠPRA":13413,"Ġfaeces":13414,"Ġpassively":13415,"Ġethidium":13416,"Ġillustrate":13417,"Ġskills":13418,"Ġvasodilatation":13419,"ĠABO":13420,"divided":13421,"ogluconate":13422,"Ġwavelength":13423,"Ġframework":13424,"Ġcolloidal":13425,"ĠJanuary":13426,"Ġscleroderma":13427,"cing":13428,"diffusion":13429,"eper":13430,"lonal":13431,"penicill":13432,"zin":13433,"Ġatax":13434,"Ġmec":13435,"Ġfoss":13436,"enth":13437,"Ġcong":13438,"Ġvitre":13439,"oguan":13440,"hers":13441,"Ġaltitude":13442,"ĠPath":13443,"ĠMMTV":13444,"ĠDT":13445,"Ġhabit":13446,"ĠEH":13447,"ĠRauscher":13448,"oxidase":13449,"Ġarises":13450,"Ġelective":13451,"insensitive":13452,"Ġmethodology":13453,"Ġaccident":13454,"Ġoxprenolol":13455,"orporeal":13456,"Ġdiscusses":13457,"Ġincubations":13458,"Ġmulatta":13459,"Ġcruc":13460,"Ġterminus":13461,"Ġbronchitis":13462,"Ġattending":13463,"Ġscreen":13464,"Ġpyel":13465,"1977":13466,"ĠArter":13467,"ocarpine":13468,"Ġcharges":13469,"Ġcharcoal":13470,"Ġsummer":13471,"Ġirreversibly":13472,"Ġdriving":13473,"Ġhydroxyethyl":13474,"Ġpromoted":13475,"Ġechocardiographic":13476,"irradiation":13477,"strand":13478,"Ġhydrocarbons":13479,"Ġunfav":13480,"Ġlichen":13481,"Ġendemic":13482,"1000":13483,"Di":13484,"SE":13485,"gment":13486,"patients":13487,"Ġoc":13488,"energy":13489,"Ġbatch":13490,"arding":13491,"osclerosis":13492,"ĠTox":13493,"ĠTyr":13494,"imer":13495,"urse":13496,"Ġbeat":13497,"rescine":13498,"sets":13499,"odopa":13500,"utants":13501,"ophenol":13502,"Ġspots":13503,"chi":13504,"perf":13505,"Ġunfol":13506,"Ġunnec":13507,"Ġsubtype":13508,"Ġformate":13509,"Ġamn":13510,
[...]
